const unsigned char model[] = {
  0x1c, 0x00, 0x00, 0x00, 0x54, 0x46, 0x4c, 0x33, 0x14, 0x00, 0x20, 0x00,
  0x1c, 0x00, 0x18, 0x00, 0x14, 0x00, 0x10, 0x00, 0x0c, 0x00, 0x00, 0x00,
  0x08, 0x00, 0x04, 0x00, 0x14, 0x00, 0x00, 0x00, 0x1c, 0x00, 0x00, 0x00,
  0x90, 0x00, 0x00, 0x00, 0xe8, 0x00, 0x00, 0x00, 0x98, 0x3e, 0x00, 0x00,
  0xa8, 0x3e, 0x00, 0x00, 0x64, 0x44, 0x00, 0x00, 0x03, 0x00, 0x00, 0x00,
  0x01, 0x00, 0x00, 0x00, 0x10, 0x00, 0x00, 0x00, 0x00, 0x00, 0x0a, 0x00,
  0x10, 0x00, 0x0c, 0x00, 0x08, 0x00, 0x04, 0x00, 0x0a, 0x00, 0x00, 0x00,
  0x0c, 0x00, 0x00, 0x00, 0x1c, 0x00, 0x00, 0x00, 0x38, 0x00, 0x00, 0x00,
  0x0f, 0x00, 0x00, 0x00, 0x73, 0x65, 0x72, 0x76, 0x69, 0x6e, 0x67, 0x5f,
  0x64, 0x65, 0x66, 0x61, 0x75, 0x6c, 0x74, 0x00, 0x01, 0x00, 0x00, 0x00,
  0x04, 0x00, 0x00, 0x00, 0x98, 0xff, 0xff, 0xff, 0x0a, 0x00, 0x00, 0x00,
  0x04, 0x00, 0x00, 0x00, 0x07, 0x00, 0x00, 0x00, 0x64, 0x65, 0x6e, 0x73,
  0x65, 0x5f, 0x32, 0x00, 0x01, 0x00, 0x00, 0x00, 0x04, 0x00, 0x00, 0x00,
  0x4a, 0xc1, 0xff, 0xff, 0x04, 0x00, 0x00, 0x00, 0x0b, 0x00, 0x00, 0x00,
  0x64, 0x65, 0x6e, 0x73, 0x65, 0x5f, 0x69, 0x6e, 0x70, 0x75, 0x74, 0x00,
  0x02, 0x00, 0x00, 0x00, 0x34, 0x00, 0x00, 0x00, 0x04, 0x00, 0x00, 0x00,
  0xdc, 0xff, 0xff, 0xff, 0x0d, 0x00, 0x00, 0x00, 0x04, 0x00, 0x00, 0x00,
  0x13, 0x00, 0x00, 0x00, 0x43, 0x4f, 0x4e, 0x56, 0x45, 0x52, 0x53, 0x49,
  0x4f, 0x4e, 0x5f, 0x4d, 0x45, 0x54, 0x41, 0x44, 0x41, 0x54, 0x41, 0x00,
  0x08, 0x00, 0x0c, 0x00, 0x08, 0x00, 0x04, 0x00, 0x08, 0x00, 0x00, 0x00,
  0x0c, 0x00, 0x00, 0x00, 0x04, 0x00, 0x00, 0x00, 0x13, 0x00, 0x00, 0x00,
  0x6d, 0x69, 0x6e, 0x5f, 0x72, 0x75, 0x6e, 0x74, 0x69, 0x6d, 0x65, 0x5f,
  0x76, 0x65, 0x72, 0x73, 0x69, 0x6f, 0x6e, 0x00, 0x0e, 0x00, 0x00, 0x00,
  0xac, 0x3d, 0x00, 0x00, 0xa4, 0x3d, 0x00, 0x00, 0x58, 0x3d, 0x00, 0x00,
  0x38, 0x3d, 0x00, 0x00, 0x60, 0x3c, 0x00, 0x00, 0x70, 0x0d, 0x00, 0x00,
  0xa8, 0x01, 0x00, 0x00, 0xa8, 0x00, 0x00, 0x00, 0xa0, 0x00, 0x00, 0x00,
  0x98, 0x00, 0x00, 0x00, 0x90, 0x00, 0x00, 0x00, 0x88, 0x00, 0x00, 0x00,
  0x68, 0x00, 0x00, 0x00, 0x04, 0x00, 0x00, 0x00, 0xfa, 0xc1, 0xff, 0xff,
  0x04, 0x00, 0x00, 0x00, 0x54, 0x00, 0x00, 0x00, 0x0c, 0x00, 0x00, 0x00,
  0x08, 0x00, 0x0e, 0x00, 0x08, 0x00, 0x04, 0x00, 0x08, 0x00, 0x00, 0x00,
  0x10, 0x00, 0x00, 0x00, 0x24, 0x00, 0x00, 0x00, 0x00, 0x00, 0x06, 0x00,
  0x08, 0x00, 0x04, 0x00, 0x06, 0x00, 0x00, 0x00, 0x04, 0x00, 0x00, 0x00,
  0x00, 0x00, 0x00, 0x00, 0x00, 0x00, 0x0a, 0x00, 0x10, 0x00, 0x0c, 0x00,
  0x08, 0x00, 0x04, 0x00, 0x0a, 0x00, 0x00, 0x00, 0x02, 0x00, 0x00, 0x00,
  0x02, 0x00, 0x00, 0x00, 0x04, 0x00, 0x00, 0x00, 0x06, 0x00, 0x00, 0x00,
  0x32, 0x2e, 0x31, 0x34, 0x2e, 0x30, 0x00, 0x00, 0x5a, 0xc2, 0xff, 0xff,
  0x04, 0x00, 0x00, 0x00, 0x10, 0x00, 0x00, 0x00, 0x31, 0x2e, 0x35, 0x2e,
  0x30, 0x00, 0x00, 0x00, 0x00, 0x00, 0x00, 0x00, 0x00, 0x00, 0x00, 0x00,
  0x68, 0xbd, 0xff, 0xff, 0x6c, 0xbd, 0xff, 0xff, 0x70, 0xbd, 0xff, 0xff,
  0x74, 0xbd, 0xff, 0xff, 0x86, 0xc2, 0xff, 0xff, 0x04, 0x00, 0x00, 0x00,
  0xf0, 0x00, 0x00, 0x00, 0xd2, 0x99, 0x8b, 0x3f, 0xb1, 0x6e, 0xd7, 0x3e,
  0x0a, 0x87, 0x47, 0xbf, 0x96, 0x7f, 0xf6, 0x3e, 0x80, 0x83, 0x39, 0xbe,
  0x93, 0xa1, 0x87, 0xbf, 0xa9, 0x78, 0xff, 0x3e, 0x73, 0x19, 0x6c, 0x3f,
  0xf5, 0x9c, 0xd6, 0xbe, 0x44, 0x3d, 0xd9, 0xbf, 0x6d, 0xe4, 0x1f, 0xbf,
  0xae, 0x50, 0x31, 0xbf, 0x05, 0x4b, 0xf0, 0xbe, 0xdd, 0x38, 0xff, 0xbe,
  0x09, 0xbd, 0xad, 0xbe, 0x8f, 0x0f, 0xe8, 0x3e, 0xb7, 0x49, 0x82, 0x3e,
  0x1b, 0xc6, 0x11, 0xbf, 0xa6, 0x01, 0xb3, 0xbe, 0x75, 0x6e, 0x9d, 0xbf,
  0x5e, 0x6a, 0x13, 0x3f, 0xf5, 0xd7, 0x64, 0x3b, 0x2a, 0x25, 0x09, 0x3f,
  0x2c, 0x85, 0xe8, 0xbf, 0x55, 0x16, 0xa0, 0x3f, 0xe7, 0x4f, 0x62, 0xbf,
  0x53, 0x82, 0x1e, 0xbf, 0x2f, 0xa8, 0x24, 0xbf, 0x7e, 0x3b, 0xe6, 0xbe,
  0xca, 0x88, 0x06, 0x3f, 0x99, 0x59, 0xfd, 0xbf, 0x21, 0x5a, 0xcf, 0xbf,
  0x04, 0x3f, 0xe1, 0xbe, 0xe2, 0xa1, 0xb5, 0x3e, 0xd5, 0x90, 0xc5, 0x3e,
  0x63, 0x7a, 0x01, 0x3f, 0xc4, 0xdc, 0x06, 0xbf, 0x9a, 0x05, 0x9a, 0xbf,
  0x5d, 0xfe, 0x35, 0x3f, 0x88, 0x42, 0x5e, 0xbf, 0x0b, 0x3e, 0x4a, 0x3f,
  0xca, 0xd0, 0xa3, 0x3f, 0x0d, 0x4e, 0x14, 0x3f, 0x99, 0xd4, 0xff, 0x3e,
  0x59, 0xc9, 0x71, 0xbe, 0x03, 0x3e, 0x18, 0x3e, 0xb5, 0xa0, 0x73, 0xbe,
  0x18, 0x74, 0xa7, 0x3f, 0x3c, 0x66, 0xfc, 0xbe, 0xe0, 0xa5, 0x34, 0x3f,
  0xe7, 0xa4, 0x07, 0xbf, 0x44, 0xa9, 0xbe, 0xbf, 0x29, 0x0d, 0xeb, 0x3e,
  0xc9, 0x55, 0x27, 0x3e, 0xf7, 0x9d, 0xb5, 0xbe, 0x61, 0xb1, 0x4e, 0x3f,
  0xbb, 0xaf, 0x2e, 0xbf, 0x70, 0xe4, 0x21, 0x3f, 0xb2, 0x96, 0xd1, 0xbd,
  0x98, 0x08, 0xb2, 0xbe, 0x82, 0xc3, 0xff, 0xff, 0x04, 0x00, 0x00, 0x00,
  0xb8, 0x0b, 0x00, 0x00, 0xbd, 0x40, 0x84, 0xbe, 0x47, 0xa4, 0x08, 0xbe,
  0x2b, 0xf3, 0xb5, 0xbd, 0x1a, 0x99, 0x1a, 0x3e, 0x8d, 0xd1, 0x70, 0xbe,
  0x2b, 0xfb, 0x31, 0xbe, 0xd2, 0x07, 0x86, 0x3e, 0xd0, 0x4b, 0x30, 0x3d,
  0x1e, 0xbb, 0x82, 0xbd, 0x61, 0x2f, 0xa0, 0x3e, 0x07, 0xc0, 0x22, 0x3e,
  0x04, 0x5e, 0xbe, 0xbe, 0x31, 0xb7, 0xed, 0x3d, 0x66, 0x2a, 0x8d, 0xbe,
  0x05, 0xc2, 0x58, 0xbe, 0x94, 0xfb, 0xf3, 0x3d, 0x77, 0xd4, 0x0f, 0xbd,
  0xe2, 0x87, 0xa3, 0x3d, 0xde, 0xcb, 0x9b, 0xbd, 0x48, 0xa6, 0xba, 0x3d,
  0xdd, 0x0d, 0x5b, 0x3e, 0x0c, 0x67, 0x00, 0x3e, 0x80, 0xa9, 0x83, 0x3e,
  0xac, 0xad, 0xcd, 0xbe, 0x19, 0x15, 0x93, 0xbd, 0x93, 0x10, 0xd5, 0xbd,
  0x4b, 0x02, 0x36, 0x3e, 0x14, 0xde, 0x0d, 0x3e, 0xaa, 0x31, 0x43, 0xbe,
  0x34, 0xb0, 0x87, 0x3f, 0x55, 0x19, 0x6c, 0x3c, 0xce, 0xe8, 0x02, 0x3f,
  0xf0, 0xd2, 0x8e, 0x3d, 0x92, 0xe1, 0x64, 0x3e, 0x82, 0xdd, 0x17, 0x3f,
  0x94, 0xb4, 0x83, 0xbe, 0x40, 0xfb, 0x7b, 0x3e, 0x00, 0x07, 0x2c, 0x3f,
  0x78, 0xf8, 0xef, 0x3d, 0x7c, 0xb6, 0x86, 0x3e, 0x6c, 0xbb, 0x36, 0x3e,
  0xf4, 0xe2, 0x38, 0x3e, 0x54, 0xaf, 0x5f, 0x3f, 0x5c, 0xc6, 0x74, 0x3e,
  0x7a, 0xac, 0x83, 0x3c, 0x8f, 0x2c, 0xae, 0xbe, 0x6c, 0x97, 0x06, 0xbf,
  0x3f, 0x14, 0xc3, 0xbd, 0xce, 0xea, 0x77, 0x3e, 0x9a, 0xeb, 0x97, 0x3e,
  0x92, 0xbe, 0x80, 0xba, 0x38, 0xc5, 0xd3, 0x3d, 0xaa, 0x0b, 0x8f, 0x3e,
  0x00, 0x40, 0x4c, 0x3e, 0x0e, 0x18, 0x3d, 0xbe, 0x0e, 0x91, 0x11, 0x3e,
  0x3e, 0xd2, 0xb1, 0xbd, 0xd6, 0x04, 0x6b, 0x3d, 0x39, 0x47, 0x2e, 0x3e,
  0xaf, 0x2d, 0x53, 0x3e, 0x01, 0x70, 0x73, 0x3d, 0x35, 0x50, 0x06, 0xbe,
  0xa1, 0xb9, 0x16, 0xbe, 0xf4, 0x21, 0x8e, 0x3e, 0x80, 0x57, 0x7a, 0x3e,
  0x60, 0xe3, 0xc5, 0x3c, 0x6c, 0xc9, 0xb1, 0x3e, 0x50, 0x79, 0x1e, 0xbd,
  0x1c, 0x97, 0x97, 0xbe, 0xce, 0x3d, 0x94, 0x3e, 0x36, 0x31, 0x89, 0x3e,
  0x46, 0x4f, 0xef, 0xbd, 0x7a, 0xd7, 0x56, 0xbe, 0x9b, 0x2f, 0x77, 0x3d,
  0x9a, 0x88, 0xa7, 0xbb, 0x39, 0x22, 0x78, 0xbe, 0x34, 0xc0, 0x87, 0x3e,
  0x04, 0xe1, 0x46, 0x3e, 0x6c, 0x2f, 0x55, 0x3e, 0xbe, 0x85, 0x73, 0x3f,
  0x8b, 0x83, 0x80, 0x3b, 0x7f, 0x10, 0x81, 0x3e, 0x46, 0xc7, 0x60, 0x3e,
  0x80, 0xcb, 0x82, 0xbe, 0xf0, 0x74, 0x6e, 0x3f, 0x10, 0x7b, 0xf2, 0xbc,
  0x4c, 0x4f, 0x77, 0x3e, 0x0e, 0xab, 0x45, 0x3f, 0x00, 0x43, 0x47, 0xbd,
  0x5b, 0x06, 0x15, 0xbe, 0xd4, 0xd8, 0x98, 0x3d, 0x58, 0xa8, 0x56, 0x3e,
  0x86, 0x74, 0x2b, 0x3f, 0x68, 0x73, 0x5c, 0x3e, 0x6e, 0xf8, 0xf0, 0x3c,
  0xcf, 0xbd, 0xe9, 0xbe, 0x42, 0xe4, 0xc1, 0xbe, 0xc4, 0x3f, 0x38, 0xbe,
  0x8c, 0x68, 0x25, 0x3d, 0x84, 0xcb, 0xe3, 0xbd, 0xc1, 0x04, 0xb9, 0x3e,
  0x52, 0x25, 0x7a, 0x3f, 0x66, 0x9e, 0x8a, 0x3d, 0xbe, 0xf4, 0x97, 0x3e,
  0xb4, 0x53, 0x72, 0xbe, 0xc1, 0x36, 0x6d, 0x3e, 0x00, 0xb9, 0x84, 0x3e,
  0xa9, 0x48, 0x03, 0x3f, 0xef, 0xc1, 0x7b, 0x3e, 0xa4, 0x95, 0x58, 0xbe,
  0x56, 0x20, 0xee, 0x3b, 0x27, 0xfc, 0x50, 0x3e, 0x8f, 0xc7, 0x44, 0xbe,
  0x14, 0x7f, 0x01, 0x3e, 0x3e, 0xc9, 0x34, 0x3f, 0x68, 0x6c, 0x3c, 0x3d,
  0xb1, 0x3c, 0x0d, 0xbe, 0x51, 0x03, 0x72, 0x3e, 0xc2, 0x52, 0x34, 0x3e,
  0x80, 0xeb, 0x14, 0x3c, 0x14, 0xe2, 0xca, 0xbd, 0xc0, 0xce, 0x17, 0xbd,
  0x56, 0x77, 0x39, 0x3e, 0xb5, 0xc3, 0xcc, 0x3c, 0xa7, 0x0d, 0x36, 0x3e,
  0xf4, 0x82, 0x8a, 0xbe, 0x31, 0x99, 0xe0, 0x3d, 0x9a, 0xdb, 0x68, 0xbe,
  0x96, 0x4f, 0x14, 0xbe, 0x1f, 0x29, 0x4f, 0x3e, 0x54, 0x58, 0x5f, 0xbc,
  0x71, 0x55, 0x0d, 0x3e, 0x6c, 0x80, 0x07, 0xbe, 0x1d, 0xd2, 0x97, 0xbe,
  0x2a, 0x0d, 0x4a, 0x3e, 0x84, 0xe7, 0xa0, 0xbd, 0xb2, 0x23, 0x85, 0x3e,
  0x5a, 0xbd, 0xee, 0xbc, 0x50, 0xcc, 0x52, 0x3e, 0x02, 0x00, 0x64, 0xbe,
  0x80, 0x4a, 0x84, 0xbb, 0x3d, 0x8e, 0x76, 0xbe, 0x5b, 0xcb, 0xd7, 0x3e,
  0x4e, 0xe6, 0x5d, 0xbe, 0x95, 0xdd, 0x15, 0x3e, 0xa6, 0xbf, 0x92, 0xbc,
  0x83, 0x1f, 0x8c, 0x3d, 0xf1, 0xdf, 0x15, 0xbf, 0x58, 0x5c, 0x9a, 0xbd,
  0x54, 0xef, 0x84, 0x3e, 0xf4, 0xe3, 0x85, 0xbe, 0x56, 0xa3, 0x89, 0xbe,
  0x72, 0xc3, 0x09, 0xbe, 0xd6, 0xbf, 0x41, 0x3e, 0x2c, 0x2a, 0x6f, 0xbe,
  0x80, 0x0c, 0x4b, 0x3d, 0x61, 0xee, 0x99, 0xbe, 0x18, 0x38, 0x4d, 0x3d,
  0x00, 0xa3, 0xf2, 0xbc, 0x38, 0x1e, 0x0e, 0xbd, 0xb0, 0xf9, 0x6c, 0xbd,
  0xbc, 0x46, 0x6b, 0xbe, 0x21, 0x33, 0x21, 0xbe, 0xd8, 0x0d, 0x25, 0x3e,
  0xbc, 0x70, 0x65, 0x3e, 0x80, 0xf6, 0x98, 0x3e, 0xf9, 0x45, 0x8a, 0xbe,
  0x49, 0x5e, 0x98, 0xbe, 0xac, 0x47, 0x17, 0xbe, 0x64, 0x9f, 0x9b, 0xbd,
  0x68, 0xde, 0x5d, 0xbe, 0x82, 0x4e, 0x39, 0x3e, 0x0c, 0xa2, 0x98, 0xbe,
  0x2a, 0xa4, 0x91, 0x3e, 0xa4, 0x23, 0x69, 0x3e, 0x5c, 0xbd, 0x36, 0xbe,
  0x68, 0xf4, 0x8e, 0x3e, 0x28, 0xee, 0xa9, 0xbd, 0x11, 0x89, 0x36, 0xbe,
  0xb4, 0x0d, 0x4d, 0x3e, 0x40, 0x87, 0x97, 0x3b, 0xb8, 0xef, 0x9a, 0xbe,
  0x48, 0x57, 0x39, 0x3e, 0x9e, 0x38, 0x71, 0xbe, 0x40, 0x9f, 0xa9, 0xbc,
  0x97, 0xa3, 0x95, 0xbe, 0xd4, 0xb5, 0x09, 0x3e, 0x5e, 0x9d, 0x23, 0xbe,
  0x81, 0xbe, 0x7f, 0xbe, 0x9a, 0xba, 0x2e, 0x3e, 0xbe, 0xdc, 0x90, 0x3e,
  0x36, 0xf0, 0x27, 0xbe, 0xf0, 0x85, 0x02, 0x3d, 0x7c, 0x3c, 0x2a, 0xbe,
  0x48, 0x5c, 0x06, 0x3d, 0xd7, 0x61, 0x97, 0xbe, 0xce, 0x30, 0xbd, 0xbd,
  0x58, 0xcc, 0xd7, 0x3d, 0x78, 0x1e, 0x44, 0xbd, 0xe4, 0x3b, 0x98, 0x3e,
  0x5d, 0xd8, 0xc9, 0xbd, 0xf0, 0x04, 0x16, 0x3f, 0x73, 0xe1, 0xa9, 0x3e,
  0x3a, 0x05, 0x81, 0x3e, 0x3b, 0x02, 0x78, 0x3e, 0xef, 0xfb, 0xce, 0xbd,
  0x6c, 0xe5, 0x09, 0xbe, 0xfb, 0x36, 0xf7, 0x3e, 0x29, 0x5e, 0xa3, 0x3e,
  0x8d, 0x62, 0xec, 0x3d, 0x98, 0x1e, 0x30, 0x3e, 0xd3, 0x08, 0x8c, 0x3e,
  0xd2, 0x56, 0xf1, 0xbd, 0x80, 0x23, 0xcb, 0xbc, 0xde, 0x5d, 0x70, 0x3f,
  0x40, 0x56, 0xbd, 0x3d, 0x6e, 0x1b, 0x0f, 0xbe, 0x34, 0xe0, 0x5a, 0x3e,
  0x38, 0xf1, 0x06, 0xbd, 0x4a, 0x34, 0x76, 0xbe, 0x45, 0xc9, 0x21, 0x3f,
  0xb0, 0xd6, 0x91, 0x3c, 0x70, 0x6c, 0x5c, 0x3d, 0x31, 0xee, 0x09, 0x3f,
  0x03, 0x43, 0x8c, 0x3e, 0x90, 0x29, 0xcb, 0x3e, 0x8a, 0x6b, 0x30, 0xbd,
  0x8b, 0x3d, 0x91, 0xbe, 0xb0, 0xd2, 0x4f, 0x3d, 0x23, 0xb1, 0x8f, 0xbe,
  0xae, 0xd1, 0x28, 0x3e, 0x47, 0x98, 0xa0, 0xbe, 0x1f, 0x31, 0x18, 0xbf,
  0x44, 0xd0, 0xc9, 0xbe, 0xbb, 0xea, 0x17, 0x3d, 0x40, 0xa5, 0xa1, 0x3b,
  0x31, 0xba, 0x58, 0xbe, 0x7e, 0x88, 0x49, 0xbe, 0xaa, 0x36, 0x93, 0xbe,
  0x05, 0xcd, 0x94, 0xbe, 0xca, 0x3a, 0x8b, 0x3e, 0xfc, 0xfe, 0xcc, 0xbd,
  0x07, 0x1f, 0xc4, 0xbe, 0xb4, 0xae, 0x91, 0x3d, 0x4a, 0x0c, 0x2d, 0xbd,
  0x33, 0xff, 0xe5, 0x3e, 0x2c, 0x0d, 0xd6, 0x3e, 0x8c, 0xb1, 0x0d, 0xbe,
  0x78, 0x36, 0x1d, 0xbd, 0x9e, 0xaa, 0x96, 0x3e, 0x23, 0x01, 0x8d, 0xbe,
  0x61, 0x9f, 0xb5, 0xbe, 0xda, 0x5d, 0x06, 0xbe, 0x50, 0xd0, 0x52, 0x3d,
  0xe6, 0xb4, 0x0d, 0x3e, 0x7a, 0x30, 0x96, 0x3e, 0xfc, 0x37, 0x9c, 0x3c,
  0x13, 0x94, 0x41, 0xbe, 0x9a, 0x27, 0x3f, 0x3d, 0x92, 0xb3, 0x63, 0x3d,
  0x40, 0xe4, 0xc5, 0x3c, 0x5e, 0x59, 0xb9, 0x3e, 0xb2, 0x21, 0x0d, 0x3e,
  0x25, 0x58, 0x29, 0xbe, 0x1a, 0x10, 0x0e, 0xbf, 0x9e, 0xcc, 0x81, 0x3e,
  0x5c, 0x1b, 0xc9, 0x3e, 0x0c, 0xdf, 0x20, 0x3e, 0xe1, 0xa1, 0x05, 0xbe,
  0xc2, 0xae, 0x87, 0x3e, 0x0e, 0x62, 0xf0, 0xbe, 0x63, 0x67, 0x1f, 0xbe,
  0x36, 0xf6, 0x0f, 0x3e, 0x44, 0xde, 0x80, 0x3f, 0x3e, 0xd8, 0x5e, 0xbe,
  0xc5, 0xa5, 0x7d, 0x3f, 0x8d, 0x76, 0x6b, 0x3e, 0x97, 0xec, 0x8b, 0xbe,
  0x50, 0x06, 0x90, 0xbc, 0x14, 0xc3, 0xcd, 0x3e, 0x79, 0x53, 0xa0, 0xbd,
  0x71, 0x53, 0xe2, 0x3e, 0x9b, 0x0a, 0x72, 0x3e, 0xc7, 0x3f, 0x91, 0xbe,
  0x0a, 0x72, 0x60, 0x3e, 0x76, 0x8c, 0xa2, 0xbd, 0x8c, 0x61, 0x4a, 0x3e,
  0x4f, 0x5a, 0x94, 0xbd, 0x76, 0x06, 0x97, 0xbd, 0xe0, 0x2c, 0xd8, 0xbd,
  0xcc, 0x31, 0x6f, 0x3e, 0x64, 0x9b, 0xff, 0xbd, 0xf4, 0xde, 0x16, 0x3e,
  0xc0, 0xcb, 0x42, 0x3c, 0x98, 0x42, 0xfe, 0x3d, 0xc6, 0x76, 0x33, 0xbf,
  0x9b, 0x76, 0x37, 0xbf, 0xe4, 0xc9, 0x02, 0x3e, 0x4e, 0xd0, 0x70, 0x3e,
  0x42, 0xcd, 0x43, 0x3e, 0x59, 0x1f, 0xd3, 0xbe, 0x97, 0xa6, 0x81, 0xbf,
  0x20, 0xdf, 0x38, 0x3e, 0xd0, 0xb1, 0xb8, 0xbd, 0x54, 0x03, 0xdf, 0x3c,
  0x08, 0x12, 0x81, 0xbd, 0xe8, 0x40, 0x20, 0xbd, 0xff, 0xbb, 0x81, 0xbe,
  0x54, 0xee, 0x67, 0x3e, 0x82, 0x8f, 0x4b, 0x3e, 0xf4, 0x73, 0xa5, 0xbd,
  0xa1, 0xef, 0x23, 0xbf, 0x39, 0xe9, 0x91, 0xbe, 0x96, 0xc5, 0x1e, 0x3e,
  0x44, 0xed, 0x21, 0xbf, 0x22, 0x37, 0x67, 0xbe, 0x4a, 0x81, 0x36, 0x3f,
  0x14, 0xf2, 0x2d, 0xbe, 0x58, 0x45, 0x85, 0x3e, 0x2e, 0xe6, 0xa9, 0xbd,
  0x69, 0x20, 0xe6, 0x3e, 0x74, 0x6b, 0x7f, 0x3e, 0xd9, 0xb1, 0x79, 0xbe,
  0xd4, 0x9e, 0x51, 0xbf, 0x53, 0x8d, 0xfd, 0x3d, 0xd2, 0x2d, 0x2a, 0xbe,
  0xaa, 0x14, 0xef, 0xbd, 0x70, 0xcf, 0x6d, 0xbd, 0x0a, 0x42, 0x81, 0xbe,
  0xc4, 0x38, 0x7c, 0x3f, 0x6c, 0xcf, 0x0f, 0x3f, 0xbc, 0x01, 0x82, 0x3e,
  0x84, 0xdb, 0x8d, 0x3d, 0x34, 0x00, 0x34, 0x3f, 0xb7, 0x24, 0x73, 0x3f,
  0x58, 0xe5, 0x32, 0xbd, 0x90, 0xda, 0xb2, 0x3c, 0x91, 0x8c, 0xd0, 0x3e,
  0xb0, 0x3f, 0xce, 0x3c, 0xdc, 0x24, 0x93, 0x3e, 0x24, 0x46, 0x5e, 0xbe,
  0xec, 0xa3, 0xdc, 0x3d, 0xcf, 0x14, 0x3a, 0x3f, 0x70, 0x40, 0xab, 0xbc,
  0x9f, 0xe7, 0x90, 0x3e, 0xe4, 0x27, 0x9a, 0xbe, 0x9d, 0xb1, 0xc2, 0x3d,
  0x04, 0x72, 0x45, 0x3f, 0x10, 0xaf, 0x83, 0xbd, 0x78, 0xa3, 0x7e, 0xbd,
  0x84, 0x20, 0xb6, 0x3d, 0x38, 0xd2, 0xd5, 0x3e, 0x94, 0x76, 0x4a, 0x3e,
  0x5c, 0x74, 0x35, 0xbe, 0xb4, 0x79, 0x0b, 0x3e, 0x2f, 0x3b, 0x41, 0xbe,
  0x68, 0x2b, 0x00, 0xbd, 0x9b, 0x86, 0x0a, 0xbd, 0xeb, 0x03, 0x2e, 0xbe,
  0x0c, 0xce, 0x95, 0xbe, 0xca, 0x76, 0x45, 0x3e, 0xb5, 0x7c, 0x21, 0xbe,
  0x28, 0x92, 0xca, 0xbd, 0xa0, 0x03, 0x4b, 0xbe, 0xb6, 0x99, 0x0b, 0x3e,
  0x0c, 0x02, 0xd9, 0x3d, 0x91, 0xc0, 0xa8, 0x3c, 0xb7, 0x5b, 0x12, 0xbe,
  0x7c, 0xbe, 0x0d, 0x3e, 0x64, 0x2b, 0x2e, 0x3e, 0x35, 0x9b, 0xc1, 0x3d,
  0x80, 0x58, 0x9a, 0xbe, 0x50, 0x6e, 0x23, 0x3e, 0xa4, 0x66, 0x7c, 0xbc,
  0x45, 0xeb, 0x56, 0xbe, 0xd0, 0x6a, 0x03, 0xbf, 0xd2, 0x6e, 0x4d, 0x39,
  0x66, 0x3d, 0x9e, 0xbd, 0xb0, 0x14, 0x16, 0xbd, 0x49, 0xc9, 0x8f, 0x3f,
  0x01, 0xe8, 0xb9, 0x3e, 0x7f, 0x51, 0x87, 0x3e, 0x90, 0x45, 0xa2, 0xbe,
  0x27, 0x59, 0xb7, 0x3d, 0xef, 0xd7, 0x80, 0x3f, 0x1a, 0xe8, 0x0c, 0x3e,
  0xc0, 0x9b, 0x4d, 0x3d, 0x2e, 0xd6, 0x19, 0x3f, 0x88, 0xc5, 0x3b, 0xbd,
  0x8c, 0xe0, 0x43, 0x3e, 0x8b, 0x42, 0x69, 0xbe, 0xa0, 0xb9, 0x01, 0x3d,
  0xda, 0xb9, 0x29, 0x3f, 0x10, 0x69, 0xb2, 0xbc, 0xbe, 0x31, 0x57, 0x3e,
  0x80, 0x93, 0xb4, 0xbe, 0xd8, 0x54, 0x25, 0x3d, 0xf9, 0x71, 0xe3, 0x3c,
  0x67, 0xa8, 0x10, 0xbd, 0x9e, 0x07, 0x5a, 0xbe, 0x1d, 0x28, 0xd9, 0xbc,
  0x38, 0x74, 0x70, 0x3f, 0x19, 0xaa, 0xf9, 0x3d, 0x20, 0x4a, 0xf2, 0x3c,
  0xf6, 0x75, 0x1c, 0x3e, 0x14, 0xef, 0x7b, 0x3d, 0x86, 0x26, 0x55, 0xbe,
  0x57, 0x02, 0x5b, 0x3f, 0xfd, 0x96, 0xe3, 0x3e, 0x07, 0x34, 0x8e, 0x3c,
  0x53, 0x64, 0x8f, 0xbe, 0xd3, 0xb9, 0x6f, 0x3e, 0x82, 0x8e, 0x2d, 0xbd,
  0x14, 0xb4, 0xce, 0x3d, 0x91, 0xb1, 0x86, 0x3f, 0xe0, 0x5a, 0x1e, 0x3d,
  0x40, 0x5b, 0x12, 0xbc, 0x95, 0x72, 0x35, 0xbe, 0x5e, 0xc1, 0x8d, 0x3e,
  0x82, 0x0f, 0x8f, 0xbe, 0x66, 0x03, 0x74, 0x3f, 0x84, 0xee, 0xb5, 0x3d,
  0x8a, 0x9b, 0x38, 0x3e, 0x29, 0x69, 0x5a, 0x3f, 0x9a, 0x94, 0x2b, 0xbe,
  0xc1, 0xe6, 0x64, 0x3e, 0x0e, 0x31, 0xd9, 0x3c, 0x34, 0x75, 0xb3, 0x3d,
  0x24, 0x18, 0x42, 0xbe, 0x16, 0x4f, 0xad, 0xbe, 0x02, 0x0d, 0x94, 0x3d,
  0x0f, 0x27, 0x3e, 0xbe, 0x27, 0xbd, 0x06, 0xbf, 0xf2, 0xee, 0x2a, 0x3e,
  0x48, 0xe9, 0xc5, 0xbe, 0xa0, 0xb3, 0x4e, 0x3e, 0x8e, 0xb0, 0x1d, 0xbe,
  0x14, 0x92, 0x9e, 0xbd, 0x39, 0xcf, 0x68, 0xbe, 0xb4, 0x77, 0x70, 0xbe,
  0x50, 0x91, 0x7c, 0x3d, 0x60, 0x2a, 0x40, 0x3d, 0x09, 0x1c, 0x0c, 0xbf,
  0x60, 0x67, 0x8f, 0xbe, 0x95, 0xe1, 0x1c, 0xbd, 0xd0, 0xb6, 0x4d, 0x3f,
  0x9f, 0xbf, 0x23, 0x3f, 0x99, 0xd5, 0xd7, 0x3d, 0x66, 0xfa, 0x5d, 0x3e,
  0xa8, 0x15, 0x59, 0x3e, 0x7e, 0xd8, 0xab, 0x3e, 0xf6, 0x40, 0x5f, 0xbf,
  0x8b, 0xf2, 0x8d, 0x3e, 0x06, 0x7a, 0x16, 0x3e, 0xae, 0xc9, 0xef, 0xbd,
  0x87, 0x16, 0x41, 0x3e, 0xaf, 0x36, 0x4b, 0xbe, 0x76, 0xd7, 0xe3, 0x3c,
  0xb5, 0x0f, 0x3a, 0x3e, 0x68, 0xec, 0x49, 0xbd, 0x57, 0x8f, 0xbb, 0xbd,
  0x41, 0x59, 0xad, 0x3d, 0x1e, 0xfa, 0x7c, 0x3e, 0x44, 0x20, 0x34, 0x3e,
  0xa3, 0x41, 0x13, 0xbf, 0xbc, 0x73, 0x0c, 0xbe, 0x53, 0xc5, 0x39, 0x3e,
  0x4f, 0xdf, 0x86, 0x3d, 0x3c, 0x69, 0x82, 0x3d, 0x80, 0xb4, 0xed, 0x3d,
  0x2f, 0x23, 0x88, 0xbf, 0x68, 0x90, 0x56, 0xbd, 0x03, 0x61, 0x79, 0xbe,
  0x46, 0xe4, 0x97, 0x3f, 0x09, 0x32, 0x44, 0xbd, 0x40, 0xfc, 0x61, 0x3f,
  0x07, 0x8c, 0x6f, 0xbe, 0xe0, 0x5e, 0x86, 0x3e, 0x60, 0x28, 0x1d, 0xbc,
  0x66, 0x74, 0x95, 0x3e, 0x9b, 0x00, 0x52, 0x3e, 0xc3, 0xb4, 0x02, 0x3f,
  0xf1, 0x0b, 0x6b, 0x3d, 0x5d, 0x2c, 0xaa, 0x3b, 0x37, 0xcb, 0x10, 0x3f,
  0xcc, 0x21, 0x7d, 0x3e, 0x7c, 0x2f, 0xb5, 0xbd, 0x58, 0x26, 0xf2, 0x3e,
  0xdc, 0x3c, 0xdc, 0xbd, 0x66, 0x2c, 0x77, 0x3e, 0x08, 0x19, 0x55, 0x3e,
  0x50, 0x8c, 0x84, 0x3c, 0x6d, 0x41, 0x2b, 0x3f, 0x90, 0x72, 0x12, 0x3e,
  0xcd, 0x8e, 0xc4, 0xbd, 0x1c, 0x9c, 0x84, 0xbf, 0xa5, 0xc6, 0x6e, 0xbf,
  0x61, 0x1d, 0xc3, 0xbe, 0x29, 0x91, 0x96, 0xbe, 0x10, 0x04, 0xf6, 0x3d,
  0x52, 0x20, 0x67, 0xbe, 0x24, 0xa3, 0x84, 0x3f, 0x2a, 0x19, 0xae, 0x3d,
  0x80, 0xed, 0xb4, 0x3c, 0x9c, 0xcc, 0x90, 0xbe, 0x89, 0xc7, 0x1a, 0x3e,
  0x34, 0x72, 0x8a, 0xbe, 0x70, 0x95, 0x07, 0x3f, 0xf8, 0x2a, 0x8e, 0x3e,
  0x8c, 0x83, 0x28, 0xbd, 0xbd, 0x69, 0x32, 0xbd, 0x20, 0x39, 0x2f, 0x3e,
  0x14, 0x4c, 0x20, 0x3e, 0x98, 0x2a, 0x5e, 0x3e, 0xb8, 0xe9, 0x81, 0x3f,
  0xe6, 0x14, 0x56, 0xbe, 0xe5, 0x53, 0x41, 0xbe, 0xd5, 0x38, 0xb3, 0x3d,
  0x40, 0xc2, 0x9f, 0x3d, 0xd0, 0x79, 0x71, 0x3e, 0xe3, 0xda, 0xdc, 0x3e,
  0xa8, 0x6e, 0xd9, 0x3d, 0xa0, 0xfc, 0x3d, 0xbd, 0x48, 0x96, 0x5e, 0x3f,
  0x5b, 0x69, 0x8d, 0xbb, 0xf3, 0x76, 0xb6, 0x3e, 0x3f, 0x83, 0x3f, 0x3d,
  0x2e, 0x8d, 0x18, 0x3e, 0xae, 0x1f, 0x96, 0x3e, 0x27, 0x37, 0x0d, 0xbf,
  0x7d, 0xca, 0x68, 0x3e, 0xc1, 0x52, 0x25, 0xbd, 0xe0, 0x1e, 0xa9, 0xbe,
  0x26, 0x06, 0x9f, 0x3c, 0xa1, 0xc5, 0xf0, 0xbe, 0x96, 0x50, 0x97, 0x3e,
  0x58, 0x3f, 0x9a, 0x3d, 0xcd, 0x4f, 0x74, 0x3e, 0xb6, 0xe4, 0x3e, 0x3e,
  0x8e, 0x81, 0x7e, 0x3e, 0xa2, 0xbf, 0x0a, 0x3e, 0xf6, 0x04, 0x08, 0xbe,
  0x58, 0x71, 0x72, 0xbe, 0xf4, 0x16, 0x5c, 0xbe, 0x98, 0x80, 0x7b, 0xbe,
  0x11, 0x2d, 0x0f, 0x3f, 0xea, 0x79, 0xbf, 0x3e, 0x7e, 0x39, 0x06, 0xbe,
  0xcb, 0xcb, 0x10, 0xbd, 0x3c, 0xe4, 0x62, 0x3e, 0x33, 0x19, 0xf4, 0xbe,
  0x09, 0x9b, 0x23, 0xbe, 0xa4, 0x8c, 0xba, 0xbe, 0x3c, 0xaf, 0xcc, 0xbd,
  0x55, 0xdc, 0x95, 0x3e, 0x68, 0x63, 0x5f, 0xbe, 0xf1, 0x26, 0x26, 0xbe,
  0x06, 0x62, 0x97, 0xbd, 0xe8, 0xc8, 0x32, 0x3e, 0xa2, 0xfa, 0x88, 0x3e,
  0xc8, 0x5d, 0x89, 0x3d, 0xf3, 0x9e, 0x7d, 0xbe, 0x85, 0xa6, 0xb6, 0xbd,
  0x0c, 0x53, 0x89, 0x3e, 0x14, 0x2b, 0x06, 0xbe, 0x38, 0xc6, 0x98, 0xbd,
  0x28, 0x3a, 0xe8, 0xbe, 0x61, 0x9e, 0xdf, 0xbd, 0x41, 0xe9, 0x1a, 0xbe,
  0x65, 0xda, 0x94, 0xbe, 0x73, 0x39, 0x84, 0x3e, 0x28, 0x2b, 0x98, 0xbd,
  0x26, 0xe8, 0x81, 0x3e, 0xd8, 0x06, 0x51, 0x3f, 0xba, 0x4f, 0x3f, 0xbe,
  0xee, 0xe1, 0x76, 0x3f, 0xbf, 0x1f, 0xa2, 0xbd, 0x80, 0x28, 0x02, 0x3b,
  0x16, 0xbb, 0x86, 0x3e, 0x35, 0xf4, 0xa7, 0xbf, 0x00, 0x92, 0x98, 0xbe,
  0x02, 0xa5, 0x7c, 0xbd, 0x0b, 0xa6, 0x17, 0xbe, 0xe0, 0xcb, 0x62, 0x3e,
  0x7e, 0xc7, 0x15, 0xbf, 0xac, 0x0c, 0xb7, 0x3d, 0xd0, 0x0f, 0xed, 0x3c,
  0xd3, 0x58, 0x1f, 0xbf, 0x90, 0x9e, 0xd0, 0x3c, 0x99, 0x9f, 0x87, 0xbe,
  0xc8, 0x7f, 0x06, 0x3e, 0x4e, 0x8e, 0x1e, 0x3e, 0x0e, 0x04, 0x86, 0xbf,
  0x02, 0x61, 0x30, 0x3e, 0x2d, 0xc6, 0xfc, 0x3d, 0xf0, 0x0c, 0x08, 0x3f,
  0xc8, 0x8f, 0x01, 0x3f, 0x72, 0xd3, 0xec, 0xbd, 0x82, 0xed, 0x7c, 0x3c,
  0x78, 0x59, 0x87, 0x3d, 0x22, 0xda, 0x6d, 0x3e, 0x33, 0xed, 0x5b, 0x3f,
  0x65, 0xea, 0x98, 0x3b, 0xc0, 0x8a, 0x1d, 0xbe, 0x42, 0x34, 0x9a, 0x3e,
  0x32, 0x50, 0x8a, 0x3c, 0xcc, 0x83, 0x8d, 0x3e, 0xe2, 0xb8, 0xad, 0x3e,
  0x0f, 0xfb, 0x22, 0x3e, 0x97, 0x54, 0x6e, 0xbe, 0xcd, 0x6b, 0x7b, 0xbe,
  0x12, 0x91, 0x1c, 0x3d, 0x24, 0xfe, 0x8b, 0x3e, 0x78, 0x3d, 0x38, 0x3e,
  0x5a, 0x52, 0xb9, 0x3e, 0xd8, 0x1f, 0xff, 0x3d, 0xbe, 0x46, 0xb0, 0xbe,
  0x3d, 0xfa, 0x01, 0x3d, 0xa5, 0x9d, 0x7e, 0xbe, 0x0c, 0xb9, 0x5a, 0x3e,
  0xfe, 0x8e, 0xa9, 0x3e, 0x20, 0x97, 0x5b, 0xbe, 0x8c, 0x05, 0x0f, 0x3e,
  0xb8, 0x24, 0xea, 0x3e, 0xb8, 0x76, 0x43, 0x3e, 0x4c, 0xe0, 0xb8, 0x3e,
  0xe8, 0x02, 0x98, 0x3b, 0xd8, 0x35, 0x96, 0xbe, 0x30, 0x0e, 0xb9, 0x3c,
  0xee, 0xf0, 0x96, 0x3e, 0xe7, 0xba, 0x04, 0x3e, 0x0d, 0x71, 0x25, 0x3e,
  0x26, 0xa2, 0x8d, 0xbe, 0x51, 0x7e, 0x6f, 0xbe, 0x3d, 0x9a, 0x89, 0x3e,
  0x1c, 0xde, 0xce, 0x3d, 0x44, 0x03, 0x70, 0x3e, 0x90, 0x59, 0x4d, 0xbe,
  0x71, 0xab, 0x15, 0xbe, 0xe4, 0x36, 0x93, 0xbe, 0xa0, 0x39, 0x0d, 0x3c,
  0xc4, 0x04, 0x77, 0xbe, 0xf7, 0x06, 0xa9, 0x3e, 0x08, 0x72, 0x00, 0x3d,
  0x17, 0x50, 0x27, 0x3d, 0xcf, 0xcd, 0x86, 0x3d, 0x1e, 0x41, 0xcf, 0x3e,
  0x06, 0xa2, 0x0f, 0xbf, 0x8e, 0x29, 0x96, 0x3e, 0xac, 0x59, 0x31, 0x3e,
  0x1b, 0x45, 0x8c, 0x3e, 0xcf, 0xe2, 0x3f, 0x3e, 0x33, 0x0f, 0x45, 0x3e,
  0xe1, 0x70, 0x4f, 0xbe, 0x98, 0x58, 0x37, 0x3e, 0xcf, 0x98, 0x12, 0xbe,
  0x1f, 0x4c, 0x07, 0xbe, 0xe5, 0x4e, 0x57, 0x3e, 0x67, 0xcf, 0x5d, 0xbe,
  0x6c, 0x0c, 0xfc, 0xbd, 0x73, 0x68, 0x1a, 0xbe, 0x0c, 0x8b, 0x82, 0x3e,
  0x14, 0x75, 0x94, 0x3e, 0x3a, 0x3f, 0xd4, 0xbd, 0x09, 0xff, 0xe2, 0xbd,
  0xe0, 0x30, 0x2f, 0x3d, 0xe9, 0x54, 0x85, 0xbd, 0x73, 0x5a, 0x2f, 0xbe,
  0x1b, 0x31, 0x16, 0xbe, 0x6a, 0x78, 0x31, 0x3e, 0xeb, 0x63, 0xeb, 0x3d,
  0xd2, 0x0c, 0x36, 0xbe, 0x90, 0x9f, 0x39, 0x3d, 0x1a, 0xb6, 0x19, 0xbe,
  0xfe, 0xd4, 0x29, 0x3e, 0x10, 0x40, 0x83, 0xbe, 0x5c, 0xd2, 0x0a, 0x3e,
  0xb4, 0x09, 0x8e, 0x3e, 0xdc, 0xa9, 0xb7, 0x3d, 0x88, 0x78, 0xc7, 0x3b,
  0x45, 0xae, 0x84, 0x3e, 0xd1, 0xda, 0x85, 0x3e, 0x83, 0x03, 0x73, 0xbe,
  0x26, 0x22, 0x77, 0xbe, 0x01, 0x01, 0x71, 0xbe, 0x02, 0x24, 0x12, 0x3e,
  0x2c, 0xf3, 0xf3, 0x3d, 0x41, 0xdd, 0x5e, 0xbe, 0xa1, 0x83, 0x18, 0xbe,
  0x80, 0x83, 0x93, 0xbc, 0x38, 0xa7, 0x39, 0x3d, 0x47, 0x72, 0x14, 0xbe,
  0x9e, 0x60, 0x86, 0x3e, 0x1c, 0x5e, 0xfc, 0xbd, 0x30, 0xd5, 0xdc, 0x3c,
  0x13, 0x7c, 0x5a, 0xbe, 0xe5, 0x90, 0x9a, 0xba, 0x33, 0x22, 0x28, 0xbe,
  0x76, 0x9c, 0x85, 0x3d, 0x40, 0xfc, 0xd5, 0x3b, 0x41, 0xe0, 0xf8, 0x3d,
  0xf4, 0x63, 0x43, 0xbe, 0x88, 0xb8, 0x52, 0x3e, 0x80, 0xc7, 0xe8, 0x3b,
  0x00, 0x8a, 0x7a, 0xbb, 0xfc, 0x8f, 0x39, 0xbe, 0x7c, 0x1e, 0xc1, 0x3d,
  0xe0, 0x31, 0x92, 0xbe, 0x59, 0x25, 0x62, 0xbe, 0xb0, 0xef, 0x88, 0x3e,
  0xd7, 0x15, 0x89, 0xbe, 0x92, 0xdc, 0x42, 0x3e, 0x00, 0xed, 0x32, 0x3d,
  0x26, 0x8c, 0x83, 0xbe, 0xad, 0xcc, 0x90, 0x3d, 0x9c, 0xf5, 0x77, 0x3e,
  0x37, 0x82, 0x48, 0xbe, 0x7d, 0x77, 0x95, 0xbe, 0xee, 0x72, 0xe9, 0xbd,
  0x6a, 0x85, 0xc1, 0xbd, 0xdf, 0xb9, 0x43, 0xbe, 0x90, 0x1a, 0x92, 0x3c,
  0xd2, 0x44, 0x7c, 0xbe, 0xd5, 0x46, 0x97, 0x3e, 0x54, 0xdb, 0x69, 0xbe,
  0xee, 0xeb, 0xd0, 0xbd, 0xc6, 0x49, 0xb9, 0x3d, 0x54, 0x34, 0x32, 0x3e,
  0x3e, 0x1e, 0xb0, 0xbd, 0xd7, 0x35, 0x2d, 0x3e, 0xf9, 0xe6, 0x10, 0x3d,
  0xe3, 0x5f, 0xb5, 0xbd, 0x07, 0xe3, 0x8d, 0x3e, 0x46, 0x98, 0x90, 0xbe,
  0x42, 0x55, 0x43, 0x3d, 0x5e, 0xd2, 0xe5, 0xbd, 0xe0, 0xa3, 0x8d, 0xbd,
  0xb6, 0xb9, 0x43, 0xbe, 0x77, 0xdf, 0x47, 0xbe, 0xaa, 0xd7, 0x9e, 0xbd,
  0x88, 0x2c, 0x80, 0x3d, 0x58, 0xe2, 0x3d, 0x3d, 0x34, 0x4a, 0x18, 0x3e,
  0x57, 0x9a, 0x7e, 0xbe, 0x24, 0x9b, 0x97, 0x3d, 0x2c, 0xd2, 0x56, 0x3e,
  0xc5, 0xd4, 0xc9, 0x3d, 0x32, 0x24, 0xc1, 0x3d, 0x94, 0x47, 0x49, 0x3e,
  0x50, 0x86, 0x6c, 0x3e, 0x46, 0xcf, 0xff, 0xff, 0x04, 0x00, 0x00, 0x00,
  0xe0, 0x2e, 0x00, 0x00, 0x04, 0x59, 0xe8, 0x3d, 0xd9, 0x5a, 0x41, 0xbe,
  0xdc, 0xf2, 0xdc, 0xba, 0x4f, 0xfe, 0x99, 0x3e, 0x7a, 0x42, 0x7c, 0xbd,
  0xd9, 0x8a, 0x2f, 0xbe, 0xd2, 0xce, 0xb8, 0x3e, 0x54, 0xbc, 0x1f, 0x3d,
  0xdf, 0xc4, 0xcb, 0x3d, 0x8e, 0x51, 0x92, 0x3e, 0x01, 0xf8, 0x82, 0xbd,
  0x44, 0x16, 0xce, 0xbd, 0x5b, 0x5c, 0xc3, 0x3c, 0x77, 0x1f, 0x33, 0xbe,
  0xf5, 0xc7, 0x99, 0xbe, 0xb9, 0x83, 0x96, 0x3e, 0xb3, 0x93, 0x13, 0xbe,
  0xb8, 0x6f, 0xb0, 0x3d, 0x2d, 0x41, 0x9d, 0x3e, 0x16, 0x47, 0x27, 0x3d,
  0xc7, 0x93, 0x32, 0x3e, 0xa5, 0x8c, 0x99, 0x3e, 0x6e, 0x02, 0x03, 0xbe,
  0xef, 0x41, 0xa3, 0x3c, 0x19, 0xf0, 0x15, 0x3e, 0x06, 0x36, 0x11, 0xbe,
  0x90, 0x41, 0xb6, 0xbd, 0x86, 0x75, 0xc3, 0xbd, 0x52, 0x28, 0x62, 0xbe,
  0xe7, 0xae, 0x51, 0x3e, 0xbd, 0xda, 0x2a, 0x3b, 0x41, 0xb5, 0x1b, 0xbe,
  0xc4, 0x73, 0xe5, 0x3c, 0x05, 0x89, 0x4e, 0xbe, 0x99, 0x02, 0x46, 0xbc,
  0x46, 0xa9, 0xc1, 0xbd, 0xa3, 0x23, 0x47, 0xbe, 0xd5, 0x33, 0x80, 0x3e,
  0x24, 0x9e, 0x81, 0x3e, 0x91, 0xc0, 0x57, 0x3e, 0x07, 0x49, 0x94, 0xbd,
  0x51, 0x9f, 0x0a, 0xbc, 0x8d, 0x8f, 0x15, 0xbe, 0x92, 0x81, 0x44, 0x3e,
  0x50, 0x63, 0x2d, 0xbc, 0x05, 0x63, 0xe5, 0x3d, 0x6f, 0x55, 0x5a, 0x3e,
  0x70, 0x6a, 0x4e, 0xbd, 0x7e, 0x3a, 0xf3, 0x3d, 0x11, 0x74, 0x81, 0x3e,
  0x59, 0xee, 0x5a, 0x3e, 0x20, 0x21, 0x42, 0xbe, 0x94, 0xb5, 0x27, 0xbe,
  0x75, 0xdb, 0x02, 0xbe, 0xe9, 0xf9, 0x7e, 0xbe, 0x66, 0x62, 0xab, 0xbd,
  0xf9, 0x93, 0xa9, 0x3e, 0x56, 0x04, 0x5d, 0x3e, 0x98, 0xa9, 0x3e, 0xbe,
  0xc9, 0xcd, 0x8d, 0x3e, 0xaa, 0x8a, 0x38, 0x3d, 0x19, 0x18, 0x31, 0x3e,
  0x6b, 0xd7, 0x0b, 0xbf, 0x2d, 0x00, 0x14, 0x3e, 0xda, 0x12, 0x93, 0x3e,
  0xd1, 0x8b, 0xd2, 0xbe, 0x01, 0x9f, 0xae, 0x3d, 0x13, 0xb9, 0xd4, 0xbd,
  0x24, 0x23, 0xd1, 0xbe, 0x08, 0x24, 0xed, 0x3d, 0xe1, 0x02, 0x72, 0x3e,
  0x0f, 0x67, 0x63, 0xbe, 0xdb, 0x77, 0x3d, 0xbe, 0x6c, 0x62, 0x83, 0xbd,
  0xe3, 0x23, 0xb1, 0xbe, 0xc9, 0xd3, 0x07, 0xbe, 0xb5, 0x2b, 0x06, 0x3e,
  0x81, 0x07, 0xe2, 0xbe, 0xf1, 0xe7, 0x5e, 0xbd, 0x1a, 0xc3, 0xe8, 0x3d,
  0xd5, 0x0f, 0xc1, 0xbe, 0x8a, 0xe6, 0x8c, 0x3d, 0x14, 0x92, 0x37, 0x3e,
  0xe5, 0xf3, 0xcd, 0xbe, 0x0e, 0x34, 0x20, 0x3e, 0xb0, 0x53, 0x7e, 0x3e,
  0x2c, 0x83, 0xc1, 0xbd, 0xc6, 0x7f, 0x3e, 0xbd, 0x3a, 0x1b, 0xc4, 0xbd,
  0x2d, 0x24, 0xec, 0xbe, 0x13, 0xc4, 0x1b, 0x3e, 0x9e, 0x9b, 0x56, 0x3e,
  0x42, 0x7f, 0x7e, 0xbe, 0x38, 0x73, 0xf3, 0x3d, 0x33, 0x73, 0x29, 0x3e,
  0xa4, 0xa1, 0xda, 0xbe, 0x20, 0xd2, 0x63, 0x3e, 0x0c, 0x66, 0xb4, 0xbd,
  0xe8, 0xdf, 0xd1, 0xbe, 0xb5, 0xea, 0xf5, 0xbd, 0xee, 0xfc, 0x6e, 0x3e,
  0xac, 0x3e, 0xd2, 0xbe, 0x65, 0x1e, 0x46, 0xbe, 0x3b, 0xaa, 0x82, 0x3e,
  0x0e, 0x50, 0x6a, 0xbe, 0x1a, 0xdb, 0xbd, 0x3c, 0x41, 0xbe, 0x15, 0xbd,
  0x4d, 0xa1, 0xa3, 0xbe, 0xee, 0x6c, 0xac, 0x3d, 0xbc, 0x0a, 0x1c, 0xbd,
  0x4a, 0x23, 0x6b, 0xbe, 0x80, 0x2d, 0x20, 0x3e, 0x90, 0xc6, 0xe3, 0xbd,
  0x90, 0xda, 0xe5, 0xbe, 0x9e, 0xe8, 0x51, 0x3e, 0x50, 0xb1, 0x95, 0x3e,
  0x41, 0xca, 0xd7, 0xbe, 0x77, 0x7f, 0x22, 0xbd, 0x8b, 0x8b, 0x88, 0x3e,
  0xee, 0xd3, 0x78, 0xbe, 0x93, 0x39, 0x49, 0x3e, 0x9b, 0xd8, 0xa2, 0x3e,
  0x19, 0xcf, 0x58, 0xbd, 0xe2, 0x03, 0xd3, 0x3d, 0xcb, 0x80, 0x84, 0x3e,
  0x44, 0x0f, 0x24, 0x3c, 0x4b, 0xf8, 0xa6, 0x3d, 0x2a, 0xd5, 0x57, 0x3e,
  0x8d, 0x47, 0xb9, 0x3d, 0x92, 0xce, 0xb0, 0x3e, 0x52, 0x1a, 0x4e, 0xbd,
  0xec, 0x2f, 0x02, 0x3e, 0x8c, 0x73, 0x8a, 0x3e, 0x3e, 0x1a, 0xc1, 0x3e,
  0x4d, 0x8f, 0xa7, 0x3d, 0x09, 0x6c, 0x78, 0xbc, 0xd1, 0xc4, 0x88, 0xbd,
  0x1a, 0xcd, 0x37, 0x3e, 0xf7, 0x5c, 0x76, 0x3d, 0x07, 0x07, 0xae, 0x3e,
  0x4b, 0x94, 0xbb, 0x3c, 0x6b, 0x7f, 0xc3, 0x3d, 0x57, 0x44, 0x59, 0xbd,
  0x81, 0x43, 0xcc, 0x3c, 0xe9, 0xa1, 0xbf, 0xbd, 0xab, 0x4b, 0x73, 0x3e,
  0x7c, 0x05, 0x16, 0x3d, 0xd4, 0x6f, 0x21, 0x3d, 0x7d, 0x03, 0xfd, 0x3b,
  0xda, 0xb5, 0xfc, 0xbc, 0x57, 0x58, 0x4e, 0x3e, 0x46, 0x72, 0xf6, 0xbd,
  0x37, 0x74, 0x2d, 0xbb, 0xea, 0x05, 0xab, 0x3d, 0xb2, 0x99, 0xa7, 0x3e,
  0x50, 0xbe, 0xf3, 0x3d, 0x71, 0x77, 0xa7, 0xbd, 0x99, 0x85, 0x98, 0x3e,
  0x4a, 0xaa, 0xaa, 0x3e, 0xf0, 0xd4, 0xd0, 0x3c, 0x85, 0xeb, 0xa4, 0x3e,
  0x45, 0xd5, 0xa1, 0x3e, 0xa6, 0x54, 0xe7, 0xbd, 0x30, 0xc6, 0x6a, 0x3d,
  0x8a, 0x7f, 0x60, 0x3e, 0x43, 0x24, 0xa3, 0xbd, 0x41, 0x56, 0x17, 0x3e,
  0x47, 0x3f, 0xa0, 0x3e, 0xd8, 0xf0, 0x8b, 0xbd, 0xaf, 0x39, 0x72, 0xbd,
  0xe8, 0xc1, 0x0d, 0xbd, 0x9c, 0x2e, 0x01, 0xbe, 0xb3, 0x4f, 0x09, 0xbd,
  0xd6, 0x1b, 0x17, 0x3e, 0x4d, 0xb4, 0x2a, 0x3e, 0xa3, 0x1e, 0x6f, 0x3e,
  0x05, 0xe7, 0x53, 0xbd, 0x44, 0x52, 0x42, 0x3d, 0x8d, 0x12, 0x00, 0x3e,
  0x55, 0x44, 0xf4, 0xbd, 0x78, 0x6f, 0x0c, 0xbd, 0x20, 0x41, 0x43, 0xbd,
  0x04, 0x96, 0xc1, 0xbd, 0x28, 0x2f, 0xed, 0x3d, 0x1c, 0xf9, 0x2f, 0xbd,
  0x74, 0x36, 0x5c, 0x3e, 0x58, 0x60, 0x61, 0xbd, 0xa8, 0x20, 0x40, 0xbe,
  0x9a, 0x19, 0x58, 0xbe, 0xa4, 0xc1, 0x31, 0xbd, 0x8d, 0x72, 0x5d, 0xbe,
  0x80, 0x67, 0x0c, 0xbe, 0xdc, 0xa5, 0x03, 0xbd, 0xc3, 0xa2, 0xe8, 0xbd,
  0xb8, 0xe9, 0xbe, 0xbd, 0xd4, 0x30, 0x6c, 0x3e, 0x30, 0xde, 0x08, 0x3d,
  0x28, 0x62, 0xbf, 0xbc, 0x3c, 0x5a, 0x5b, 0x3e, 0x00, 0xcb, 0x29, 0xbe,
  0x88, 0x08, 0xd0, 0x3d, 0x5a, 0xef, 0xb5, 0xbd, 0xf2, 0x65, 0x99, 0xbd,
  0xa3, 0xb2, 0xf3, 0xbd, 0x48, 0x65, 0x90, 0x3d, 0x60, 0xb8, 0xd0, 0xbb,
  0x8a, 0x13, 0x3c, 0x3e, 0xae, 0x52, 0x19, 0x3e, 0x02, 0x9f, 0x21, 0x3e,
  0xba, 0xea, 0x5b, 0xbe, 0xfa, 0x5c, 0x2d, 0xbe, 0x76, 0x8b, 0x4c, 0xbe,
  0x80, 0xd9, 0x8f, 0xbd, 0x50, 0xd3, 0x37, 0xbe, 0x00, 0x8d, 0xf5, 0x3d,
  0x6c, 0x2d, 0x24, 0xbd, 0x4e, 0x08, 0x21, 0xbe, 0x90, 0x93, 0x55, 0xbd,
  0x70, 0xf8, 0xc3, 0x3c, 0x23, 0xbe, 0xfd, 0xbd, 0x50, 0xf1, 0xfc, 0x3c,
  0x80, 0xc9, 0x2f, 0xbc, 0xc7, 0x4d, 0x15, 0xbe, 0x22, 0x2f, 0xcd, 0xbd,
  0x64, 0xcc, 0x9e, 0xbd, 0x92, 0x9f, 0x08, 0xbe, 0x39, 0xcd, 0x14, 0xbe,
  0x40, 0xaa, 0xc7, 0x3d, 0xec, 0x04, 0x4e, 0x3e, 0x9d, 0xbe, 0x5f, 0xbe,
  0x00, 0x91, 0x1e, 0x3a, 0x30, 0xdf, 0x29, 0xbd, 0xb4, 0x67, 0x91, 0xbd,
  0xff, 0x0e, 0x16, 0xbe, 0x30, 0xc3, 0x81, 0xbc, 0x20, 0x01, 0xe0, 0x3d,
  0x06, 0xb2, 0x28, 0xbe, 0x3c, 0x71, 0xae, 0x3d, 0x84, 0x7b, 0x56, 0x3e,
  0x20, 0x9b, 0xd0, 0x3d, 0xaf, 0xd7, 0x17, 0x3e, 0x21, 0x3d, 0x57, 0x3e,
  0x62, 0xd9, 0x61, 0x3e, 0x12, 0xb8, 0x01, 0xbe, 0xd6, 0xd0, 0x26, 0xbd,
  0x7c, 0xdd, 0x35, 0xbd, 0x32, 0x7c, 0x4a, 0x3e, 0xb9, 0x07, 0x47, 0xbe,
  0xde, 0xb7, 0x74, 0xbe, 0x0f, 0x03, 0x01, 0xbd, 0xf2, 0xd6, 0xa6, 0x3c,
  0xd8, 0x17, 0x68, 0xbe, 0xac, 0xe3, 0xcf, 0x3b, 0xaa, 0x81, 0x12, 0x3e,
  0x06, 0x58, 0x43, 0x3c, 0x77, 0xcc, 0x32, 0xbe, 0x60, 0x18, 0x4d, 0xbe,
  0x83, 0x7e, 0x60, 0x3c, 0x15, 0x1a, 0x25, 0x3e, 0x5e, 0xbb, 0x6c, 0xbe,
  0x54, 0x71, 0x52, 0x3e, 0x4f, 0xcf, 0xe9, 0xbd, 0xc3, 0x63, 0x3e, 0x3e,
  0x97, 0x0b, 0xa6, 0xbd, 0x1d, 0xee, 0x3d, 0x3e, 0xac, 0x63, 0xe0, 0x3d,
  0x86, 0x32, 0x01, 0x3e, 0xf2, 0x3a, 0x4d, 0x3d, 0x3e, 0x9e, 0x8a, 0x3d,
  0x5b, 0xcb, 0x5f, 0xbe, 0x7b, 0xa7, 0xf3, 0xbd, 0xe2, 0xb6, 0xf0, 0xbd,
  0x53, 0xa0, 0x2d, 0xbe, 0x44, 0x5b, 0x84, 0x3b, 0xe3, 0xd2, 0x3b, 0xbe,
  0x40, 0x50, 0xad, 0xbd, 0x20, 0x20, 0x5e, 0xbe, 0xc4, 0xce, 0x6e, 0xbe,
  0x11, 0x98, 0x8a, 0x3d, 0xd8, 0x90, 0xd4, 0xbd, 0x6f, 0x17, 0x37, 0x3e,
  0x8f, 0x3a, 0x9f, 0x3d, 0xd8, 0x30, 0xbb, 0xbd, 0xbf, 0xf6, 0xea, 0x3c,
  0xd4, 0x4a, 0x15, 0xbd, 0xf9, 0xc8, 0xcf, 0x3c, 0xc5, 0x8d, 0x44, 0x3e,
  0x93, 0x31, 0xe3, 0xbc, 0xf5, 0xae, 0xf9, 0x3d, 0x83, 0x7d, 0x32, 0xbe,
  0x6d, 0x45, 0xc6, 0x3d, 0xee, 0x80, 0x04, 0xbe, 0x4f, 0x44, 0x4b, 0x3e,
  0xc0, 0xb8, 0x6e, 0x38, 0x81, 0x1a, 0xca, 0xbc, 0xe4, 0x3a, 0xe9, 0xbd,
  0x80, 0x77, 0xed, 0x3c, 0x3c, 0x16, 0x35, 0xbe, 0xfd, 0x6f, 0x3d, 0x3e,
  0x4f, 0x5c, 0xc0, 0xbd, 0x81, 0x58, 0x4e, 0xbe, 0xfd, 0x6b, 0x83, 0x3d,
  0xf2, 0xb8, 0x4a, 0xbe, 0xe1, 0xe4, 0x4c, 0xbe, 0x3b, 0x1c, 0x5c, 0x3e,
  0x72, 0x55, 0x13, 0x3d, 0x6a, 0xe1, 0xbf, 0x3c, 0x86, 0x6a, 0xe5, 0xbd,
  0xaa, 0x5a, 0x09, 0x3e, 0x18, 0xef, 0x51, 0xbe, 0x59, 0x63, 0x90, 0xbd,
  0xfd, 0x12, 0x40, 0xbd, 0x53, 0x7e, 0x52, 0xbd, 0x04, 0xca, 0x61, 0xbe,
  0xde, 0x29, 0x74, 0xbd, 0xb2, 0x23, 0x19, 0x3e, 0x42, 0xbb, 0x2f, 0xbe,
  0xd7, 0x90, 0x1d, 0xbe, 0x2d, 0xc6, 0xff, 0xbd, 0xe5, 0x81, 0x49, 0xbe,
  0xcc, 0x4b, 0x0e, 0xbe, 0x02, 0xde, 0x4c, 0xbe, 0x57, 0xb1, 0x27, 0x3d,
  0xa2, 0x7d, 0x8d, 0xbd, 0x82, 0xc5, 0x3d, 0xbe, 0xff, 0x84, 0x26, 0x3e,
  0xc5, 0x83, 0xbe, 0xbc, 0x54, 0x51, 0xb7, 0x3d, 0x66, 0x4c, 0xfb, 0x3c,
  0xba, 0x81, 0xe1, 0x3c, 0xed, 0xca, 0xa7, 0xbd, 0x4b, 0xfc, 0x98, 0x3d,
  0x93, 0x30, 0x69, 0x3d, 0xd8, 0xf7, 0x55, 0xbe, 0xac, 0x4b, 0x24, 0xbe,
  0x30, 0xb9, 0x87, 0xbc, 0xe5, 0xa6, 0xf5, 0xbd, 0xd2, 0xb1, 0x12, 0x3e,
  0x0c, 0xd6, 0x51, 0xbe, 0x66, 0xfe, 0x58, 0x3e, 0x55, 0x6e, 0x31, 0x3d,
  0x1c, 0x29, 0x1a, 0x3e, 0x9a, 0x5a, 0xda, 0xbc, 0x0d, 0xa3, 0x34, 0x3e,
  0x0d, 0xcd, 0x35, 0xbe, 0xe7, 0x19, 0xf5, 0x3d, 0xc5, 0x2f, 0x2a, 0xbe,
  0x19, 0x90, 0x64, 0x3e, 0x3b, 0x01, 0xab, 0x3c, 0xdf, 0xcd, 0x4d, 0x3e,
  0xfd, 0xc3, 0x47, 0xbd, 0xbd, 0x32, 0x2e, 0x3e, 0xff, 0xdd, 0x51, 0x3e,
  0xa8, 0x44, 0x26, 0x3e, 0x1c, 0x8a, 0x56, 0x3b, 0xf7, 0x89, 0x04, 0xbe,
  0x98, 0xa2, 0x8d, 0xbd, 0xc1, 0x7e, 0x04, 0xbe, 0x9e, 0x89, 0x89, 0x3d,
  0xe0, 0x8f, 0x00, 0x3e, 0xf4, 0xb4, 0x2f, 0xbe, 0xe8, 0x84, 0x4d, 0x3d,
  0xdc, 0x70, 0x57, 0xbd, 0x1b, 0x7a, 0x45, 0xbe, 0x43, 0x25, 0x3a, 0x3e,
  0xe2, 0x2e, 0x33, 0x3d, 0x96, 0xbd, 0x4d, 0xbc, 0xd9, 0x14, 0x57, 0xbe,
  0xd7, 0x20, 0x04, 0xbe, 0x82, 0xf7, 0x86, 0x3d, 0x12, 0x56, 0x90, 0x3c,
  0x37, 0x03, 0x61, 0xbe, 0x19, 0x3c, 0x07, 0x3e, 0x7d, 0x58, 0x2b, 0xbe,
  0xfc, 0xa5, 0x40, 0xbe, 0x09, 0xba, 0x19, 0xbc, 0xf2, 0xef, 0xb9, 0x3d,
  0x60, 0xfa, 0x52, 0xbe, 0x3c, 0xb4, 0xb5, 0xbd, 0x50, 0xb3, 0xaf, 0xbd,
  0x68, 0xed, 0xba, 0xbd, 0xc4, 0xbb, 0x31, 0xbe, 0x31, 0x37, 0x61, 0x3e,
  0xe5, 0xd3, 0x65, 0x3d, 0x2f, 0xd4, 0xb2, 0x3d, 0xed, 0x88, 0x67, 0xbe,
  0x2a, 0x22, 0x22, 0xbe, 0xea, 0x02, 0x11, 0x3d, 0x5d, 0xd3, 0xb9, 0xbc,
  0xf8, 0x84, 0xa4, 0x3d, 0x5c, 0xba, 0x56, 0x3e, 0xcc, 0xc4, 0x55, 0xbe,
  0x24, 0xca, 0x05, 0x3d, 0x4a, 0x99, 0x6f, 0xbe, 0xca, 0x5d, 0x1a, 0xbe,
  0xbe, 0x16, 0x43, 0xbc, 0xfe, 0xc5, 0x55, 0x3e, 0x8f, 0x67, 0x1d, 0x3e,
  0xbf, 0x57, 0x1e, 0x3d, 0xda, 0x71, 0x61, 0xbe, 0xa9, 0x22, 0x04, 0x3d,
  0x87, 0x66, 0x95, 0x3d, 0xbb, 0xba, 0xef, 0xbd, 0x50, 0xd3, 0x5b, 0x3e,
  0xf0, 0x6f, 0x8b, 0x3d, 0x90, 0x7b, 0x49, 0x3e, 0x85, 0xbd, 0x5c, 0x3e,
  0x0d, 0xe5, 0xfb, 0x3d, 0x18, 0xee, 0xa1, 0xbd, 0xae, 0x10, 0x78, 0xbe,
  0x2a, 0x62, 0x24, 0x3e, 0xf3, 0xc9, 0xa3, 0x3c, 0x97, 0xfe, 0x62, 0xbe,
  0xa5, 0xf1, 0x07, 0x3e, 0xfc, 0x5f, 0x2e, 0xbd, 0x42, 0x12, 0x41, 0xbe,
  0xb4, 0x86, 0xc6, 0x3d, 0xb2, 0x1d, 0x05, 0x3e, 0xf4, 0xf1, 0x71, 0xbe,
  0x5d, 0xe9, 0xa5, 0xbd, 0x5d, 0x26, 0x93, 0xbd, 0x1a, 0xc5, 0xde, 0x3d,
  0xdb, 0x66, 0xc4, 0xbe, 0xce, 0x16, 0x91, 0x3e, 0xf4, 0xba, 0x88, 0x3e,
  0x05, 0xe9, 0xd7, 0xbe, 0x33, 0x68, 0xef, 0xbc, 0x00, 0xa0, 0x13, 0xbd,
  0xae, 0x0c, 0x51, 0xbe, 0xa6, 0x13, 0x80, 0xbd, 0x9d, 0xf2, 0x7a, 0x3e,
  0xc8, 0x30, 0xa6, 0xbe, 0x1e, 0xb9, 0x34, 0x3d, 0x34, 0xa5, 0x27, 0x3e,
  0x77, 0x99, 0xe3, 0xbe, 0xc1, 0x85, 0x23, 0x3e, 0x06, 0x1c, 0x81, 0xbd,
  0x79, 0x84, 0xc4, 0xbe, 0x26, 0x07, 0xab, 0x3d, 0xbd, 0x6b, 0x9a, 0xbc,
  0x89, 0x66, 0x3b, 0xbe, 0x91, 0x96, 0xed, 0x3d, 0x07, 0x19, 0x34, 0x3d,
  0xcd, 0xc0, 0xe1, 0xbe, 0x47, 0x28, 0x66, 0x3e, 0xf0, 0x9b, 0x9f, 0x3e,
  0xd2, 0xf4, 0xf1, 0xbe, 0x9c, 0xfa, 0x91, 0x3e, 0x9c, 0x35, 0xab, 0x3e,
  0x3d, 0x79, 0xbf, 0xbe, 0x7f, 0x29, 0xac, 0x3e, 0xdf, 0x00, 0x4a, 0x3e,
  0x86, 0x09, 0x8e, 0xbe, 0x83, 0x60, 0x59, 0xbd, 0x98, 0xae, 0x27, 0xbd,
  0x98, 0x0f, 0xa5, 0xbe, 0x81, 0x02, 0xad, 0x3e, 0x0b, 0xbb, 0x5d, 0x3e,
  0x5e, 0x0b, 0xb4, 0xbb, 0x97, 0x9f, 0x31, 0x3e, 0x6a, 0x21, 0x7f, 0x3e,
  0x7b, 0xcf, 0x8c, 0xbd, 0xdc, 0xd3, 0x9c, 0x3e, 0x63, 0x06, 0xdf, 0xbd,
  0x1c, 0x9a, 0xf1, 0xbd, 0x29, 0x9e, 0x31, 0x3d, 0x63, 0xc1, 0x81, 0x3e,
  0x70, 0x6e, 0x24, 0xbe, 0x3f, 0x26, 0x6d, 0x3e, 0x5d, 0x85, 0x52, 0x3e,
  0xbe, 0xa7, 0x19, 0xbd, 0xcb, 0x2c, 0x80, 0x3e, 0x33, 0x22, 0x26, 0x3e,
  0x3c, 0xe6, 0x85, 0xbe, 0xbd, 0xbf, 0x81, 0x3e, 0x85, 0x6b, 0x90, 0x3e,
  0x32, 0x4c, 0x52, 0xbd, 0x7d, 0x78, 0x24, 0x3e, 0x7e, 0x96, 0x1d, 0x3e,
  0x3e, 0xc6, 0xa2, 0x3d, 0x9f, 0xef, 0x21, 0x3e, 0xe2, 0x6c, 0xcd, 0x3e,
  0x57, 0x8b, 0x23, 0x3d, 0x26, 0x67, 0xdf, 0x3d, 0x85, 0x35, 0xff, 0x3e,
  0x3e, 0xc7, 0xb1, 0x3c, 0x06, 0xcc, 0x2b, 0x3d, 0x80, 0x85, 0xf5, 0x3e,
  0x78, 0xb1, 0xb3, 0x3d, 0x8a, 0x61, 0xdd, 0xbd, 0x3c, 0x3b, 0xf9, 0x3e,
  0x4c, 0x9a, 0x98, 0x3e, 0x2e, 0xd6, 0x26, 0x3e, 0x04, 0xff, 0x9e, 0x3e,
  0x3e, 0xe3, 0xd9, 0x3e, 0x43, 0x0c, 0x84, 0x3e, 0x30, 0x96, 0x02, 0x3f,
  0xfc, 0x9b, 0xb2, 0x3d, 0xbb, 0x42, 0x50, 0x3e, 0xb7, 0x8f, 0x1b, 0x3f,
  0x7e, 0xa0, 0xa2, 0x3e, 0x3b, 0x6e, 0xef, 0x3c, 0xaa, 0x45, 0x39, 0x3e,
  0x1d, 0x23, 0xdf, 0x3e, 0xa6, 0xba, 0x66, 0x3d, 0xad, 0xe8, 0x07, 0x3f,
  0x62, 0x01, 0xc8, 0x3d, 0xed, 0xda, 0xac, 0x3e, 0xf9, 0x7a, 0x15, 0x3f,
  0x56, 0x10, 0xd9, 0x3e, 0x7d, 0x0b, 0xd2, 0x3e, 0x49, 0xa7, 0xf0, 0x3e,
  0x60, 0x81, 0xcd, 0x3e, 0x9b, 0x8f, 0x87, 0x3e, 0x8a, 0xb1, 0x9e, 0x3e,
  0x59, 0xa8, 0x47, 0x3e, 0x4f, 0xcc, 0x5b, 0x3e, 0x9f, 0xa0, 0x15, 0x3f,
  0x2c, 0xa9, 0xf8, 0x3e, 0xff, 0xac, 0xa3, 0x3e, 0x04, 0x79, 0x9c, 0x3e,
  0x74, 0x5f, 0x06, 0x3f, 0x78, 0xa1, 0xfc, 0x3e, 0xf1, 0x8f, 0xb5, 0x3e,
  0x20, 0xac, 0x83, 0x3e, 0xfd, 0x98, 0x6c, 0x3e, 0xbf, 0x48, 0x00, 0x3f,
  0x0e, 0x58, 0x81, 0x3e, 0x48, 0x28, 0x94, 0x3d, 0xff, 0x64, 0x9a, 0x3e,
  0xc5, 0x19, 0xd4, 0x3e, 0x39, 0x8c, 0x8c, 0x3e, 0xbc, 0x64, 0xb0, 0x3e,
  0x39, 0x3b, 0x67, 0x3e, 0x4c, 0xda, 0xb2, 0x3e, 0x08, 0xbe, 0x0d, 0x3f,
  0xb5, 0xcb, 0xf9, 0x3e, 0x57, 0x0d, 0xa3, 0x3e, 0x8b, 0x3d, 0x19, 0x3f,
  0xb7, 0x1d, 0x5c, 0x3e, 0x28, 0x5a, 0x38, 0x3e, 0x12, 0xa0, 0x19, 0x3b,
  0x55, 0xa5, 0x8e, 0x3d, 0xbc, 0x4e, 0x54, 0xbd, 0xb2, 0x83, 0x4e, 0xbe,
  0xc1, 0x8c, 0x08, 0x3e, 0xa6, 0x6a, 0x67, 0x3e, 0xd0, 0xe8, 0x89, 0x3d,
  0xfb, 0x03, 0x45, 0x3d, 0xd8, 0x7a, 0x30, 0xbb, 0xab, 0xf7, 0x21, 0x3e,
  0xf0, 0xeb, 0x73, 0xbe, 0x1d, 0xdc, 0x82, 0x3d, 0x6f, 0x01, 0xa0, 0xbd,
  0x24, 0xa8, 0x53, 0xbe, 0x55, 0xd2, 0x94, 0x3d, 0x62, 0x97, 0xea, 0x3d,
  0x69, 0x52, 0x06, 0x3e, 0xc8, 0x8d, 0x5f, 0xbe, 0x9c, 0xd2, 0x73, 0xbe,
  0x52, 0x02, 0x0a, 0x3e, 0x05, 0x74, 0x0f, 0xbe, 0x2e, 0x26, 0xba, 0x3d,
  0x37, 0x7b, 0xec, 0x3c, 0x08, 0x8e, 0x32, 0x3d, 0x6e, 0x5b, 0xb2, 0x3d,
  0x12, 0x80, 0xd6, 0x3d, 0x84, 0xbf, 0xfe, 0xbd, 0xd2, 0x82, 0xec, 0xbd,
  0x05, 0x1e, 0x74, 0xbe, 0x09, 0xb8, 0x49, 0xbe, 0x53, 0xf2, 0x8a, 0xbd,
  0x51, 0x03, 0x19, 0xbe, 0x05, 0xf4, 0xbe, 0xbd, 0x42, 0xc7, 0x36, 0xbe,
  0xe4, 0xb9, 0x7a, 0xbd, 0xa6, 0x1d, 0xb4, 0xbd, 0xdf, 0x66, 0x0d, 0x3e,
  0x7a, 0x1c, 0xcd, 0x3b, 0x6d, 0x4a, 0x82, 0x3d, 0x60, 0x61, 0x6a, 0x3c,
  0x5b, 0x26, 0xc2, 0x3d, 0x5e, 0xec, 0x16, 0x3e, 0x25, 0x0c, 0x68, 0x3d,
  0xe4, 0x42, 0x87, 0xbd, 0x8e, 0x72, 0x7c, 0xbe, 0xab, 0x3f, 0x80, 0xbc,
  0xff, 0x20, 0x8b, 0x3d, 0xaf, 0xb8, 0x4f, 0xbe, 0x9a, 0xae, 0x0e, 0xbd,
  0x9b, 0xa5, 0xef, 0x3d, 0x1b, 0x04, 0x51, 0xbe, 0xe4, 0x0b, 0x22, 0x3b,
  0x83, 0x01, 0x5b, 0xbe, 0x55, 0x24, 0x3d, 0x3e, 0xa0, 0xab, 0x46, 0xbe,
  0x3a, 0x57, 0xb6, 0xbc, 0x43, 0x3a, 0xcd, 0x3d, 0x5f, 0x3c, 0x5f, 0x3e,
  0xce, 0x97, 0x62, 0x3d, 0x34, 0xc3, 0xe3, 0x3c, 0xd6, 0xf1, 0x07, 0xbe,
  0x1e, 0x46, 0x52, 0x3e, 0x35, 0xec, 0x0d, 0x3e, 0x6c, 0x77, 0x7e, 0x3d,
  0x3d, 0x3c, 0x2e, 0xbe, 0xe4, 0x90, 0x87, 0xbd, 0x0a, 0xcf, 0x38, 0x3e,
  0x18, 0x7e, 0x84, 0xbd, 0x0f, 0x6e, 0xb7, 0xbd, 0x87, 0x42, 0xe1, 0x3c,
  0x03, 0x9d, 0x33, 0x3d, 0x53, 0x0e, 0x2e, 0xbe, 0x6b, 0x0c, 0xaa, 0x3d,
  0x8e, 0xed, 0x81, 0xbe, 0x97, 0x1e, 0x94, 0xbd, 0x6a, 0xd2, 0x94, 0xbd,
  0x28, 0x1e, 0xed, 0x3d, 0x82, 0x83, 0xe3, 0xbd, 0xa2, 0x84, 0x44, 0xbe,
  0x34, 0x51, 0xda, 0xbc, 0x2b, 0x40, 0x51, 0xbe, 0x97, 0xcf, 0xcb, 0x3d,
  0x39, 0x51, 0x68, 0xbe, 0xdd, 0x74, 0xab, 0xbd, 0x55, 0x77, 0xfa, 0xbb,
  0x89, 0x0e, 0x47, 0xbc, 0x20, 0x1f, 0x34, 0xbe, 0xbc, 0xf5, 0x3b, 0x3e,
  0x7f, 0xf7, 0x0e, 0x3d, 0x16, 0xe2, 0xbd, 0xbd, 0x9d, 0xdb, 0x7d, 0xbe,
  0x8d, 0xac, 0x55, 0x3d, 0x39, 0x3c, 0x34, 0x3d, 0x54, 0x53, 0x14, 0x3e,
  0xca, 0xf9, 0xfa, 0xbc, 0xc9, 0x51, 0xbc, 0x3d, 0x3b, 0xec, 0x9d, 0xbd,
  0x24, 0x6e, 0x22, 0x3e, 0x7a, 0xdf, 0x6d, 0xbd, 0xc4, 0xd8, 0xeb, 0xbd,
  0xb7, 0xcd, 0xce, 0x3c, 0x04, 0x7f, 0x4f, 0x3e, 0x0e, 0x67, 0x36, 0x3e,
  0x1e, 0x1d, 0xef, 0xbc, 0x56, 0x72, 0x5d, 0xbd, 0xf8, 0x70, 0xfc, 0xbb,
  0x1e, 0xec, 0x15, 0xbe, 0x38, 0x0a, 0x5c, 0xbe, 0x5c, 0x8b, 0xf4, 0xbd,
  0xee, 0x8d, 0x85, 0x3d, 0xe8, 0x82, 0x27, 0xbe, 0x50, 0x4f, 0x46, 0x3e,
  0xba, 0xd9, 0xb6, 0x3d, 0xe3, 0xed, 0x05, 0x3e, 0xdd, 0x95, 0x1c, 0x3d,
  0xaa, 0x93, 0x4a, 0x3e, 0x19, 0xe8, 0x2a, 0xbd, 0xc4, 0x38, 0x73, 0xbc,
  0xac, 0x86, 0xb1, 0xbd, 0x98, 0x39, 0x14, 0x3e, 0x0c, 0xaa, 0xe0, 0x3d,
  0x4d, 0xd6, 0x92, 0xbe, 0x99, 0xfc, 0x41, 0x3d, 0xea, 0xe6, 0x97, 0xbd,
  0x0d, 0xd5, 0xaa, 0xbd, 0x51, 0xc2, 0x4a, 0x3c, 0x49, 0xdf, 0x3b, 0xbe,
  0xa1, 0x65, 0x96, 0xbe, 0xb3, 0x8a, 0x4f, 0x3e, 0x7b, 0xa8, 0x34, 0xbe,
  0x74, 0x35, 0x78, 0xbd, 0xa5, 0x26, 0xc4, 0xbd, 0xd4, 0x66, 0x2f, 0x3d,
  0xa1, 0x92, 0x88, 0xbe, 0xdf, 0xb6, 0x0e, 0x3e, 0x7d, 0xbb, 0x1b, 0xbc,
  0x31, 0x50, 0x65, 0xbe, 0x55, 0x15, 0x39, 0x3e, 0xbd, 0x15, 0x9e, 0x3d,
  0xcc, 0x86, 0x68, 0xbe, 0xb2, 0x1d, 0x87, 0x3e, 0x72, 0xa3, 0x9c, 0xbd,
  0xa5, 0x46, 0x47, 0xbb, 0x33, 0x27, 0x36, 0x3e, 0xad, 0xd5, 0x52, 0xbd,
  0x1a, 0x0f, 0x39, 0x3c, 0x4b, 0xbd, 0x75, 0xbc, 0x34, 0x3c, 0x6d, 0xbd,
  0x5d, 0xd8, 0x20, 0x3d, 0x9d, 0x27, 0xce, 0xbd, 0xa0, 0x6a, 0x65, 0x3c,
  0x78, 0x4f, 0x97, 0x3e, 0x27, 0x56, 0x94, 0xbc, 0xe7, 0x32, 0x1f, 0x3e,
  0x26, 0xe7, 0x5e, 0xbc, 0x2b, 0xee, 0xab, 0x3d, 0x51, 0x71, 0x11, 0xbe,
  0x41, 0x5d, 0x2c, 0xbe, 0xd9, 0xc5, 0x88, 0x3c, 0x57, 0x3a, 0x19, 0xbe,
  0x6c, 0x29, 0x6a, 0x3e, 0x09, 0xcf, 0x84, 0x3e, 0x2a, 0x7f, 0x6b, 0xbe,
  0x43, 0xa5, 0x7a, 0x3c, 0x26, 0x5f, 0x38, 0x3e, 0xd0, 0x88, 0x96, 0x3d,
  0x4c, 0xf0, 0xc6, 0xba, 0xd5, 0xc3, 0x54, 0x3d, 0x8f, 0x23, 0xad, 0xbc,
  0xdf, 0xd6, 0x00, 0x3e, 0x87, 0x6d, 0x3c, 0xbd, 0x8c, 0xa9, 0x4a, 0x3d,
  0x05, 0x57, 0x93, 0x3d, 0x81, 0x50, 0x12, 0x3e, 0x6f, 0x28, 0x00, 0x3e,
  0x57, 0xf0, 0xf6, 0xbd, 0xe8, 0x46, 0x91, 0xbd, 0x8c, 0xfc, 0x3c, 0x3e,
  0xa5, 0x32, 0x19, 0x3e, 0xf4, 0x2d, 0x53, 0xbe, 0x08, 0x26, 0x1e, 0xbe,
  0xad, 0x8e, 0xbd, 0x3c, 0xd2, 0x71, 0x2b, 0x3e, 0x78, 0x2f, 0x70, 0xbe,
  0x92, 0xa6, 0x1d, 0x3e, 0xd5, 0x22, 0x4b, 0x3d, 0x90, 0x62, 0x41, 0x3e,
  0xd1, 0x62, 0x5a, 0xbe, 0x70, 0xc3, 0x26, 0xbd, 0xd1, 0xc4, 0x3f, 0x3e,
  0x8c, 0xf3, 0x4e, 0xbe, 0xc9, 0x9c, 0xd8, 0xbd, 0x9f, 0x05, 0x42, 0xbe,
  0x5c, 0xc2, 0x0b, 0x3d, 0x4e, 0xbd, 0xf9, 0x3d, 0xd5, 0x7d, 0x9c, 0x3d,
  0x6a, 0xc7, 0x39, 0x3e, 0xab, 0xc4, 0x9b, 0x3d, 0x29, 0x45, 0x3b, 0x3e,
  0x7c, 0xc9, 0xcc, 0xbd, 0x57, 0xb6, 0x5a, 0xbd, 0xee, 0x70, 0x11, 0x3e,
  0xf7, 0xf4, 0x72, 0xbe, 0x9d, 0xa5, 0x38, 0xbe, 0xf0, 0xf6, 0xfe, 0xbd,
  0x00, 0x02, 0xc2, 0x3d, 0xce, 0x94, 0x13, 0x3e, 0x0c, 0xff, 0x5e, 0xbc,
  0xe8, 0xc6, 0x31, 0x3e, 0x00, 0x04, 0x78, 0x3d, 0x15, 0x1e, 0x07, 0xbc,
  0xdc, 0x64, 0xa0, 0xbd, 0xad, 0x1c, 0x87, 0xbd, 0xe5, 0xb2, 0x97, 0xbb,
  0x73, 0x0a, 0xf6, 0xbd, 0x5e, 0xe8, 0x12, 0x3e, 0x4d, 0xe1, 0x94, 0x3d,
  0xa1, 0x37, 0xdd, 0x3d, 0xf8, 0x01, 0x84, 0x3d, 0xb4, 0x7b, 0xd5, 0xbd,
  0x1e, 0xb0, 0x51, 0xbd, 0x77, 0xc3, 0xca, 0xbd, 0x94, 0x83, 0x17, 0x3d,
  0xa4, 0x86, 0x6c, 0xbe, 0xba, 0x7a, 0x26, 0xbe, 0xa7, 0xf6, 0x79, 0xbe,
  0xae, 0x1c, 0x2b, 0x3e, 0x52, 0x94, 0xad, 0xbd, 0x56, 0xe0, 0x40, 0x3e,
  0x31, 0x0b, 0x50, 0x3d, 0x38, 0x38, 0x33, 0x3e, 0x13, 0xb1, 0x08, 0xbe,
  0x1f, 0xf4, 0x0d, 0x3e, 0x5d, 0xaa, 0x3e, 0x39, 0x81, 0x23, 0xe0, 0x3d,
  0x19, 0x2b, 0x6b, 0xbe, 0xf6, 0x17, 0x26, 0xbd, 0x64, 0x4e, 0xe0, 0xbd,
  0x3b, 0x66, 0x30, 0x3e, 0x1a, 0x58, 0x3a, 0xbe, 0x08, 0x84, 0x80, 0xbc,
  0xa9, 0x75, 0x37, 0xbe, 0xd0, 0x7f, 0x61, 0xbd, 0x7c, 0xde, 0x58, 0x3e,
  0xca, 0xb3, 0x51, 0xbe, 0x58, 0x0d, 0xa8, 0x3d, 0x87, 0xaa, 0x3c, 0xbe,
  0xb6, 0x55, 0x09, 0x3e, 0x74, 0xeb, 0xed, 0x3d, 0x54, 0xdc, 0x9c, 0xbd,
  0x2c, 0x12, 0xc8, 0x3d, 0xf0, 0x9f, 0xef, 0xbc, 0xb2, 0x6a, 0x0c, 0xbe,
  0xd0, 0xb3, 0x54, 0xbd, 0xd8, 0xd7, 0x3c, 0xbd, 0x00, 0x2c, 0xa8, 0x3d,
  0x26, 0x06, 0x49, 0xbe, 0x24, 0x43, 0x12, 0xbe, 0xe6, 0xc3, 0xd6, 0xbd,
  0x68, 0x56, 0x63, 0xbe, 0xb4, 0x74, 0x4a, 0xbd, 0xe0, 0x2c, 0x3e, 0xbe,
  0xc0, 0x18, 0x6b, 0x3b, 0xf0, 0x0d, 0x5a, 0x3e, 0x12, 0x1b, 0x5c, 0x3e,
  0x82, 0xdf, 0x6c, 0x3e, 0x80, 0xb8, 0x0b, 0x3b, 0xa2, 0x1c, 0x2f, 0x3e,
  0x70, 0x02, 0x3c, 0xbd, 0x88, 0xbf, 0xb3, 0x3d, 0x30, 0x29, 0xa7, 0x3c,
  0x73, 0xbb, 0x58, 0xbe, 0x00, 0x4f, 0xdb, 0x3c, 0x40, 0x72, 0x17, 0xbb,
  0x2b, 0xda, 0xf2, 0xbd, 0x74, 0xb4, 0x8c, 0x3d, 0x1c, 0xc0, 0xdb, 0x3d,
  0x56, 0x21, 0x08, 0x3e, 0x30, 0x2d, 0x32, 0xbe, 0x30, 0xda, 0x12, 0xbe,
  0x90, 0xac, 0xa9, 0x3d, 0xc2, 0x60, 0xd6, 0xbd, 0x30, 0xc0, 0x13, 0x3d,
  0x80, 0x51, 0xd0, 0xba, 0x20, 0x08, 0x61, 0x3d, 0x2c, 0xe5, 0xe1, 0x3d,
  0x74, 0x0a, 0xa7, 0xbd, 0x8a, 0xc1, 0x27, 0xbe, 0x26, 0x95, 0xa5, 0xbd,
  0x43, 0x64, 0x31, 0xbe, 0x54, 0xb9, 0x6a, 0x3e, 0xee, 0x4b, 0xb4, 0xbd,
  0x88, 0x10, 0x0b, 0xbe, 0x3e, 0xc5, 0x30, 0xbe, 0xa0, 0x95, 0xe0, 0x3d,
  0x00, 0x40, 0xf4, 0xb7, 0xf8, 0xb1, 0x4c, 0x3e, 0x20, 0x25, 0x46, 0xbc,
  0xc5, 0x9c, 0xff, 0xbd, 0x89, 0x22, 0x85, 0x3e, 0xc5, 0x2c, 0xe0, 0x3d,
  0xe8, 0x4d, 0xee, 0xbd, 0xc6, 0xa0, 0x76, 0x3e, 0x42, 0x72, 0x63, 0x3d,
  0x16, 0x98, 0x05, 0xbf, 0x33, 0x8d, 0xfc, 0xbd, 0x04, 0xb0, 0x9d, 0x3e,
  0xae, 0x39, 0xc6, 0xbe, 0xe5, 0xd1, 0x26, 0xbd, 0x66, 0x58, 0x6d, 0x3e,
  0x97, 0xb5, 0xe6, 0xbe, 0x89, 0xe8, 0xba, 0xbd, 0xa4, 0x00, 0x19, 0xbc,
  0x81, 0x4d, 0x4b, 0xbe, 0x43, 0xab, 0xbf, 0x3d, 0xcc, 0xe4, 0xf5, 0xbd,
  0x2a, 0xb3, 0xbf, 0xbd, 0x55, 0x8f, 0x53, 0x3e, 0x50, 0xd9, 0x86, 0x3e,
  0xd8, 0xc3, 0xd0, 0xbe, 0xb4, 0xa7, 0xd3, 0xbd, 0xa9, 0x75, 0xac, 0xbd,
  0xb2, 0x5e, 0xde, 0xbe, 0x68, 0x24, 0x71, 0x3c, 0x9a, 0x07, 0x80, 0x3e,
  0xc6, 0x54, 0xa9, 0xbe, 0x83, 0xc1, 0x70, 0x3e, 0x0e, 0xcb, 0x10, 0x3e,
  0x7e, 0x42, 0x90, 0xbe, 0xda, 0x74, 0x4a, 0x3e, 0xe7, 0x1a, 0x7f, 0x3e,
  0xad, 0x01, 0xfa, 0xbe, 0xde, 0x8d, 0x44, 0x3c, 0x4e, 0x0a, 0xf8, 0x3c,
  0xa4, 0xfc, 0x7b, 0xbe, 0xf9, 0x39, 0x34, 0x3d, 0x68, 0x26, 0x9f, 0x3d,
  0x68, 0xf8, 0x4b, 0xbe, 0x58, 0xe6, 0x40, 0x3e, 0xfc, 0x8b, 0x96, 0x3e,
  0x9d, 0x68, 0x09, 0xbf, 0x49, 0x45, 0xed, 0xbd, 0x57, 0x35, 0xae, 0xbc,
  0xf4, 0x84, 0xe9, 0xbd, 0x99, 0x7c, 0x2a, 0xbe, 0x90, 0x4b, 0x10, 0xbe,
  0x51, 0x8c, 0xa2, 0xbe, 0x78, 0xba, 0xba, 0xbd, 0xc2, 0x5a, 0x75, 0x3d,
  0x4e, 0xf6, 0x6b, 0xbe, 0x43, 0x87, 0xc1, 0xbd, 0xd0, 0x4b, 0x0e, 0xbd,
  0x63, 0xae, 0x16, 0xbe, 0xf6, 0x43, 0x65, 0x3e, 0xd4, 0x12, 0x89, 0x3e,
  0x48, 0x92, 0x04, 0xbf, 0xbd, 0x30, 0xb7, 0x3c, 0x5a, 0xe5, 0x3f, 0xbc,
  0x4a, 0x84, 0xc8, 0xbe, 0xc0, 0x70, 0x6a, 0xbe, 0xfe, 0xd0, 0x37, 0xbe,
  0x0b, 0x08, 0x52, 0xbe, 0x62, 0x1a, 0x60, 0x3e, 0xe4, 0x3c, 0xb6, 0xbd,
  0xd0, 0xf1, 0x22, 0x3c, 0x3e, 0xf3, 0x25, 0x3e, 0xd6, 0x3a, 0x87, 0xbd,
  0x38, 0x4b, 0x8e, 0xbc, 0x88, 0xdb, 0xad, 0x3d, 0xf8, 0xaf, 0x4d, 0x3e,
  0x54, 0x5a, 0x6b, 0xbd, 0x88, 0x6d, 0xc4, 0x3d, 0xb0, 0xb5, 0x24, 0x3e,
  0x0c, 0x94, 0xda, 0x3d, 0xae, 0x14, 0x2d, 0xbe, 0x2c, 0x3c, 0x89, 0x3d,
  0xd0, 0xad, 0xf7, 0x3d, 0xe2, 0xbe, 0x2b, 0xbe, 0x84, 0x40, 0xfe, 0xbd,
  0xa0, 0xfd, 0x3c, 0x3d, 0x4a, 0x7a, 0x2e, 0xbe, 0x28, 0x0d, 0x41, 0xbe,
  0xe4, 0x0b, 0x58, 0xbd, 0xd8, 0x76, 0xf5, 0x3d, 0x03, 0x15, 0x38, 0xbe,
  0x82, 0x88, 0x32, 0x3e, 0xe8, 0x58, 0xde, 0x3d, 0x32, 0x61, 0x85, 0xbd,
  0xcc, 0x55, 0x56, 0xbe, 0x64, 0x4e, 0x9e, 0x3d, 0x8e, 0x1d, 0x2b, 0x3e,
  0xb0, 0xda, 0x5c, 0x3e, 0x20, 0x6e, 0x32, 0x3c, 0xe0, 0x9f, 0x3b, 0x3d,
  0xfb, 0x4d, 0x45, 0xbe, 0x2c, 0xd6, 0xdd, 0xbd, 0xbc, 0x79, 0x35, 0x3e,
  0x2a, 0x87, 0x02, 0x3e, 0x3c, 0xfd, 0xdf, 0x3d, 0xf0, 0x11, 0x07, 0xbc,
  0x08, 0x0c, 0x20, 0x3d, 0x30, 0x10, 0x85, 0xbd, 0x08, 0xfd, 0xee, 0xbc,
  0xe0, 0x9a, 0x7c, 0xbd, 0x7c, 0xd2, 0xee, 0x3d, 0x32, 0x40, 0x54, 0x3e,
  0xaf, 0xb8, 0x41, 0xbe, 0xd0, 0xac, 0x30, 0x3d, 0xfc, 0x0f, 0x4f, 0xbe,
  0x1c, 0x8f, 0xab, 0x3d, 0x48, 0x51, 0x3e, 0xbe, 0x84, 0x29, 0x6d, 0xbe,
  0x10, 0x63, 0x3c, 0xbc, 0x68, 0x47, 0xf3, 0xbc, 0x90, 0x9d, 0x9d, 0xbc,
  0x42, 0xd0, 0x48, 0xbe, 0x4e, 0xdc, 0x94, 0xbd, 0x8c, 0x12, 0x8b, 0x3d,
  0x55, 0x1f, 0x69, 0xbe, 0x21, 0x7b, 0xc1, 0x3d, 0xc3, 0x6d, 0x49, 0xbe,
  0x5c, 0x17, 0x4d, 0x3e, 0x95, 0x74, 0xd4, 0x3e, 0x58, 0x5a, 0x99, 0x3d,
  0x3f, 0x43, 0x42, 0x3e, 0x47, 0xcb, 0x07, 0x3f, 0x91, 0x3a, 0xa0, 0xbd,
  0x9b, 0x47, 0x77, 0x3d, 0x33, 0x7a, 0xdd, 0x3d, 0xc5, 0xe8, 0xf2, 0x3d,
  0x01, 0x57, 0xaf, 0x3e, 0x07, 0xe1, 0xd5, 0x3e, 0xa6, 0x1f, 0x23, 0xbe,
  0x83, 0x41, 0x63, 0x3e, 0x0f, 0x0e, 0xeb, 0x3e, 0x28, 0xb3, 0x19, 0xbe,
  0x86, 0x30, 0x4e, 0x3e, 0x8a, 0x58, 0xb9, 0x3e, 0x37, 0x4c, 0x61, 0xbe,
  0x42, 0xb3, 0x4b, 0x3e, 0x2d, 0x66, 0x4a, 0x3e, 0x54, 0x8a, 0x8b, 0xbd,
  0xa6, 0x97, 0x22, 0x3e, 0x60, 0xbd, 0x76, 0x3d, 0xf2, 0xa4, 0x32, 0xbe,
  0x42, 0x09, 0x97, 0x3d, 0x7f, 0x44, 0x49, 0x3e, 0xd8, 0x51, 0x59, 0x3d,
  0x76, 0x22, 0x8c, 0xbe, 0x65, 0x7f, 0x6d, 0x3d, 0xc7, 0x72, 0xce, 0xbd,
  0xd4, 0x1e, 0x72, 0xbe, 0xb3, 0xee, 0xfe, 0xbc, 0xca, 0xa8, 0x75, 0xbe,
  0x45, 0x18, 0xd9, 0x3c, 0x32, 0x40, 0x88, 0x3e, 0x23, 0xe5, 0x25, 0xbe,
  0x0d, 0x8d, 0xad, 0xbc, 0x7a, 0xe9, 0xb9, 0x3e, 0x85, 0x89, 0x3a, 0xbe,
  0xdd, 0x1e, 0x8a, 0xbd, 0xed, 0x08, 0x9a, 0x3e, 0xdf, 0xf5, 0xd7, 0x3d,
  0x27, 0x59, 0x0d, 0xbc, 0x06, 0x24, 0x50, 0x3e, 0x93, 0x97, 0xfb, 0x3c,
  0xf1, 0x86, 0x53, 0xbe, 0xd2, 0x79, 0x80, 0x3e, 0x33, 0x49, 0x6f, 0x3c,
  0x40, 0x0f, 0x06, 0xbe, 0x5f, 0x5f, 0xfb, 0x3d, 0x92, 0x24, 0xd7, 0xbb,
  0x0a, 0xb3, 0xba, 0xbd, 0x53, 0xc8, 0x9b, 0x3b, 0x24, 0x85, 0x88, 0xbd,
  0x86, 0xec, 0x19, 0x3e, 0xf9, 0xc8, 0x7c, 0x3e, 0x4f, 0x06, 0xca, 0xbd,
  0x92, 0xc3, 0x52, 0xbe, 0x55, 0x2b, 0x5f, 0xbe, 0x6d, 0x25, 0xef, 0x3d,
  0x75, 0x88, 0x88, 0x3c, 0x96, 0x3d, 0x12, 0x3e, 0x35, 0x8e, 0x25, 0xbe,
  0x2e, 0x20, 0x4e, 0xbe, 0x84, 0x28, 0x06, 0x3e, 0xb6, 0x72, 0x57, 0xbe,
  0xda, 0xd1, 0xc7, 0xbd, 0x8c, 0x4b, 0x55, 0xbe, 0xd7, 0xda, 0xeb, 0x3d,
  0x97, 0x3c, 0xe5, 0x3c, 0x28, 0x29, 0xd0, 0xbd, 0xdb, 0xcb, 0x5d, 0x3e,
  0xe2, 0x8c, 0xf3, 0xbb, 0x68, 0x4a, 0x0f, 0x3e, 0xa5, 0xf5, 0x1b, 0x3e,
  0x7d, 0x79, 0x4e, 0x3e, 0x67, 0xe7, 0x26, 0xbe, 0x4f, 0x85, 0x9c, 0x3d,
  0x5c, 0x20, 0x80, 0x3d, 0xe8, 0xf7, 0x6a, 0x3e, 0x2a, 0xf3, 0xf1, 0x3d,
  0x24, 0x9d, 0x5d, 0xbd, 0xe8, 0x4a, 0x4e, 0xbd, 0x33, 0x57, 0xcd, 0xbd,
  0x02, 0x71, 0xf4, 0xbd, 0xae, 0xb6, 0x32, 0xbe, 0xa1, 0xda, 0x55, 0xbd,
  0xf7, 0xc5, 0x59, 0x3e, 0xa3, 0xbd, 0x14, 0xbe, 0xa6, 0x99, 0x21, 0xbd,
  0xa9, 0x7e, 0xad, 0x3c, 0x4a, 0x47, 0x9d, 0xbd, 0x14, 0xec, 0x22, 0xbe,
  0x14, 0x1d, 0x3a, 0xbe, 0xf5, 0x21, 0x91, 0xbb, 0x66, 0xae, 0x13, 0xbe,
  0xd0, 0x07, 0x35, 0xbe, 0xf1, 0xb0, 0x1f, 0x3e, 0xc1, 0x74, 0x97, 0xbd,
  0xb5, 0x95, 0xe5, 0x3d, 0x34, 0x9b, 0x2f, 0x3e, 0x4e, 0x49, 0xf5, 0xbc,
  0x2d, 0xff, 0x2b, 0x3e, 0x4e, 0xbf, 0xd4, 0x3c, 0x45, 0xe8, 0x4b, 0x3e,
  0x77, 0x0b, 0x40, 0xbe, 0x3a, 0x9e, 0x64, 0xbe, 0xf8, 0x3c, 0x36, 0x3d,
  0xad, 0x9c, 0x53, 0x3e, 0xf4, 0xbb, 0x28, 0xbe, 0xfb, 0x66, 0x66, 0x3e,
  0xaf, 0x73, 0x4f, 0xbd, 0x1b, 0x20, 0x44, 0xbe, 0xe9, 0xd0, 0x22, 0xbd,
  0x79, 0x66, 0x3c, 0xbe, 0x42, 0x85, 0x25, 0x3e, 0xc2, 0xe0, 0xcf, 0xbd,
  0x57, 0x69, 0x0b, 0xbe, 0xc0, 0xb3, 0x91, 0x3b, 0x8a, 0x05, 0x1a, 0xbe,
  0x0c, 0xbe, 0x5c, 0xbe, 0x0c, 0xc8, 0x35, 0xbe, 0x9a, 0xc5, 0x48, 0xbe,
  0x68, 0x17, 0x3b, 0xbe, 0x3a, 0xc1, 0x59, 0x3e, 0x48, 0xd1, 0x29, 0xbd,
  0x44, 0x5a, 0x2e, 0xbd, 0x5c, 0xe9, 0x2b, 0xbe, 0xd4, 0x0f, 0xd8, 0x3d,
  0xa0, 0x69, 0x7b, 0x3c, 0xcc, 0xab, 0x33, 0x3e, 0xe8, 0x34, 0x0d, 0xbe,
  0xd1, 0xa5, 0x5b, 0xbe, 0xf9, 0xd3, 0xfc, 0xbd, 0x24, 0xc7, 0xcd, 0x3d,
  0xe8, 0xcf, 0x6f, 0x3d, 0x57, 0xbb, 0x41, 0xbe, 0xb0, 0xbf, 0x38, 0xbc,
  0xcd, 0x33, 0x06, 0xbe, 0x91, 0x08, 0x2a, 0xbe, 0x28, 0x28, 0xb6, 0xbc,
  0x59, 0x95, 0x66, 0xbe, 0x25, 0x48, 0x61, 0xbe, 0x78, 0xc4, 0xe3, 0xbc,
  0xc0, 0x3a, 0x27, 0xbe, 0xee, 0x82, 0x0b, 0x3e, 0xc6, 0xfb, 0x8b, 0xbd,
  0x2a, 0xd8, 0x2c, 0x3e, 0x50, 0x27, 0x59, 0xbd, 0x08, 0x9a, 0xf0, 0x3d,
  0x60, 0xe6, 0x09, 0x3d, 0x56, 0x52, 0x5b, 0xbe, 0x5a, 0x2b, 0xfe, 0xbd,
  0x44, 0xc4, 0x0d, 0xbe, 0xf6, 0x26, 0x4e, 0xbe, 0x68, 0x98, 0xd0, 0xbd,
  0x70, 0x95, 0x20, 0xbc, 0xd2, 0x15, 0x4f, 0xbe, 0xba, 0xba, 0x17, 0x3e,
  0x00, 0x64, 0x29, 0xbe, 0xfe, 0x59, 0xbf, 0xbd, 0xb0, 0x51, 0x14, 0xbd,
  0x22, 0x3f, 0x83, 0xbd, 0x64, 0x1e, 0x98, 0x3d, 0xf8, 0x57, 0x84, 0xbd,
  0x26, 0x6f, 0x0e, 0xbe, 0x90, 0xbe, 0x1e, 0x3e, 0xda, 0x32, 0x0c, 0xbe,
  0xbc, 0x50, 0x49, 0x3e, 0x92, 0xad, 0x05, 0xbe, 0xa0, 0x7c, 0x03, 0x3e,
  0xe8, 0x5e, 0x5d, 0x3e, 0x88, 0xb3, 0x4c, 0xbd, 0x84, 0x80, 0x28, 0xbd,
  0x2e, 0x16, 0x62, 0x3e, 0xba, 0x37, 0x27, 0x3e, 0xa8, 0xa7, 0xde, 0xbc,
  0xb4, 0xa9, 0x1d, 0xbd, 0xc8, 0xe3, 0x61, 0xbd, 0x00, 0x93, 0x9b, 0xba,
  0x9b, 0xb1, 0x6d, 0xbe, 0xb0, 0x53, 0x6a, 0x3c, 0xc2, 0xc3, 0x23, 0xbe,
  0x0c, 0x42, 0x64, 0x3e, 0x72, 0x33, 0x17, 0xbe, 0x42, 0x15, 0x6e, 0x3e,
  0x6c, 0x8d, 0x35, 0xbe, 0xe6, 0xcf, 0x89, 0xbd, 0xbd, 0xd6, 0x18, 0xbe,
  0x20, 0xab, 0xd3, 0x3c, 0xa0, 0xa2, 0x4c, 0x3c, 0xb6, 0x3d, 0x07, 0xbe,
  0xe8, 0x57, 0x48, 0xbe, 0xdc, 0x64, 0xf1, 0x3d, 0x36, 0x23, 0x95, 0xbd,
  0x72, 0x7f, 0x83, 0xbd, 0x24, 0x44, 0x26, 0xbe, 0xc0, 0x7a, 0x55, 0x3d,
  0xe0, 0xcb, 0x86, 0x3d, 0x5c, 0x56, 0x61, 0xbd, 0x10, 0xe0, 0xbf, 0xbc,
  0x0c, 0x8d, 0x97, 0x3d, 0xb6, 0xde, 0x18, 0xbe, 0x80, 0x4a, 0xf1, 0x3c,
  0xfc, 0x7b, 0x4f, 0x3e, 0x52, 0x79, 0x6b, 0xbe, 0xfd, 0x7c, 0x30, 0xbe,
  0x00, 0xa2, 0x48, 0xbc, 0x30, 0x59, 0x56, 0x3e, 0xf8, 0xc1, 0x82, 0x3d,
  0x54, 0x9a, 0x4f, 0xbd, 0x70, 0xe8, 0x94, 0x3c, 0x10, 0xd4, 0x24, 0x3d,
  0x70, 0xfa, 0x75, 0x3d, 0xf0, 0x3a, 0xce, 0x3c, 0xd0, 0x39, 0x94, 0xbd,
  0x64, 0x64, 0x5d, 0xbe, 0x84, 0x93, 0xa7, 0x3d, 0x8a, 0xc1, 0x20, 0xbe,
  0x7f, 0x51, 0x4a, 0xbe, 0xf0, 0x7b, 0xd0, 0x3d, 0x7e, 0x08, 0x5d, 0xbe,
  0x55, 0x4b, 0x57, 0xbe, 0x56, 0xe9, 0x3c, 0xbe, 0x14, 0x9e, 0xbb, 0xbd,
  0x4c, 0xb2, 0x52, 0xbd, 0x0c, 0x6f, 0x24, 0xbd, 0x8a, 0x89, 0x5c, 0x3e,
  0x18, 0x17, 0xea, 0xbc, 0x30, 0x93, 0xc7, 0x3c, 0x7d, 0x05, 0x4d, 0xbe,
  0xdc, 0xba, 0xab, 0x3d, 0xe0, 0x34, 0xfa, 0x3c, 0x54, 0xbd, 0x9b, 0xbd,
  0x58, 0xf3, 0xaa, 0xbc, 0x5e, 0x4d, 0x47, 0xbe, 0x58, 0x4d, 0x53, 0x3e,
  0xdc, 0x75, 0xda, 0x3d, 0x55, 0x5b, 0x07, 0xbf, 0x6f, 0xf7, 0x28, 0xbd,
  0x5e, 0xa5, 0xab, 0x3e, 0xe9, 0xc9, 0xf7, 0xbe, 0x9e, 0x75, 0xfa, 0x3d,
  0x40, 0x28, 0xb7, 0x3e, 0xd0, 0xdf, 0xa8, 0xbe, 0x57, 0x56, 0x3c, 0x3d,
  0x34, 0x7b, 0x85, 0x3e, 0xb9, 0xfd, 0xed, 0xbe, 0x70, 0xfa, 0x0d, 0x3e,
  0x5b, 0xdc, 0x4b, 0x3b, 0x62, 0x96, 0xe3, 0xbe, 0xac, 0x42, 0x12, 0xbe,
  0x5e, 0x28, 0x21, 0x3e, 0x92, 0xc2, 0x09, 0xbf, 0x26, 0xa5, 0x57, 0x3e,
  0xc9, 0x87, 0x91, 0x3e, 0xec, 0xbe, 0xaa, 0xbe, 0x5d, 0xa4, 0x77, 0x3e,
  0x20, 0x98, 0x14, 0x3d, 0x33, 0xaf, 0x80, 0xbe, 0x45, 0x00, 0x3f, 0xbd,
  0x28, 0xd7, 0x91, 0x3e, 0x04, 0x8a, 0x7e, 0xbe, 0xe4, 0xe5, 0x64, 0x3e,
  0x99, 0xa5, 0x39, 0xbd, 0x97, 0xd9, 0x86, 0xbe, 0x4b, 0xee, 0x92, 0x3e,
  0x78, 0xee, 0x07, 0xbe, 0x58, 0xfd, 0xa3, 0x3d, 0x27, 0x3a, 0x75, 0x3e,
  0x33, 0x85, 0x3b, 0x3d, 0xc9, 0x7c, 0x33, 0xbd, 0x52, 0x81, 0xa0, 0xbd,
  0xf0, 0x29, 0x2c, 0x3e, 0xd9, 0x92, 0xd5, 0x3d, 0x31, 0xc6, 0xd0, 0x3d,
  0xbd, 0x8f, 0x23, 0xbc, 0x59, 0x67, 0xa6, 0xbe, 0x12, 0xe4, 0x59, 0x3e,
  0xda, 0xde, 0x91, 0x3e, 0x5d, 0xb2, 0xbe, 0x3d, 0xbd, 0x37, 0x14, 0xbe,
  0xab, 0x2a, 0xdc, 0xbd, 0x40, 0xb0, 0xa0, 0x3d, 0x33, 0xd5, 0x5f, 0x3e,
  0x07, 0x7a, 0x11, 0x3e, 0x14, 0x1b, 0xb0, 0xbd, 0x01, 0x72, 0x48, 0xbd,
  0xd8, 0x82, 0xdc, 0xbd, 0x4c, 0x59, 0x89, 0xbe, 0x50, 0x49, 0x42, 0xbd,
  0x5b, 0xd4, 0x76, 0x3e, 0xfc, 0x2c, 0x9e, 0xbe, 0x24, 0x6d, 0x46, 0xbe,
  0x2e, 0x86, 0xe0, 0x3d, 0xd6, 0x82, 0x37, 0x3d, 0x93, 0x9c, 0x80, 0x3e,
  0x96, 0x51, 0x1f, 0xbd, 0xf4, 0x79, 0x00, 0xbe, 0xa3, 0x53, 0x31, 0xbe,
  0x04, 0x71, 0x40, 0x3e, 0x30, 0xd8, 0xe0, 0xbc, 0xce, 0x76, 0xce, 0xbd,
  0xa7, 0x8d, 0x17, 0xbe, 0x38, 0x3e, 0x78, 0xbd, 0xa0, 0x7e, 0x0d, 0x3e,
  0x8a, 0x4a, 0x5a, 0x3e, 0x90, 0xdb, 0x5d, 0x3c, 0xcf, 0x2c, 0x07, 0xbe,
  0x7a, 0x04, 0x2e, 0x3e, 0x31, 0xc8, 0x07, 0xbe, 0xb8, 0x4c, 0x44, 0x3d,
  0x13, 0x89, 0x5a, 0xbe, 0x60, 0xf6, 0x6c, 0xbd, 0xab, 0xae, 0x1e, 0xbe,
  0x3c, 0x35, 0x56, 0xbe, 0xaa, 0xe2, 0x1a, 0x3e, 0x30, 0x59, 0x1f, 0xbc,
  0xd2, 0x54, 0x31, 0xbe, 0xd6, 0x72, 0x1c, 0x3e, 0x38, 0x6c, 0xb4, 0x3d,
  0xa4, 0x06, 0x86, 0xbd, 0xfc, 0x5c, 0x6e, 0x3e, 0xf2, 0x5b, 0xc5, 0xbd,
  0xc6, 0xdf, 0x25, 0x3e, 0x8d, 0xf8, 0x30, 0xbe, 0x3c, 0x46, 0x3c, 0xbd,
  0xac, 0x25, 0x5f, 0x3e, 0x80, 0x75, 0xb3, 0xbd, 0xf0, 0x00, 0xad, 0x3c,
  0xcf, 0x90, 0x63, 0xbe, 0xb0, 0x90, 0x1e, 0xbd, 0x50, 0xeb, 0xe6, 0x3d,
  0xe8, 0x04, 0x32, 0x3d, 0x00, 0x3f, 0x7e, 0xbc, 0x46, 0x99, 0x96, 0xbd,
  0x23, 0xad, 0x44, 0xbe, 0x24, 0xfa, 0x9d, 0x3d, 0x18, 0xde, 0x4c, 0xbe,
  0xc8, 0x33, 0xd4, 0xbc, 0xd0, 0x12, 0x60, 0x3c, 0xa0, 0xc1, 0xae, 0x3c,
  0x2b, 0x3b, 0x3a, 0xbe, 0x42, 0x8f, 0xf1, 0xbd, 0x92, 0x68, 0x4b, 0x3e,
  0x8e, 0xd0, 0x5e, 0x3e, 0xac, 0xee, 0x00, 0xbe, 0x42, 0xc8, 0x45, 0xbe,
  0x32, 0x3e, 0x2b, 0xbe, 0xa8, 0xf9, 0x03, 0x3d, 0x8c, 0xd0, 0xc4, 0xbd,
  0x7c, 0x01, 0x1f, 0xbd, 0x4a, 0x67, 0x26, 0xbe, 0x6c, 0x14, 0x24, 0x3e,
  0x20, 0xc0, 0x56, 0x3e, 0x30, 0x41, 0x6c, 0x3d, 0x88, 0xbf, 0x51, 0x3d,
  0x14, 0x46, 0x4f, 0x3e, 0x38, 0x36, 0xf8, 0xbc, 0x7e, 0x49, 0x8e, 0xbd,
  0x37, 0x8c, 0x04, 0xbe, 0x74, 0x0c, 0xb4, 0x3d, 0xec, 0x84, 0xe6, 0x3d,
  0xb4, 0x0d, 0x01, 0xbd, 0xd8, 0xb3, 0x87, 0xbd, 0x06, 0x53, 0x54, 0xbe,
  0x78, 0xb5, 0xd5, 0xbc, 0xe0, 0x51, 0x0a, 0xbc, 0x28, 0x3c, 0x23, 0xbe,
  0xe6, 0x34, 0xf7, 0xbd, 0x7a, 0x5d, 0xa9, 0xbd, 0x68, 0x38, 0x6d, 0xbd,
  0x20, 0x4e, 0xf2, 0xbd, 0xa7, 0x98, 0xf9, 0xbd, 0xac, 0xf4, 0xa3, 0x3d,
  0x8e, 0x65, 0x10, 0x3e, 0x46, 0x40, 0x23, 0x3e, 0xa3, 0xa6, 0xf9, 0xbd,
  0x9c, 0x60, 0x62, 0x3e, 0x6e, 0x38, 0x58, 0xbe, 0x6a, 0x98, 0x39, 0xbe,
  0xec, 0xf6, 0x32, 0xbd, 0xd2, 0xfe, 0x50, 0x3e, 0x9c, 0x68, 0x5f, 0xbe,
  0xe0, 0x58, 0x68, 0x3c, 0x68, 0x9d, 0x05, 0x3e, 0x30, 0xd1, 0x2c, 0x3e,
  0x7a, 0x95, 0x1e, 0xbe, 0x74, 0xee, 0x55, 0xbe, 0x43, 0x9b, 0x36, 0xbe,
  0x54, 0xad, 0x11, 0xbd, 0x28, 0x1d, 0xb6, 0x3d, 0xf8, 0x78, 0x0f, 0x3e,
  0xe6, 0xd3, 0x2c, 0x3e, 0x10, 0x50, 0x8b, 0x3c, 0x90, 0x19, 0xd9, 0x3d,
  0xbc, 0x48, 0xe6, 0x3d, 0x26, 0xcf, 0x1f, 0xbe, 0x90, 0x1c, 0x14, 0x3d,
  0xf8, 0x67, 0x10, 0x3e, 0x0c, 0x8a, 0xc9, 0xbd, 0x20, 0x9f, 0x6e, 0x3e,
  0xd8, 0x94, 0x03, 0xbe, 0x23, 0x75, 0x06, 0xbe, 0x51, 0x39, 0x5e, 0xbe,
  0x20, 0x48, 0x7f, 0xbc, 0xec, 0x86, 0x21, 0xbe, 0xe0, 0x00, 0xfb, 0x3c,
  0x4e, 0x59, 0x50, 0x3e, 0x98, 0x3c, 0x22, 0xbe, 0x9e, 0x65, 0x32, 0xbe,
  0x32, 0x48, 0x29, 0x3e, 0x84, 0x5c, 0xa5, 0xbd, 0x80, 0x5c, 0x4b, 0xbd,
  0x6e, 0x29, 0x1a, 0xbe, 0x36, 0x0a, 0x0b, 0x3e, 0xf6, 0x2d, 0x2c, 0xbe,
  0xaa, 0x54, 0x45, 0xbe, 0xce, 0xac, 0x11, 0x3f, 0x26, 0x10, 0x1a, 0xbe,
  0x23, 0x81, 0xa6, 0xbe, 0xfe, 0x0c, 0xbc, 0x3e, 0x20, 0x1a, 0x7e, 0xbc,
  0xca, 0x26, 0xd6, 0xbd, 0xe5, 0x5d, 0xaf, 0x3e, 0xf9, 0x2c, 0x17, 0xbe,
  0x6a, 0x12, 0xa4, 0xbe, 0x73, 0xec, 0x24, 0x3e, 0x54, 0xbe, 0x61, 0xbe,
  0x93, 0xb8, 0x8b, 0xbe, 0x5f, 0x32, 0x8a, 0x3e, 0x66, 0x87, 0x27, 0xbe,
  0x9f, 0x9e, 0xd9, 0xbe, 0x79, 0x0b, 0x12, 0x3f, 0x47, 0xd0, 0xc9, 0x3d,
  0x59, 0xe5, 0xdd, 0xbe, 0x08, 0xcd, 0xbf, 0x3e, 0x46, 0xd2, 0x42, 0x3d,
  0x58, 0x07, 0x01, 0xbe, 0x6c, 0x06, 0x6f, 0x3e, 0x21, 0x2f, 0xe2, 0x3c,
  0xc6, 0xcf, 0xaa, 0xbe, 0x19, 0x3a, 0xbe, 0x3e, 0xb0, 0x86, 0xba, 0x3d,
  0x8c, 0x0d, 0xa8, 0xbe, 0x08, 0x1d, 0xed, 0x3e, 0x46, 0x19, 0x5d, 0xbe,
  0x27, 0x5d, 0xac, 0xbe, 0xdb, 0x22, 0xb7, 0x3e, 0x2d, 0x7c, 0x5a, 0x3e,
  0x2c, 0x45, 0x07, 0xbe, 0x40, 0xc7, 0x90, 0x3e, 0x12, 0x8f, 0x32, 0xbe,
  0x23, 0x24, 0xab, 0x3d, 0xc1, 0x66, 0xdd, 0x3e, 0xd9, 0x52, 0x3c, 0x3e,
  0x27, 0xee, 0xf4, 0xbd, 0x2c, 0xc2, 0x86, 0x3e, 0x5d, 0xdc, 0x2f, 0x3d,
  0x87, 0x14, 0x8d, 0xbe, 0xb8, 0x01, 0x08, 0x3f, 0xe2, 0x73, 0xa5, 0x3c,
  0x61, 0x7f, 0x19, 0xbe, 0x60, 0xbb, 0xbf, 0x3e, 0x3d, 0x9b, 0x9e, 0x3d,
  0x5d, 0xbc, 0x4d, 0xbe, 0x09, 0x09, 0xfc, 0x3e, 0xff, 0xe7, 0x70, 0xbd,
  0xac, 0x05, 0x7c, 0xbe, 0xe7, 0x87, 0x07, 0x3f, 0x6a, 0x16, 0x0a, 0x3c,
  0x2d, 0x2b, 0xe8, 0xbc, 0xf5, 0xc4, 0x13, 0x3f, 0xaa, 0xc1, 0x63, 0x3e,
  0x97, 0x6a, 0xa6, 0xbe, 0x0a, 0x46, 0xf8, 0x3e, 0x4c, 0x95, 0x6b, 0x3e,
  0x7c, 0x89, 0x25, 0xbd, 0x27, 0xb6, 0x58, 0xbe, 0x27, 0x18, 0xb7, 0x3a,
  0x1c, 0xee, 0x5f, 0xbd, 0xce, 0xda, 0x1d, 0xbe, 0xbc, 0x23, 0x48, 0x3e,
  0xc7, 0x52, 0x66, 0xbe, 0xa9, 0x8e, 0x39, 0xbe, 0x4b, 0xc6, 0xed, 0x3d,
  0xc0, 0xde, 0x42, 0xbe, 0xa8, 0xbc, 0x31, 0xbe, 0x92, 0xd1, 0x4e, 0xbe,
  0x30, 0x75, 0x4a, 0xbe, 0x9b, 0xd3, 0xb3, 0x3d, 0x83, 0xc8, 0x43, 0xbd,
  0x11, 0x6e, 0x59, 0xbe, 0xc0, 0xe5, 0x26, 0xbe, 0x34, 0x0a, 0x4b, 0x3e,
  0x1e, 0xda, 0x0b, 0xbe, 0x94, 0x9f, 0x51, 0xbe, 0x0b, 0xb6, 0x53, 0x3d,
  0xc7, 0x91, 0x5d, 0x3d, 0x75, 0xa1, 0xc7, 0xbd, 0xe9, 0xe0, 0x93, 0x3c,
  0x15, 0xda, 0x06, 0x3e, 0x4c, 0x43, 0xd0, 0xbd, 0x2e, 0x24, 0x4a, 0x3e,
  0xe1, 0x5b, 0x46, 0xbe, 0x1c, 0x99, 0xb8, 0xbd, 0x54, 0xad, 0xf9, 0x3d,
  0x5b, 0x67, 0x06, 0x3e, 0x46, 0xdf, 0x38, 0xbe, 0x5a, 0x7d, 0x3b, 0x3e,
  0x97, 0x4f, 0x59, 0xbd, 0x25, 0x55, 0x53, 0x3e, 0xff, 0xae, 0x5c, 0xbe,
  0xc2, 0x36, 0xd8, 0x3c, 0x09, 0x8a, 0x01, 0xbe, 0x8f, 0xe4, 0x21, 0x3e,
  0xa7, 0xbf, 0xf7, 0xbb, 0x94, 0xb7, 0xa1, 0xbd, 0x85, 0xf3, 0xc7, 0xbd,
  0xb0, 0x9b, 0xb4, 0x3d, 0x53, 0xe6, 0xa0, 0x3d, 0x65, 0x89, 0x8d, 0x3d,
  0x74, 0x38, 0x04, 0xbe, 0xcd, 0x33, 0x8f, 0xbd, 0xc2, 0x1f, 0x99, 0x3d,
  0x25, 0x2f, 0x2a, 0xbe, 0x94, 0x00, 0x5e, 0xbe, 0x83, 0x90, 0x5a, 0x3d,
  0x17, 0x9e, 0x00, 0x3e, 0xf3, 0xee, 0xab, 0xbd, 0x9d, 0xc7, 0x8b, 0xbc,
  0x15, 0xbe, 0x91, 0x3d, 0x49, 0xd1, 0x2c, 0x3e, 0xae, 0x49, 0x14, 0x3e,
  0x6e, 0xc9, 0x27, 0x3e, 0x44, 0xda, 0x5b, 0xbe, 0x0a, 0x8d, 0x4f, 0xbe,
  0x46, 0xf6, 0x45, 0x3d, 0xdc, 0x29, 0xbc, 0x3d, 0x7c, 0xab, 0x2f, 0xbe,
  0xdd, 0x0a, 0xf8, 0xbd, 0xbb, 0x56, 0x89, 0x3e, 0xd7, 0xa2, 0xa8, 0xbe,
  0x08, 0xc7, 0x25, 0x3e, 0x20, 0x3f, 0x16, 0x3e, 0x00, 0xe6, 0xb5, 0x3c,
  0xf9, 0xe7, 0x04, 0x3e, 0x92, 0x4b, 0x8b, 0x3d, 0x55, 0xd7, 0x8f, 0xbc,
  0x51, 0x33, 0x1c, 0xbe, 0xd8, 0x52, 0x8c, 0x3e, 0xa3, 0x56, 0x9c, 0xbe,
  0x60, 0x5d, 0x3c, 0x3d, 0xbb, 0x3b, 0xe1, 0x3e, 0xc6, 0xc8, 0x68, 0xbe,
  0xfb, 0xec, 0xae, 0x3d, 0x28, 0x62, 0xb9, 0x3e, 0x64, 0x77, 0x38, 0xbd,
  0x2b, 0xce, 0xae, 0x3d, 0x74, 0x2f, 0xe1, 0x3e, 0x53, 0xa3, 0xa3, 0xbe,
  0x66, 0x10, 0xc0, 0xbd, 0xf2, 0xdb, 0x64, 0x3e, 0x0b, 0x87, 0xcd, 0x3d,
  0x05, 0xa7, 0x11, 0x3e, 0x5a, 0xc9, 0xd6, 0x3e, 0xd0, 0x03, 0xb4, 0xbc,
  0x01, 0x7a, 0xfa, 0x39, 0x2c, 0x62, 0xa7, 0x3e, 0xff, 0x41, 0x68, 0xbd,
  0x61, 0x95, 0x53, 0xbc, 0x13, 0x84, 0xe6, 0x3e, 0xce, 0x1f, 0xbe, 0x3d,
  0xf1, 0x11, 0xd6, 0x3c, 0xdc, 0xb0, 0x10, 0x3e, 0x8f, 0xd7, 0x8a, 0xbe,
  0xdd, 0x50, 0xdb, 0xbd, 0x7d, 0x2c, 0x0a, 0x3e, 0xb2, 0x5a, 0xf0, 0xbd,
  0x39, 0xfa, 0x38, 0x3e, 0x1e, 0x59, 0x1a, 0x3e, 0xbc, 0x9f, 0x01, 0xbe,
  0xf2, 0xdf, 0x09, 0xbd, 0x40, 0xb2, 0xa3, 0x3e, 0x1f, 0xf5, 0x98, 0x3b,
  0x20, 0x08, 0x4a, 0xbe, 0x5c, 0x2c, 0x5d, 0x3e, 0xf8, 0x10, 0x92, 0xbd,
  0x85, 0xbc, 0x9a, 0xbe, 0x97, 0x7a, 0x96, 0x3e, 0x17, 0x75, 0xdc, 0xbd,
  0xb8, 0x42, 0x96, 0xbe, 0xbb, 0x4e, 0xf3, 0x3e, 0x0b, 0xae, 0x37, 0xbd,
  0xb5, 0x64, 0x1b, 0xbe, 0xd2, 0x3a, 0xcb, 0x3e, 0x81, 0xad, 0x6c, 0xbe,
  0xcb, 0xf1, 0x9a, 0xbe, 0xe4, 0x1c, 0x87, 0xbd, 0x8f, 0xad, 0x65, 0xbe,
  0xe6, 0x05, 0x8f, 0x3d, 0x98, 0x66, 0x27, 0xbe, 0xb5, 0x51, 0x77, 0xbe,
  0x2d, 0x8e, 0x7c, 0xbe, 0x52, 0x55, 0xb4, 0xbc, 0x84, 0x4a, 0x32, 0xbe,
  0x2f, 0xcc, 0x0d, 0x3e, 0xeb, 0x5b, 0x4a, 0xbd, 0x84, 0x8d, 0x67, 0x3c,
  0x92, 0xaa, 0x3f, 0xbe, 0x78, 0xb4, 0x26, 0x3e, 0xe3, 0x67, 0xa2, 0x3d,
  0x36, 0xd6, 0x34, 0x3e, 0x9f, 0x5f, 0x2b, 0xbe, 0x6b, 0x09, 0x69, 0xbd,
  0x0f, 0x74, 0x8a, 0xbd, 0xea, 0xb2, 0xef, 0x3d, 0x79, 0xa0, 0xce, 0x3d,
  0x44, 0x19, 0xac, 0x3d, 0x62, 0x3d, 0x42, 0xbd, 0x05, 0xbc, 0x8d, 0xbd,
  0x98, 0xda, 0x39, 0xbe, 0x38, 0x9f, 0x5e, 0xbe, 0x7b, 0xda, 0x96, 0x3d,
  0x1b, 0x30, 0x95, 0x3d, 0x68, 0x01, 0x43, 0xbe, 0x79, 0x25, 0xfe, 0x3d,
  0xef, 0xd2, 0x5a, 0xbb, 0xdc, 0x62, 0x4e, 0x3e, 0x3c, 0x90, 0xff, 0xbc,
  0x76, 0xf5, 0x8e, 0x3c, 0x34, 0x19, 0xd0, 0x3c, 0x19, 0x77, 0x51, 0x3e,
  0x86, 0x0b, 0x1b, 0x3e, 0x42, 0xd4, 0x76, 0xbe, 0xd4, 0x2c, 0xdb, 0x3d,
  0xef, 0x57, 0x37, 0x3b, 0x35, 0xed, 0x3e, 0x3e, 0x77, 0x15, 0x2a, 0xbe,
  0x46, 0x29, 0x31, 0x3e, 0x49, 0xdf, 0x39, 0x3d, 0x6f, 0x64, 0x8f, 0x3d,
  0x61, 0x43, 0x9a, 0xbd, 0x7c, 0x46, 0xc1, 0x3d, 0x8d, 0x05, 0x2c, 0x3e,
  0xa8, 0x27, 0x72, 0xbe, 0xff, 0xfe, 0x6f, 0xbd, 0x98, 0xef, 0x2d, 0xbe,
  0xc8, 0x96, 0xa5, 0xbd, 0xfa, 0xf8, 0x18, 0xbe, 0xd6, 0x48, 0xc9, 0x3d,
  0x1b, 0xf1, 0xe3, 0x3d, 0xcb, 0x9f, 0x09, 0x3d, 0x20, 0x67, 0x59, 0xbd,
  0xf0, 0x0c, 0xaa, 0x3d, 0x0b, 0xed, 0x1b, 0x3e, 0x3d, 0x0c, 0x2b, 0xbe,
  0x45, 0x55, 0x0c, 0xbe, 0xac, 0x3a, 0xa9, 0x3d, 0x22, 0x71, 0x92, 0xbd,
  0x44, 0x8a, 0x20, 0x3e, 0xff, 0xea, 0x4e, 0xbe, 0xc2, 0xa5, 0x39, 0x3e,
  0x6e, 0xb1, 0x12, 0x3e, 0xca, 0xc9, 0x23, 0xbe, 0xd6, 0x8d, 0xd5, 0xbd,
  0x56, 0x70, 0x52, 0x3e, 0x38, 0x87, 0xbe, 0x3d, 0xcc, 0x09, 0x1b, 0xbe,
  0x5a, 0xcd, 0xf5, 0xbd, 0x8a, 0xa5, 0x32, 0xbe, 0x96, 0x75, 0x35, 0xbe,
  0x90, 0x58, 0xeb, 0x3c, 0xac, 0x61, 0x32, 0xbd, 0x10, 0xa0, 0x53, 0x3d,
  0x70, 0xc6, 0x01, 0x3d, 0x25, 0xaa, 0x47, 0xbe, 0x68, 0xd9, 0xe2, 0x3d,
  0x2c, 0xc4, 0xc8, 0x3d, 0xb5, 0x54, 0x24, 0xbe, 0xa1, 0xaf, 0x28, 0xbe,
  0x06, 0xe6, 0x3d, 0xbe, 0x2a, 0x2c, 0x30, 0x3e, 0x60, 0x4a, 0x02, 0x3c,
  0x98, 0xd3, 0x36, 0xbd, 0x68, 0xe9, 0x13, 0xbd, 0x9c, 0xa5, 0x67, 0xbe,
  0x76, 0x59, 0x63, 0x3e, 0xfc, 0xe7, 0x03, 0x3e, 0xf8, 0x5b, 0x5f, 0x3d,
  0x30, 0xec, 0xdc, 0x3c, 0xa4, 0xd6, 0x84, 0xbd, 0xd8, 0x09, 0x8e, 0xbd,
  0x7f, 0xbc, 0x13, 0xbe, 0xc0, 0x1a, 0x0e, 0x3e, 0xf6, 0xfb, 0x6b, 0xbe,
  0x90, 0x4f, 0x7a, 0x3d, 0x0a, 0x63, 0x4a, 0xbe, 0xb4, 0x2a, 0x18, 0xbe,
  0x18, 0xcd, 0x10, 0xbe, 0x0c, 0xc5, 0xba, 0xbd, 0xbc, 0x88, 0x64, 0x3e,
  0xf6, 0xa3, 0x0d, 0x3e, 0xf7, 0x6b, 0x3f, 0xbe, 0x76, 0x77, 0x04, 0x3e,
  0x23, 0x06, 0xe9, 0xbd, 0xcd, 0x0f, 0xe6, 0xbd, 0x7e, 0x99, 0xbf, 0xbd,
  0x70, 0xa9, 0xa2, 0xbc, 0x55, 0x69, 0x4a, 0xbe, 0xbc, 0xa6, 0x10, 0x3e,
  0xc2, 0x1f, 0xa9, 0xbd, 0x20, 0xc4, 0xab, 0xbd, 0xf0, 0x5f, 0x37, 0xbe,
  0xb0, 0xc5, 0xf5, 0x3c, 0x38, 0x11, 0xb6, 0xbd, 0x40, 0xf0, 0x46, 0x3d,
  0x1c, 0xb5, 0xcb, 0x3d, 0x34, 0x4a, 0x2e, 0xbd, 0x5b, 0xed, 0x33, 0xbe,
  0xb9, 0x70, 0x14, 0xbe, 0x84, 0x76, 0xc8, 0x3d, 0xce, 0x33, 0x56, 0x3e,
  0x34, 0xdf, 0x07, 0xbd, 0x78, 0x83, 0x82, 0xbd, 0x20, 0x0b, 0x62, 0x3d,
  0x79, 0x28, 0x59, 0xbe, 0x44, 0x66, 0x1f, 0xbd, 0xf8, 0x41, 0x1c, 0x3e,
  0xc0, 0x6d, 0x31, 0x3e, 0x18, 0x11, 0x4e, 0xbd, 0x0a, 0xcf, 0x5c, 0x3e,
  0x72, 0x41, 0x17, 0x3e, 0x2f, 0x9f, 0x41, 0xbe, 0xb6, 0x6f, 0x51, 0xbe,
  0xfa, 0x30, 0xc4, 0xbd, 0x38, 0x80, 0x6d, 0x3d, 0xc0, 0x17, 0xc4, 0xbd,
  0xf4, 0x22, 0x69, 0x3e, 0x96, 0xc8, 0x5d, 0xbe, 0x24, 0x13, 0x54, 0xbd,
  0x5a, 0x04, 0xa1, 0xbd, 0x2b, 0xc6, 0x4c, 0xbe, 0x3e, 0x8e, 0x03, 0x3e,
  0x4c, 0x2a, 0x34, 0x3e, 0x48, 0x8f, 0x3a, 0xbd, 0x9c, 0xab, 0x64, 0xbe,
  0x30, 0xc4, 0x17, 0xbe, 0x68, 0xe5, 0x84, 0xbc, 0x48, 0xb1, 0x61, 0x3d,
  0x1a, 0xa7, 0x37, 0x3e, 0xc4, 0xc6, 0x4b, 0x3e, 0xe1, 0x47, 0x68, 0xbe,
  0xd0, 0x2a, 0xef, 0x3c, 0x7a, 0x9c, 0x4f, 0x3e, 0x38, 0xc1, 0x53, 0xbe,
  0x15, 0xe7, 0x27, 0xbe, 0xb7, 0xb6, 0x64, 0xbe, 0xae, 0xf4, 0x93, 0xbd,
  0x4c, 0xad, 0x9e, 0x3d, 0x52, 0x55, 0xc5, 0xbd, 0xc4, 0x7e, 0xd8, 0x3d,
  0x09, 0x08, 0xe0, 0xbd, 0x99, 0xaf, 0x2d, 0xbe, 0x62, 0x11, 0x22, 0x3e,
  0x2a, 0x1d, 0x26, 0xbe, 0x90, 0x18, 0x82, 0xbd, 0xd0, 0x9e, 0xe9, 0x3c,
  0x50, 0x99, 0x22, 0xbc, 0xa2, 0xea, 0x19, 0xbe, 0xd0, 0x91, 0x42, 0xbc,
  0x24, 0x57, 0x6a, 0xbd, 0x10, 0x9f, 0x61, 0x3d, 0xe2, 0xc1, 0xd9, 0xbd,
  0xe6, 0x00, 0x3d, 0xbe, 0xd0, 0x25, 0x09, 0xbd, 0xd0, 0x5f, 0x04, 0x3d,
  0x80, 0x35, 0xcd, 0x3d, 0xeb, 0xa8, 0xe2, 0x3e, 0x97, 0x3c, 0x16, 0xbe,
  0x12, 0xfe, 0x88, 0xbd, 0x30, 0x31, 0xbb, 0x3e, 0x82, 0x81, 0x64, 0x3d,
  0xe7, 0xc0, 0x1a, 0x3e, 0x1b, 0xf6, 0xe9, 0x3e, 0x43, 0x2b, 0x39, 0x3b,
  0xfd, 0x1c, 0x64, 0xbd, 0x30, 0x88, 0xb6, 0x3e, 0xa0, 0x13, 0xbc, 0x3d,
  0x6f, 0x62, 0x1b, 0x3e, 0xf2, 0x21, 0x60, 0x3e, 0x7f, 0x10, 0x41, 0xbe,
  0x00, 0x17, 0xb9, 0x3d, 0x04, 0x66, 0xfe, 0x3c, 0xfd, 0x33, 0x89, 0xbd,
  0x67, 0xfb, 0x1f, 0x3e, 0xab, 0xbc, 0xe1, 0x3e, 0xb2, 0x97, 0x5f, 0x3e,
  0x96, 0x7a, 0x5e, 0x3c, 0x46, 0x28, 0x82, 0x3e, 0x1f, 0xb1, 0x99, 0xbc,
  0xf2, 0x41, 0xda, 0xbc, 0x91, 0xfc, 0xb5, 0x3e, 0x44, 0x1a, 0x0a, 0xbe,
  0x31, 0x07, 0x2e, 0xbd, 0x3f, 0xd5, 0xf2, 0x3d, 0x6c, 0xe0, 0x0d, 0xbd,
  0xed, 0x8f, 0x94, 0xbd, 0x93, 0x3b, 0x13, 0xbe, 0xbd, 0x8c, 0xac, 0x3d,
  0xdf, 0x55, 0xd7, 0x3d, 0x27, 0x6e, 0x00, 0xbd, 0x3c, 0x09, 0xa3, 0xbd,
  0xb9, 0x66, 0x26, 0xbe, 0x14, 0xdd, 0xe0, 0x3c, 0x18, 0x0a, 0x30, 0x3e,
  0x76, 0xf9, 0x94, 0xbe, 0xc7, 0x0d, 0xd7, 0x3d, 0x89, 0xb5, 0x59, 0x3d,
  0x06, 0xfd, 0xa4, 0xbd, 0xc6, 0x7d, 0xcc, 0x3d, 0x73, 0xc2, 0x0e, 0x3e,
  0xa7, 0x00, 0x45, 0xbe, 0x5d, 0xf4, 0x66, 0x3e, 0xed, 0xb7, 0x28, 0xbe,
  0xd7, 0xc9, 0x02, 0x3e, 0x38, 0xfc, 0x5c, 0xbd, 0x6f, 0x99, 0xeb, 0xbc,
  0xc4, 0xd5, 0xdb, 0xbd, 0x9f, 0x6e, 0xcd, 0x3d, 0xda, 0x61, 0xd1, 0x3d,
  0x4b, 0x63, 0x69, 0xbe, 0x0a, 0xfc, 0x93, 0xbd, 0xa6, 0xb0, 0x58, 0x3e,
  0x59, 0x3a, 0x8e, 0xbe, 0xd9, 0xe7, 0x20, 0x3e, 0x89, 0x1c, 0x70, 0x3e,
  0xb1, 0x91, 0x30, 0x3d, 0x72, 0xed, 0x5c, 0x3e, 0x65, 0x18, 0xbb, 0x3e,
  0x6a, 0xdd, 0x24, 0xbd, 0xa0, 0xea, 0x53, 0xbd, 0x69, 0x82, 0x74, 0x3d,
  0xf0, 0x2a, 0xeb, 0x3d, 0xfa, 0x4b, 0xff, 0x3d, 0xe6, 0x1d, 0x8b, 0x3e,
  0x43, 0x3e, 0xa4, 0xbc, 0x58, 0xf6, 0x01, 0x3c, 0x82, 0x5a, 0xe3, 0x3c,
  0xbd, 0xf6, 0x40, 0x3c, 0xb8, 0xb2, 0xc6, 0x3e, 0xf9, 0x0c, 0xb1, 0x3d,
  0x67, 0xb3, 0x39, 0x3e, 0x8a, 0x35, 0x7d, 0x3e, 0x7b, 0xf4, 0x2b, 0x3e,
  0x9d, 0x5f, 0x46, 0x3e, 0x9c, 0xbe, 0x08, 0x3e, 0x0c, 0x25, 0x91, 0x3e,
  0x15, 0x34, 0x88, 0x3e, 0xdf, 0x8d, 0x99, 0x3e, 0xaf, 0x39, 0x9e, 0x3e,
  0x73, 0x0a, 0x90, 0x3e, 0x03, 0xd1, 0x0a, 0x3e, 0x0b, 0xa3, 0xb1, 0x3d,
  0x0e, 0x13, 0xb4, 0x3d, 0x74, 0x25, 0x97, 0x3e, 0x95, 0xd4, 0xcd, 0x3e,
  0x13, 0xe1, 0x15, 0x3e, 0x3c, 0x66, 0xa8, 0x3e, 0x48, 0x0f, 0x66, 0x3e,
  0x38, 0x7f, 0xdb, 0x3d, 0x88, 0x29, 0x1f, 0xbc, 0x1d, 0x82, 0x4f, 0xbd,
  0xe3, 0xb5, 0x09, 0xbe, 0xd6, 0xa3, 0x6d, 0x3e, 0xe9, 0x49, 0x0a, 0x3e,
  0xa3, 0x4f, 0x5d, 0xbd, 0x93, 0x77, 0xb1, 0xbc, 0xe6, 0x66, 0xac, 0xbb,
  0x22, 0xee, 0xba, 0xbd, 0xbc, 0x20, 0xba, 0x3e, 0x51, 0x6c, 0xec, 0x3c,
  0x25, 0xb3, 0xa0, 0xbd, 0x6c, 0xb5, 0x2a, 0x3d, 0xd4, 0x33, 0x46, 0x3d,
  0xf5, 0xdf, 0xbe, 0x3d, 0x34, 0xa4, 0x03, 0x3d, 0xf7, 0xfc, 0x3c, 0x3e,
  0x27, 0x32, 0x80, 0xbe, 0x04, 0xca, 0xa1, 0x3e, 0x13, 0x95, 0x14, 0x3e,
  0x90, 0x66, 0xfd, 0x3d, 0xa6, 0x84, 0x88, 0x3c, 0x4c, 0xfb, 0xb9, 0x3c,
  0x71, 0xa8, 0x0e, 0x3e, 0xb7, 0xe2, 0xa8, 0x3d, 0x4d, 0x97, 0x00, 0x3e,
  0x30, 0xc8, 0x34, 0xbe, 0xbd, 0x13, 0x8f, 0x3e, 0x79, 0xdc, 0xdc, 0x3c,
  0xad, 0x68, 0x06, 0x3e, 0x4c, 0x41, 0xae, 0x3e, 0x18, 0xab, 0x1b, 0x3e,
  0x99, 0x5a, 0x12, 0x3b, 0x8c, 0xbc, 0xaf, 0x3e, 0x2f, 0x78, 0xf3, 0x3c,
  0xba, 0xcd, 0x54, 0xbd, 0x0d, 0x02, 0x52, 0x3e, 0x02, 0x36, 0x98, 0xbc,
  0x3e, 0x5d, 0x03, 0xbd, 0x1b, 0xf2, 0xf3, 0x3e, 0x20, 0x92, 0x0d, 0xbe,
  0xee, 0x53, 0xd4, 0x3d, 0x98, 0xba, 0xd9, 0x3e, 0xbc, 0x52, 0xf4, 0x3d,
  0xf3, 0xdf, 0xfb, 0x3d, 0xe9, 0x6f, 0xaa, 0x3e, 0x9f, 0xbb, 0x58, 0xbe,
  0x6c, 0x57, 0x52, 0xbe, 0x7e, 0x37, 0xb2, 0x3e, 0x93, 0x49, 0x1f, 0x3e,
  0x13, 0x01, 0x1a, 0xbe, 0xb3, 0x28, 0xf5, 0x3e, 0x00, 0x10, 0x22, 0xbd,
  0xf5, 0x10, 0xb7, 0x3d, 0xa7, 0x4f, 0xf5, 0xbc, 0xab, 0x03, 0x90, 0xbe,
  0x85, 0xc1, 0x7a, 0xbe, 0x0f, 0x80, 0x13, 0x3e, 0x5f, 0xa9, 0xe1, 0x3c,
  0xb8, 0xf5, 0x00, 0xbe, 0x8b, 0x9f, 0x0f, 0x3e, 0xab, 0x29, 0x9b, 0xbd,
  0xdd, 0x4f, 0x5d, 0xbe, 0xbb, 0x27, 0x2c, 0x3e, 0xe9, 0xd9, 0xc1, 0x3d,
  0x5e, 0x47, 0x47, 0xbe, 0x9c, 0x73, 0x47, 0xbe, 0xbd, 0x17, 0x6f, 0xbe,
  0x9a, 0x59, 0xb9, 0xbd, 0xe0, 0xdd, 0xd6, 0xbd, 0x02, 0x1f, 0x34, 0x3c,
  0xa6, 0x7b, 0xdb, 0xbd, 0x37, 0xa2, 0xca, 0x3d, 0x42, 0xae, 0x3a, 0x3d,
  0x04, 0x19, 0x35, 0x3e, 0x42, 0xac, 0xa6, 0x3d, 0x20, 0x72, 0x15, 0xbe,
  0xbd, 0xce, 0x53, 0xbe, 0x1b, 0x4a, 0x1d, 0xbe, 0x0e, 0x73, 0xbb, 0xbd,
  0x55, 0x73, 0x80, 0xbc, 0x17, 0xe6, 0x75, 0x3c, 0x64, 0x8c, 0x37, 0xbe,
  0xdb, 0x67, 0xe6, 0x3d, 0x4b, 0xac, 0xb1, 0x3d, 0x03, 0x40, 0x51, 0xbe,
  0x93, 0xee, 0x2d, 0x3e, 0x0f, 0x11, 0x86, 0x3e, 0x1a, 0x2d, 0x1f, 0xbe,
  0x7f, 0xb5, 0x09, 0x3d, 0x24, 0xba, 0x3a, 0x3e, 0x7e, 0x09, 0xb7, 0xbe,
  0x10, 0x2e, 0x74, 0x3e, 0xa8, 0xf0, 0x9f, 0x3d, 0x45, 0x50, 0x35, 0xbe,
  0x1b, 0x26, 0xc3, 0xbc, 0x6d, 0x1a, 0x35, 0x3d, 0x70, 0x9c, 0xd9, 0xbc,
  0xf2, 0xf3, 0xa1, 0x3e, 0x38, 0xf9, 0xb4, 0x3e, 0xe2, 0x95, 0x85, 0xbe,
  0xab, 0xb8, 0x6d, 0x3d, 0xeb, 0xc2, 0xae, 0x3e, 0xff, 0x2d, 0x98, 0xbd,
  0x51, 0x94, 0x9c, 0xbb, 0xfd, 0x35, 0x8c, 0x3e, 0x84, 0x76, 0x2c, 0xbe,
  0x79, 0x05, 0x9e, 0xbd, 0x4f, 0x53, 0x3a, 0x3e, 0xa9, 0x7f, 0x6f, 0xbe,
  0xce, 0xc4, 0x94, 0x3e, 0x33, 0x4d, 0x32, 0xbd, 0x83, 0xf6, 0x1c, 0xbe,
  0xbe, 0x00, 0x33, 0xbc, 0xa8, 0x99, 0xc4, 0x3b, 0xab, 0xf4, 0xbb, 0xbd,
  0xfd, 0x55, 0xb2, 0xbb, 0x4c, 0x60, 0x40, 0x3c, 0xc3, 0x47, 0xac, 0x3c,
  0x7d, 0xd2, 0x2a, 0x3e, 0xc2, 0x74, 0x82, 0x3e, 0x1e, 0xa6, 0x1d, 0xbe,
  0x7c, 0xfb, 0x0d, 0x3d, 0x64, 0x7d, 0x52, 0x3d, 0x6b, 0x9f, 0xa9, 0xbe,
  0x5d, 0xca, 0x0b, 0x3b, 0xb9, 0xbc, 0xee, 0x39, 0x82, 0x4f, 0x55, 0xbe,
  0xc3, 0x1b, 0x08, 0x3e, 0x46, 0x11, 0x33, 0x3d, 0x88, 0x0b, 0x8e, 0xbe,
  0x80, 0xcd, 0x18, 0x3e, 0x7e, 0xe5, 0x38, 0xbe, 0x83, 0xd7, 0xe3, 0xbc,
  0x73, 0x41, 0x36, 0xbd, 0x7e, 0x51, 0x3e, 0x3e, 0x67, 0x77, 0x70, 0xbe,
  0x37, 0x75, 0x19, 0x3e, 0x43, 0xbc, 0xa7, 0x3d, 0x05, 0x71, 0xad, 0xbd,
  0xf8, 0xfd, 0x81, 0x3e, 0x94, 0x6a, 0xc2, 0xbd, 0x66, 0x08, 0x84, 0xbe,
  0x1f, 0x12, 0x2f, 0x3e, 0xdf, 0x03, 0x8c, 0x3d, 0xe1, 0xb8, 0x19, 0x3c,
  0x1f, 0x43, 0x1a, 0x3d, 0xb1, 0xac, 0x41, 0x3e, 0x01, 0x81, 0xa8, 0x3e,
  0x45, 0x33, 0x32, 0x3f, 0x6c, 0x38, 0x06, 0x3e, 0xa6, 0x1e, 0x10, 0x3e,
  0xe6, 0xd1, 0xc4, 0x3e, 0xaa, 0x80, 0x06, 0xbe, 0xa5, 0xbf, 0x5d, 0x3e,
  0x8f, 0xa5, 0x47, 0x3f, 0x38, 0x27, 0x1b, 0x3e, 0x8c, 0x06, 0x93, 0x3e,
  0x24, 0xcb, 0x0b, 0x3f, 0x7e, 0x87, 0xbd, 0xbd, 0x3b, 0x14, 0x8e, 0x3e,
  0xcb, 0xcd, 0x3e, 0x3f, 0x1f, 0x04, 0x27, 0x3d, 0xa1, 0x87, 0x0e, 0x3e,
  0x3f, 0xb5, 0xd6, 0x3e, 0x2b, 0x56, 0x4f, 0xbe, 0x9a, 0x51, 0x0f, 0x3e,
  0xa1, 0x85, 0x13, 0x3f, 0x5d, 0x24, 0x76, 0xbe, 0x0b, 0x0e, 0xb3, 0x3d,
  0x95, 0xab, 0xd6, 0x3e, 0xb3, 0x0f, 0x68, 0x3c, 0x85, 0x97, 0xa5, 0x3e,
  0xf1, 0x7b, 0x37, 0x3f, 0x11, 0x6f, 0x86, 0x3c, 0x9f, 0x2c, 0xaf, 0x3d,
  0x19, 0x8f, 0xf9, 0x3e, 0xb0, 0x7e, 0x18, 0x3e, 0x25, 0x4d, 0x7f, 0xbd,
  0x49, 0x73, 0xaa, 0x3e, 0x2b, 0x3a, 0x91, 0x3e, 0x92, 0x3a, 0x7d, 0x3d,
  0xee, 0x9c, 0x37, 0x3d, 0xd3, 0x76, 0x2b, 0x3e, 0x2b, 0x2e, 0x13, 0x3e,
  0x5a, 0x97, 0x70, 0x3e, 0x17, 0x9e, 0x83, 0x3d, 0x1d, 0xb8, 0x93, 0xbd,
  0x8e, 0x1b, 0x05, 0x3e, 0x5a, 0x5a, 0xad, 0x3d, 0x4f, 0xd2, 0xac, 0x3e,
  0x13, 0xd4, 0xac, 0x3e, 0xf5, 0x9d, 0x04, 0xbe, 0x58, 0x73, 0x02, 0xbd,
  0x19, 0xcd, 0x6e, 0x3e, 0xf2, 0x22, 0xf2, 0x3d, 0xf0, 0x9a, 0x88, 0x3e,
  0xd9, 0x11, 0x88, 0x3e, 0x97, 0xad, 0x61, 0x3d, 0x14, 0xfc, 0x39, 0x3e,
  0x95, 0x6e, 0xab, 0x3d, 0x45, 0x3c, 0x3e, 0xbe, 0x0f, 0xdb, 0xa3, 0x3d,
  0x6d, 0xab, 0x33, 0x3d, 0xd7, 0xe8, 0xfe, 0x3d, 0xb9, 0x5f, 0xcb, 0x3d,
  0x20, 0xf6, 0xcd, 0x3d, 0xf8, 0xa4, 0x1d, 0x3f, 0xbd, 0xbd, 0xdc, 0x3d,
  0x57, 0x4a, 0x8c, 0xbe, 0xf9, 0x3e, 0x8b, 0x3e, 0x3d, 0xad, 0x91, 0x3d,
  0x93, 0xad, 0x2d, 0x3d, 0xd3, 0xcf, 0xcd, 0x3e, 0xd4, 0xf0, 0xd0, 0x3d,
  0x2d, 0xc0, 0xd8, 0xbd, 0x13, 0xd3, 0xf6, 0x3e, 0x3d, 0x24, 0xd9, 0x3d,
  0xf4, 0x68, 0x13, 0x3d, 0x34, 0x7e, 0x14, 0x3f, 0xdd, 0xb2, 0xd3, 0x3d,
  0xbb, 0x47, 0x1b, 0xbe, 0x30, 0x79, 0x36, 0x3e, 0xcd, 0x79, 0xcb, 0x3b,
  0xb5, 0x76, 0x92, 0xbd, 0x2e, 0x95, 0xe7, 0x3e, 0xae, 0xc0, 0x77, 0x3e,
  0xca, 0x79, 0x0b, 0xbe, 0x8a, 0x15, 0xba, 0x3e, 0xb9, 0x1c, 0x43, 0xbe,
  0x96, 0xbf, 0x39, 0xbe, 0x35, 0x33, 0x17, 0x3f, 0x29, 0x92, 0x5b, 0x3e,
  0xa7, 0x63, 0xca, 0x3c, 0x1f, 0x26, 0xaa, 0x3e, 0x99, 0x60, 0x93, 0xbc,
  0x27, 0x89, 0x28, 0xbe, 0x5b, 0xa8, 0x93, 0x3e, 0x10, 0x09, 0xc5, 0xbd,
  0x3b, 0xa6, 0x88, 0xbe, 0x70, 0xd5, 0xa8, 0x3d, 0x59, 0xa6, 0x02, 0xbe,
  0x21, 0x82, 0x2b, 0xbd, 0x93, 0x4f, 0x81, 0x3e, 0xb9, 0x38, 0x57, 0x3e,
  0x87, 0xe2, 0xd4, 0xbd, 0xee, 0x08, 0xc8, 0x3c, 0x85, 0xe7, 0x5e, 0x3e,
  0x63, 0x30, 0xb9, 0xbe, 0xb5, 0xaa, 0xa1, 0xbd, 0xf2, 0x83, 0x24, 0x3e,
  0x3c, 0xd1, 0x3f, 0xbe, 0x35, 0x37, 0xb2, 0x3e, 0x44, 0x0c, 0x35, 0xbe,
  0xd9, 0xaf, 0x83, 0xbe, 0xe0, 0x40, 0xad, 0x3e, 0x77, 0x38, 0xe8, 0x3d,
  0x9d, 0x5a, 0xf4, 0x3c, 0x0b, 0x40, 0xb7, 0x3d, 0xe1, 0x34, 0xf7, 0xbd,
  0x27, 0x11, 0x56, 0xbc, 0xd5, 0xfb, 0x97, 0x3e, 0xf1, 0xda, 0x89, 0x3e,
  0xd0, 0xf4, 0x5c, 0xbe, 0xd8, 0xd6, 0x95, 0x3e, 0x85, 0xa7, 0x81, 0x3e,
  0xa0, 0x7a, 0xaa, 0xbe, 0x7f, 0xb8, 0x3e, 0xbe, 0x60, 0xb4, 0xb7, 0xbc,
  0xda, 0xc5, 0x41, 0xbe, 0x64, 0xe2, 0xb2, 0x3d, 0xea, 0xa1, 0x34, 0x3e,
  0x54, 0x3b, 0xe4, 0xbd, 0xec, 0xf7, 0x56, 0x3e, 0x7c, 0x48, 0x23, 0xbd,
  0xd0, 0xa7, 0x97, 0x3c, 0x58, 0x20, 0x2c, 0xbe, 0xe4, 0x7a, 0xc7, 0xbd,
  0xe0, 0x00, 0xb4, 0xbc, 0xdb, 0x32, 0x4c, 0xbe, 0x70, 0xb6, 0xc5, 0x3c,
  0x30, 0xf7, 0xe2, 0xbc, 0x18, 0xd0, 0x2a, 0xbd, 0x82, 0x3e, 0x22, 0xbe,
  0xa0, 0x47, 0xb8, 0xbb, 0xec, 0x4d, 0xec, 0xbd, 0x20, 0xdf, 0x7b, 0x3c,
  0xd8, 0x34, 0x7f, 0xbd, 0x08, 0xd7, 0x09, 0x3d, 0x8e, 0x0d, 0x32, 0x3e,
  0xce, 0x8c, 0xf4, 0xbd, 0x97, 0xb9, 0x6a, 0xbe, 0x10, 0x11, 0x80, 0x3d,
  0xd6, 0xac, 0x04, 0x3e, 0x14, 0xed, 0xae, 0x3d, 0x34, 0xf0, 0xbb, 0x3d,
  0xd0, 0xd3, 0xd3, 0xbd, 0xd8, 0x2a, 0x23, 0x3d, 0xbd, 0x74, 0x38, 0xbe,
  0x4c, 0x31, 0xbf, 0xbd, 0x40, 0x96, 0xbc, 0xbd, 0x48, 0x97, 0xa6, 0x3d,
  0x3d, 0x7c, 0x6d, 0xbe, 0x98, 0xd1, 0x30, 0x3d, 0x88, 0x4a, 0x11, 0x3d,
  0x00, 0x78, 0x04, 0xbd, 0xe0, 0x9f, 0x53, 0xbd, 0x00, 0x2b, 0xac, 0x3c,
  0x30, 0x22, 0x3f, 0x3d, 0x90, 0xe0, 0x39, 0x3c, 0x40, 0x5d, 0xcb, 0xbc,
  0xc2, 0xcc, 0x6c, 0x3e, 0x84, 0xde, 0x47, 0x3e, 0x3c, 0x6e, 0x1e, 0xbd,
  0x80, 0x6a, 0x5d, 0x3b, 0xac, 0x5c, 0x16, 0xbd, 0xe4, 0x4c, 0x35, 0x3e,
  0xc2, 0xe2, 0xe1, 0xbd, 0xba, 0xb6, 0x6c, 0xbe, 0x70, 0x45, 0x52, 0xbe,
  0x5a, 0x98, 0x16, 0xbe, 0xe9, 0x92, 0xe8, 0xbd, 0x48, 0x64, 0xfa, 0xbc,
  0x4b, 0x3b, 0x24, 0xbe, 0xd0, 0xc9, 0x7d, 0xbc, 0x96, 0x04, 0x1f, 0x3e,
  0x7a, 0xc1, 0x29, 0x3e, 0x40, 0x67, 0x67, 0xbe, 0x60, 0xc4, 0xc4, 0xbd,
  0x2a, 0xfd, 0x06, 0x3e, 0xa8, 0x84, 0x52, 0x3e, 0x08, 0xf1, 0x89, 0x3d,
  0x28, 0xa5, 0x44, 0x3d, 0x0e, 0x91, 0x11, 0x3e, 0xea, 0xb7, 0x2f, 0x3e,
  0xd5, 0x0b, 0x0f, 0xbe, 0xb0, 0xf5, 0x35, 0x3c, 0x6c, 0x4c, 0x15, 0xbe,
  0xd0, 0xf9, 0xfc, 0x3c, 0x68, 0x99, 0x39, 0x3d, 0x08, 0x08, 0x28, 0x3e,
  0x0a, 0x08, 0x5d, 0x3e, 0x80, 0xc4, 0x84, 0x3c, 0x95, 0x38, 0x67, 0xbe,
  0xe6, 0xb5, 0x13, 0xbe, 0xa8, 0x4a, 0x88, 0xbd, 0x50, 0xd9, 0x96, 0x3c,
  0x8c, 0x3d, 0xe1, 0xbd, 0xa4, 0x86, 0x4c, 0xbe, 0x02, 0x41, 0x3e, 0xbe,
  0x70, 0x35, 0xfa, 0x3c, 0x60, 0x58, 0x29, 0x3d, 0xc8, 0x1c, 0xab, 0xbd,
  0x1c, 0x05, 0x93, 0x3d, 0xe8, 0xb1, 0x84, 0x3c, 0x08, 0xa0, 0x3e, 0x3d,
  0x9a, 0x47, 0xc6, 0xbd, 0x2a, 0x2a, 0x83, 0xbd, 0x7c, 0x3c, 0xb8, 0xbd,
  0x58, 0x51, 0xb4, 0xbc, 0xf3, 0x3d, 0x26, 0xbe, 0x50, 0x1a, 0x85, 0x3c,
  0xc4, 0x63, 0x4c, 0xbd, 0x98, 0xd3, 0x02, 0x3e, 0x00, 0x40, 0xfc, 0x3c,
  0x5a, 0x14, 0xa5, 0xbd, 0x04, 0x68, 0x4e, 0xbe, 0x80, 0x36, 0x51, 0x3d,
  0x46, 0x78, 0x5f, 0xbe, 0x1a, 0x86, 0x00, 0x3e, 0x28, 0x87, 0x42, 0xbe,
  0x78, 0x30, 0x8e, 0xbc, 0x0a, 0x44, 0x50, 0x3e, 0x80, 0x71, 0x8a, 0xba,
  0x28, 0x92, 0x85, 0x3d, 0x60, 0x9e, 0x1d, 0x3d, 0x0a, 0x8f, 0x11, 0xbe,
  0x03, 0x51, 0x51, 0xbe, 0xfe, 0x2d, 0x0a, 0xbe, 0xd0, 0x62, 0x25, 0x3d,
  0x28, 0x1f, 0x21, 0x3d, 0x08, 0xf9, 0xda, 0xbd, 0x7c, 0x8c, 0x97, 0x3d,
  0x9c, 0x9a, 0x4f, 0xbe, 0x90, 0x37, 0x43, 0x3e, 0xb4, 0x76, 0xe7, 0x3d,
  0x34, 0x8a, 0xa5, 0x3d, 0x01, 0x61, 0xc5, 0x3e, 0xb6, 0x09, 0x3d, 0xbe,
  0x7a, 0xe0, 0x97, 0xbd, 0x42, 0x1b, 0x0d, 0x3f, 0xb2, 0xd6, 0x32, 0xbe,
  0xed, 0x10, 0x1e, 0xbe, 0x96, 0x51, 0xda, 0x3e, 0xe1, 0x3d, 0xda, 0x3d,
  0xcd, 0xfd, 0x91, 0xbc, 0x21, 0xfd, 0x82, 0x3e, 0x32, 0x86, 0x9f, 0x3d,
  0xe8, 0xb6, 0xd3, 0x3d, 0x64, 0xf8, 0xde, 0x3e, 0x03, 0xb1, 0x69, 0xbe,
  0x9c, 0x00, 0xfc, 0xbd, 0xf3, 0xa2, 0xa9, 0x3e, 0x91, 0xe1, 0x5f, 0x3d,
  0x1b, 0x4e, 0xb1, 0x3d, 0xd0, 0x1f, 0xb6, 0x3e, 0xce, 0x53, 0xc4, 0xbd,
  0xae, 0x6a, 0x3f, 0x3d, 0x5c, 0x0b, 0xcc, 0x3d, 0xdc, 0xa0, 0x84, 0x3d,
  0xe3, 0x7e, 0xec, 0xbd, 0x07, 0xa4, 0xf1, 0x3e, 0x8a, 0x47, 0xb3, 0xbd,
  0x69, 0x93, 0x68, 0x3e, 0x2c, 0xa8, 0xa0, 0x3e, 0x15, 0xe4, 0x17, 0x3e,
  0x1e, 0x8a, 0x0f, 0x3e, 0x19, 0xbe, 0xca, 0xbd, 0x3a, 0x28, 0x7a, 0xbd,
  0x5c, 0xd8, 0x05, 0x3e, 0xe3, 0x24, 0x0a, 0x3e, 0xd5, 0x5d, 0x19, 0x3e,
  0x50, 0x7f, 0x3b, 0x3e, 0x57, 0x0f, 0x82, 0x3e, 0x57, 0x64, 0x9e, 0x3d,
  0x86, 0x9f, 0x83, 0xbd, 0x61, 0x16, 0x79, 0x3e, 0x40, 0x9f, 0x3b, 0xbe,
  0xe6, 0xf8, 0x84, 0xbe, 0xfa, 0x3e, 0x17, 0xbe, 0xc7, 0x24, 0x11, 0x3e,
  0xf4, 0x3e, 0xd2, 0x3c, 0x11, 0x41, 0x8c, 0x3b, 0xd0, 0x87, 0xb7, 0xbd,
  0x32, 0xd3, 0x9b, 0xbd, 0x6e, 0x87, 0x06, 0xbe, 0xd5, 0xcd, 0x25, 0xbe,
  0x61, 0x13, 0x0b, 0x3e, 0x73, 0xbd, 0x35, 0x3d, 0x48, 0xef, 0xa8, 0xbd,
  0x26, 0x4c, 0x14, 0x3e, 0xde, 0x6f, 0x52, 0xbc, 0xc2, 0xb3, 0xa7, 0x3d,
  0x6f, 0x22, 0x96, 0x3c, 0xcb, 0xbf, 0x9e, 0xbd, 0xf4, 0x63, 0x65, 0xbe,
  0x10, 0xb0, 0x27, 0xbe, 0x20, 0x5b, 0xfa, 0xbb, 0xa0, 0x87, 0xb6, 0x3b,
  0x50, 0xb5, 0x19, 0xbe, 0xac, 0xa4, 0xc7, 0x3d, 0x10, 0x0c, 0x92, 0x3c,
  0x68, 0xc1, 0xf9, 0x3d, 0xbe, 0x20, 0xc7, 0xbd, 0xff, 0xa3, 0x51, 0xbe,
  0xdc, 0x2f, 0xdf, 0x3d, 0x77, 0x73, 0x42, 0xbe, 0x49, 0x84, 0xe1, 0xbd,
  0xc8, 0x1a, 0x93, 0x3d, 0x38, 0x26, 0xab, 0x3d, 0xf8, 0x67, 0xea, 0x3d,
  0x0c, 0x44, 0x32, 0xbe, 0x80, 0x90, 0x48, 0x3b, 0x2e, 0x45, 0x3d, 0xbe,
  0x0e, 0xc5, 0x32, 0xbe, 0x28, 0xd0, 0x0e, 0x3e, 0x26, 0x7b, 0x5a, 0xbe,
  0x36, 0x79, 0x09, 0x3e, 0xd0, 0x4b, 0x01, 0x3c, 0x00, 0x9f, 0x7d, 0xba,
  0x10, 0xdb, 0x13, 0xbe, 0xdb, 0x64, 0x14, 0xbe, 0x00, 0x46, 0xd7, 0x39,
  0x48, 0x00, 0x34, 0xbd, 0xc8, 0x96, 0x11, 0x3d, 0xf0, 0x76, 0xb0, 0xbc,
  0x00, 0x30, 0x18, 0x3d, 0xa4, 0xae, 0x75, 0xbd, 0xe8, 0x99, 0x0e, 0x3d,
  0xe4, 0xde, 0xaf, 0x3d, 0xc0, 0x79, 0x17, 0xbb, 0x62, 0xeb, 0x17, 0x3e,
  0x8e, 0x20, 0x3a, 0x3e, 0x48, 0xd2, 0x1d, 0x3d, 0x44, 0x34, 0x67, 0xbd,
  0xf0, 0x69, 0x64, 0x3e, 0x70, 0xc3, 0x1f, 0x3c, 0xc4, 0x96, 0x65, 0xbd,
  0x2e, 0xe7, 0x15, 0x3e, 0x85, 0x3d, 0x0f, 0xbe, 0x0c, 0x4d, 0x70, 0xbd,
  0x1f, 0x96, 0xe3, 0xbd, 0xa0, 0x97, 0x06, 0x3e, 0x84, 0x06, 0x94, 0xbd,
  0x04, 0x91, 0x38, 0xbe, 0x6c, 0x9b, 0x5b, 0x3e, 0x7a, 0xbd, 0x05, 0xbe,
  0x96, 0xb1, 0x02, 0x3e, 0x03, 0xf7, 0xe9, 0xbd, 0xbc, 0xe1, 0x87, 0x3d,
  0x72, 0x4d, 0xbc, 0xbd, 0x38, 0x2d, 0x4f, 0x3e, 0x3c, 0x80, 0x2b, 0xbe,
  0x70, 0xa5, 0xde, 0x3c, 0xfa, 0xd8, 0x3c, 0xbe, 0xda, 0x02, 0x46, 0xbe,
  0x7c, 0x48, 0x04, 0xbe, 0xa8, 0xf9, 0xa8, 0x3c, 0x18, 0xa4, 0xbd, 0xbd,
  0x09, 0xe3, 0x59, 0x3e, 0xb5, 0xc4, 0x0d, 0x3e, 0xf1, 0xbb, 0x0d, 0x3d,
  0x1b, 0xeb, 0xa9, 0x3d, 0xef, 0xeb, 0x57, 0xbd, 0xec, 0x1c, 0x52, 0xbe,
  0x47, 0xa0, 0x05, 0xbe, 0x84, 0xc1, 0x5b, 0xbe, 0x48, 0x9b, 0x22, 0xbe,
  0xc5, 0xc1, 0x61, 0x3d, 0x25, 0xa2, 0x6b, 0xbe, 0x73, 0x4d, 0x37, 0xbd,
  0x38, 0x8e, 0x90, 0xbc, 0xe7, 0x62, 0x25, 0x3e, 0xef, 0xa5, 0x26, 0x3e,
  0x2d, 0x30, 0x03, 0xbd, 0x59, 0x83, 0xad, 0x3c, 0xfb, 0x20, 0xfb, 0x3c,
  0xc3, 0xda, 0xc5, 0xbc, 0x96, 0x26, 0xae, 0xbd, 0xa0, 0xe4, 0x40, 0xbd,
  0xed, 0x75, 0x30, 0x3e, 0x14, 0x83, 0x03, 0xbe, 0x5a, 0x80, 0x50, 0xbd,
  0x93, 0x17, 0x0e, 0x3e, 0xd8, 0x40, 0x3f, 0xbd, 0x43, 0x76, 0xcd, 0x3d,
  0xdd, 0x32, 0x0e, 0x3e, 0xbb, 0x1e, 0xe4, 0xbd, 0xd9, 0x7c, 0x83, 0xbd,
  0x0a, 0x65, 0x17, 0xbe, 0x6e, 0x56, 0x39, 0xbe, 0x5d, 0xc9, 0x57, 0x3d,
  0xd2, 0x99, 0x66, 0xbe, 0xac, 0xc1, 0xa3, 0x3c, 0xcd, 0xe7, 0x28, 0x3e,
  0x7d, 0x77, 0x21, 0x3e, 0x78, 0xb9, 0xe8, 0xbd, 0x5d, 0x18, 0x06, 0x3e,
  0xa7, 0x28, 0x3e, 0x3e, 0xdc, 0xbe, 0x60, 0xbe, 0x1a, 0xdc, 0x8b, 0xbd,
  0x4d, 0x14, 0x0a, 0xbe, 0x15, 0x4a, 0x90, 0x3d, 0xb3, 0x95, 0x1e, 0xbe,
  0x51, 0x0e, 0x56, 0xbe, 0xee, 0xeb, 0x0d, 0xbe, 0x3f, 0x60, 0xe6, 0xbd,
  0x3e, 0x54, 0x6f, 0x3d, 0xc6, 0x1d, 0x88, 0x3d, 0x3e, 0x23, 0xa2, 0xbd,
  0x4e, 0x2c, 0x49, 0x3d, 0x18, 0xd0, 0xf2, 0xbd, 0xff, 0x1f, 0x24, 0x3e,
  0x2b, 0x33, 0x3c, 0xbd, 0xc3, 0x71, 0xdd, 0xbc, 0x95, 0x29, 0xe5, 0x3d,
  0x2f, 0xd6, 0xdc, 0xbd, 0xb0, 0xf8, 0x9b, 0x3c, 0x50, 0x65, 0x0a, 0xbd,
  0x34, 0x45, 0x53, 0xbd, 0x54, 0x5d, 0x33, 0xbe, 0x4c, 0xbb, 0x15, 0xbe,
  0x00, 0x9a, 0x5e, 0x3d, 0x90, 0xaf, 0x0d, 0xbe, 0x2d, 0xf9, 0xe5, 0xbd,
  0xb0, 0xb5, 0x07, 0x3d, 0x00, 0xcf, 0xcb, 0x3a, 0xf0, 0x71, 0x34, 0xbe,
  0xb0, 0xa6, 0x58, 0xbc, 0xec, 0x5d, 0x21, 0xbd, 0x73, 0xd4, 0xe1, 0xbd,
  0x34, 0x4f, 0xfa, 0x3d, 0xee, 0xa5, 0x3d, 0xbe, 0x7a, 0xaa, 0x29, 0xbe,
  0x5c, 0xbb, 0x31, 0xbe, 0xfa, 0x82, 0x2d, 0x3e, 0x20, 0x30, 0xe6, 0x3d,
  0x7c, 0x11, 0xa7, 0x3d, 0xf7, 0x36, 0x10, 0xbe, 0xf0, 0x7e, 0x79, 0x3d,
  0xa4, 0xd5, 0x24, 0xbe, 0x19, 0x95, 0x42, 0xbe, 0x78, 0x4a, 0xcb, 0xbc,
  0xa0, 0xd4, 0x32, 0xbc, 0xae, 0x1c, 0x2f, 0x3e, 0x8c, 0xff, 0xe3, 0x3d,
  0x54, 0xd1, 0xe2, 0xbd, 0x24, 0x80, 0x34, 0xbe, 0x50, 0x3c, 0xa0, 0x3c,
  0xa0, 0x22, 0x0c, 0x3c, 0xe0, 0x27, 0x38, 0x3d, 0x6a, 0xfb, 0x53, 0xbe,
  0x62, 0xc9, 0x93, 0xbd, 0xc4, 0xb9, 0x46, 0x3e, 0x18, 0xe7, 0xc2, 0x3d,
  0x5e, 0x3f, 0x22, 0x3e, 0x7e, 0x9b, 0x0c, 0xbe, 0x40, 0xf9, 0x16, 0x3e,
  0x2f, 0x67, 0x29, 0xbe, 0xa8, 0xea, 0xd4, 0xbc, 0x38, 0x32, 0xe2, 0x3d,
  0x10, 0x4b, 0x11, 0xbe, 0xc2, 0x25, 0x31, 0x3e, 0xd5, 0x6d, 0x42, 0xbe,
  0x48, 0x4a, 0x2a, 0x3e, 0xce, 0x9f, 0x32, 0x3e, 0x50, 0x19, 0x22, 0xbe,
  0x58, 0xd9, 0x5b, 0x3e, 0x64, 0x38, 0x05, 0xbd, 0xf8, 0x2d, 0x84, 0x3c,
  0xe0, 0xb7, 0x04, 0x3d, 0xb8, 0xf8, 0xee, 0xbc, 0xe0, 0x3f, 0xb1, 0xbb,
  0x6c, 0x49, 0x27, 0xbe, 0xa0, 0x43, 0x81, 0x3d, 0xd8, 0xd9, 0x00, 0xbe,
  0x03, 0xc7, 0x2c, 0xbe, 0x74, 0x47, 0x84, 0x3d, 0x04, 0x6d, 0x0f, 0x3e,
  0xd8, 0x3b, 0xf5, 0x3d, 0x80, 0x42, 0xbb, 0x3d, 0xf5, 0x91, 0x46, 0xbe,
  0x60, 0x45, 0x10, 0xbd, 0x18, 0x29, 0xea, 0xbc, 0xfa, 0x49, 0x5b, 0x3e,
  0xe0, 0xca, 0xf9, 0xbb, 0xac, 0x6f, 0xdd, 0x3d, 0xfc, 0x6c, 0xf0, 0xbd,
  0x9a, 0x7d, 0x39, 0xbe, 0xd2, 0x68, 0x2d, 0xbe, 0x0a, 0xdd, 0xce, 0xbd,
  0x60, 0x59, 0x7f, 0x3c, 0x52, 0xc8, 0xb6, 0xbd, 0x90, 0x5d, 0x29, 0xbe,
  0x0e, 0x32, 0x45, 0xbe, 0xe6, 0x37, 0x40, 0xbe, 0xe0, 0x66, 0xb6, 0xbc,
  0xf0, 0xa5, 0x72, 0x3c, 0x2e, 0x2d, 0x42, 0xbe, 0xf9, 0xa0, 0xff, 0xbd,
  0x7c, 0xe5, 0x62, 0x3e, 0x32, 0xb0, 0x27, 0x3e, 0x6d, 0x0e, 0xef, 0xbd,
  0xb7, 0xa4, 0xee, 0xbd, 0x06, 0xdb, 0x8c, 0xbd, 0x8a, 0x2b, 0x61, 0x3e,
  0x24, 0xd6, 0x1b, 0x3e, 0x60, 0x18, 0x2a, 0xbc, 0x9c, 0x70, 0xf4, 0x3d,
  0xa2, 0x18, 0xb4, 0xbd, 0x0a, 0xa6, 0xc7, 0xbd, 0x3c, 0x13, 0x5c, 0xbe,
  0x7c, 0x54, 0xb4, 0xbd, 0x26, 0xb4, 0x15, 0xbe, 0x94, 0x53, 0x9c, 0x3d,
  0x00, 0x27, 0x5d, 0x3d, 0x1e, 0x82, 0x9d, 0xbd, 0x88, 0xd6, 0x22, 0x3d,
  0x00, 0x1c, 0x94, 0x3d, 0x2c, 0x8c, 0xd2, 0xbd, 0x00, 0x16, 0x46, 0xbd,
  0x06, 0xb1, 0x36, 0xbe, 0xa0, 0x40, 0x17, 0xbe, 0xd6, 0x6b, 0xb1, 0xbd,
  0x34, 0xfc, 0x2b, 0x3e, 0x94, 0x54, 0x2b, 0xbd, 0xa2, 0xd0, 0x1f, 0xbe,
  0x62, 0xd8, 0x51, 0xbe, 0x20, 0xf8, 0x2a, 0xbc, 0xfe, 0x8b, 0x09, 0x3e,
  0x82, 0x6a, 0x56, 0x3e, 0x80, 0x6a, 0x90, 0x3d, 0x30, 0xc1, 0x0f, 0xbd,
  0x28, 0x12, 0x40, 0x3d, 0x80, 0xb8, 0x05, 0x3d, 0x76, 0x93, 0x45, 0xbe,
  0x84, 0x6c, 0x42, 0x3e, 0xbf, 0x9d, 0xa1, 0x3e, 0x8c, 0x35, 0x94, 0xbc,
  0xa1, 0x93, 0xc9, 0x3d, 0xcf, 0x5c, 0xf1, 0x3e, 0x15, 0x8b, 0x2e, 0x3e,
  0x12, 0x63, 0x42, 0xbe, 0x10, 0x05, 0x96, 0x3e, 0x1b, 0x10, 0x42, 0xbe,
  0x9f, 0x68, 0x2a, 0xbe, 0x17, 0x0f, 0xf0, 0x3e, 0x00, 0x2e, 0xa3, 0xbd,
  0xe4, 0x19, 0xab, 0xbd, 0x1e, 0xa3, 0xd5, 0x3e, 0x72, 0xc1, 0x85, 0xbe,
  0x5c, 0xbb, 0x10, 0xbe, 0x61, 0xad, 0xf1, 0x3e, 0x4a, 0x79, 0x04, 0x3e,
  0xcb, 0x6e, 0x2f, 0xbe, 0xae, 0xe3, 0x93, 0x3e, 0x77, 0xde, 0x32, 0xbc,
  0x8c, 0xcb, 0xfb, 0xbd, 0x52, 0x68, 0xe7, 0x3e, 0x9f, 0x2f, 0x95, 0x3d,
  0x08, 0xc8, 0xd3, 0x3b, 0xc9, 0xac, 0xb5, 0x3e, 0x51, 0x15, 0x12, 0xbe,
  0x8e, 0xfe, 0xe4, 0xbd, 0x1c, 0x89, 0xa6, 0x3e, 0x56, 0x02, 0x6c, 0xbe,
  0xe4, 0x88, 0x43, 0x3e, 0xef, 0x4e, 0x9a, 0x3c, 0x6e, 0x04, 0x09, 0x3e,
  0x71, 0xcc, 0xa4, 0xbc, 0xe2, 0xc8, 0x4e, 0xbd, 0xa2, 0x31, 0xb1, 0xbd,
  0x63, 0x9e, 0x32, 0x3c, 0x09, 0xdb, 0x7c, 0x3e, 0x0e, 0x80, 0xc5, 0xbd,
  0x10, 0x87, 0xbd, 0x3d, 0x5f, 0xc5, 0x92, 0xbd, 0x0a, 0x24, 0x1b, 0x3e,
  0x51, 0xbd, 0x80, 0x3d, 0x40, 0x3d, 0xaa, 0xbd, 0x40, 0x11, 0xbb, 0x3c,
  0x16, 0x58, 0x27, 0xbe, 0xa5, 0xc5, 0x9f, 0x3e, 0xb8, 0x0d, 0x95, 0xbd,
  0x1d, 0x88, 0x11, 0xbe, 0x93, 0xe7, 0x88, 0x3e, 0xdb, 0x86, 0x69, 0xbe,
  0x75, 0x0e, 0x3b, 0xbe, 0x74, 0xb2, 0x30, 0x3e, 0x45, 0x2c, 0x7c, 0x3d,
  0xa6, 0x29, 0x53, 0x3e, 0x90, 0x50, 0xfe, 0x3c, 0x56, 0x4c, 0x31, 0x3e,
  0x5a, 0x44, 0xcc, 0x3c, 0x4b, 0xdf, 0x20, 0x3e, 0xfa, 0x1f, 0x5d, 0x3e,
  0xe3, 0x52, 0xcb, 0x3d, 0x20, 0xc6, 0x4b, 0x3d, 0xff, 0x82, 0x41, 0xbe,
  0x38, 0xa1, 0x93, 0x3d, 0xf0, 0x3a, 0x0d, 0x3d, 0x66, 0x5a, 0x4a, 0xbe,
  0x28, 0x4e, 0xf4, 0x3d, 0xd6, 0xf1, 0x3c, 0x3e, 0x3c, 0x79, 0x3d, 0xbd,
  0x94, 0xd6, 0x19, 0xbe, 0xc0, 0xb3, 0xf1, 0xbb, 0xc4, 0xfb, 0xad, 0xbd,
  0xb0, 0xac, 0xbe, 0xbc, 0x08, 0x3a, 0x38, 0xbe, 0x28, 0xcd, 0x53, 0x3e,
  0x70, 0xdb, 0x49, 0x3d, 0xfa, 0xf4, 0x55, 0xbe, 0xb8, 0xd5, 0x29, 0x3d,
  0xa5, 0x20, 0x3d, 0xbe, 0xf6, 0x80, 0xd8, 0xbd, 0xd6, 0x43, 0xcc, 0xbd,
  0x14, 0x74, 0xda, 0x3d, 0x00, 0x04, 0x4d, 0xbe, 0x96, 0x79, 0x5c, 0xbe,
  0xc0, 0x71, 0x2d, 0x3d, 0x9a, 0x99, 0x59, 0x3e, 0x58, 0x24, 0xec, 0xbc,
  0x08, 0xde, 0x29, 0xbe, 0x7e, 0x29, 0x69, 0x3e, 0x3d, 0x0d, 0x57, 0xbe,
  0x24, 0x6f, 0x1b, 0x3e, 0x50, 0xb4, 0x2d, 0x3c, 0x2c, 0x21, 0xdd, 0x3d,
  0x20, 0xf1, 0xd7, 0x3d, 0xa0, 0x26, 0x6c, 0x3d, 0xd8, 0xcf, 0x0f, 0xbd,
  0x28, 0x18, 0x30, 0xbe, 0xf0, 0xe3, 0x8e, 0x3c, 0xfa, 0x69, 0xf0, 0xbd,
  0x3d, 0x20, 0x34, 0xbe, 0xde, 0xb0, 0x56, 0xbe, 0x22, 0xde, 0x56, 0xbe,
  0x6c, 0xfd, 0x13, 0xbe, 0x40, 0xb3, 0x22, 0x3b, 0xac, 0x7b, 0x12, 0x3e,
  0xb0, 0xe7, 0x2e, 0x3c, 0x96, 0x65, 0x48, 0x3e, 0x8c, 0x3b, 0x44, 0xbd,
  0xcf, 0x4f, 0x3c, 0xbe, 0xc0, 0x97, 0xad, 0x3d, 0x70, 0x2d, 0x9d, 0x3c,
  0x54, 0x92, 0x02, 0xbd, 0x40, 0x8e, 0xb9, 0x3c, 0x00, 0x4f, 0x54, 0x3e,
  0xe4, 0x44, 0x04, 0x3e, 0x2d, 0x91, 0x33, 0xbe, 0x30, 0x91, 0x13, 0xbe,
  0x30, 0x16, 0x9a, 0x3d, 0xab, 0xd8, 0x62, 0xbe, 0x04, 0x9c, 0xa8, 0x3d,
  0x08, 0x37, 0x27, 0x3e, 0xb6, 0x83, 0xb3, 0xbd, 0x06, 0xce, 0x53, 0xbe,
  0x63, 0xf9, 0x5d, 0xbe, 0x41, 0xaa, 0xe5, 0xbc, 0xe6, 0x22, 0x53, 0x3d,
  0x0a, 0x16, 0x77, 0xbe, 0x14, 0x95, 0xb4, 0x3c, 0x9c, 0xc1, 0xfe, 0xbd,
  0xee, 0x27, 0xe0, 0x3d, 0x1c, 0xcd, 0x8b, 0x3c, 0xd3, 0x14, 0x70, 0xbe,
  0xb2, 0xb6, 0x5f, 0xbc, 0x42, 0x12, 0x40, 0x3e, 0xc7, 0x4a, 0x43, 0x3e,
  0xad, 0x84, 0x17, 0xbe, 0xb9, 0x63, 0xa3, 0x3d, 0x99, 0x5e, 0x53, 0xbe,
  0xcb, 0xca, 0xe7, 0x3d, 0x8f, 0x4d, 0x5a, 0xbe, 0x8c, 0x62, 0x66, 0x3c,
  0x67, 0xad, 0x01, 0xbd, 0x0d, 0x3b, 0x1a, 0xbe, 0x5a, 0xc8, 0x97, 0xbd,
  0xa1, 0x0e, 0x04, 0xbd, 0x21, 0x7d, 0x56, 0xbe, 0x6d, 0x86, 0x19, 0x3d,
  0xe3, 0xe2, 0xe6, 0x3d, 0x03, 0x03, 0x29, 0x3e, 0x3b, 0xd4, 0x0a, 0x3e,
  0xfe, 0xa7, 0x2a, 0x3e, 0xe6, 0xd6, 0x4e, 0xbe, 0xcd, 0x30, 0x5e, 0x3e,
  0xe1, 0xe3, 0x4b, 0x3e, 0x60, 0xd5, 0x96, 0x39, 0x61, 0x1c, 0x34, 0xbe,
  0xff, 0xd2, 0x12, 0x3e, 0x32, 0xc9, 0xa2, 0xbd, 0x4e, 0x5a, 0x49, 0x3e,
  0x6a, 0x09, 0xd5, 0xbb, 0xc8, 0x63, 0x1d, 0x3e, 0x72, 0xee, 0x1f, 0x3d,
  0xf4, 0x1f, 0xad, 0x3d, 0x95, 0x17, 0x5a, 0xbe, 0xdd, 0x94, 0x41, 0xbe,
  0xcf, 0x76, 0x70, 0xbe, 0x98, 0xc9, 0x43, 0x3e, 0x45, 0xd6, 0x05, 0x3e,
  0x08, 0x66, 0x40, 0x3c, 0x80, 0x32, 0x45, 0xbe, 0xf0, 0x5a, 0x6e, 0xbe,
  0x5e, 0x1f, 0x81, 0x3d, 0x9e, 0xfb, 0x65, 0xbe, 0x1a, 0x2f, 0x42, 0x3e,
  0x70, 0xe4, 0x56, 0x3e, 0x29, 0x1b, 0x12, 0xbe, 0xaf, 0x07, 0xec, 0x3d,
  0xab, 0xd8, 0x65, 0xbe, 0x84, 0x18, 0x68, 0xbe, 0xbd, 0x32, 0x3e, 0xbe,
  0xf7, 0xf7, 0x33, 0x3e, 0xa6, 0x74, 0x40, 0xbe, 0xd0, 0x5d, 0x63, 0xbd,
  0x28, 0xc0, 0x2c, 0x3e, 0xaf, 0xec, 0x43, 0xbe, 0x8e, 0xf0, 0x6a, 0xbe,
  0xba, 0x88, 0xd6, 0x3c, 0x4d, 0x83, 0xa6, 0xbe, 0xfb, 0x7d, 0x37, 0x3e,
  0x66, 0x3d, 0x52, 0x3e, 0x0d, 0x8a, 0x85, 0xbe, 0xad, 0x90, 0x4d, 0xbd,
  0x6c, 0xee, 0xc0, 0x3d, 0xad, 0xf8, 0x15, 0xbf, 0xd7, 0x4c, 0x82, 0x3c,
  0xe9, 0x71, 0x0c, 0xbe, 0x00, 0x6a, 0xd7, 0xbe, 0x6d, 0x4e, 0x1d, 0xbe,
  0xbd, 0x83, 0xc0, 0x3d, 0x0b, 0x43, 0xf4, 0xbe, 0x86, 0x62, 0x2b, 0xbd,
  0xff, 0xf9, 0x66, 0x3e, 0xce, 0x76, 0xae, 0xbe, 0x8b, 0x9b, 0xdc, 0xbd,
  0xaf, 0xd4, 0x4d, 0x3d, 0x26, 0x0a, 0x88, 0xbe, 0xd1, 0xe4, 0x38, 0x3e,
  0x39, 0x6e, 0x10, 0x3e, 0xfa, 0xa8, 0xd2, 0xbe, 0xbf, 0x3e, 0x36, 0xbe,
  0x41, 0x66, 0xa8, 0x3e, 0xfb, 0x07, 0x96, 0xbe, 0x59, 0x75, 0x31, 0x3e,
  0xc0, 0x37, 0xd4, 0x3c, 0xc2, 0x8d, 0x4d, 0xbe, 0xa5, 0x4b, 0x92, 0x3d,
  0x50, 0x66, 0x94, 0x3e, 0x97, 0xb2, 0x88, 0xbe, 0x81, 0xc4, 0xfc, 0xbd,
  0xc0, 0x62, 0x98, 0x3e, 0x85, 0xbd, 0xcd, 0xbd, 0x1e, 0xfc, 0x2b, 0x3e,
  0x42, 0xe6, 0x1a, 0x3e, 0xa7, 0xba, 0xd1, 0xbe, 0x2b, 0x7d, 0x0c, 0xbe,
  0x61, 0x63, 0x5f, 0x3d, 0x07, 0x8a, 0x88, 0xbe, 0xbd, 0xc8, 0x3a, 0xbe,
  0x80, 0x77, 0x2b, 0x3e, 0x50, 0x5c, 0xe5, 0xbe, 0x11, 0x7a, 0x73, 0x3d,
  0x28, 0x44, 0x53, 0xbd, 0xac, 0xb1, 0xcf, 0xbe, 0x5e, 0x2a, 0x24, 0x3e,
  0x51, 0xb2, 0x10, 0x3b, 0x9c, 0x45, 0x04, 0xbf, 0xb3, 0x45, 0x57, 0x3d,
  0x5e, 0x66, 0xa8, 0x3e, 0xad, 0x1d, 0x28, 0xbe, 0x0c, 0xb1, 0x8b, 0xbd,
  0x98, 0xcd, 0x07, 0x3e, 0xc2, 0x39, 0x06, 0xbf, 0x36, 0xfd, 0xe5, 0x3d,
  0xd3, 0x61, 0x91, 0xbd, 0x87, 0x6b, 0x8e, 0xbe, 0xdf, 0x02, 0x14, 0xbe,
  0xc1, 0xa3, 0x88, 0x3e, 0x4b, 0x5e, 0x29, 0xbf, 0xf9, 0x8d, 0x84, 0xbe,
  0xe1, 0xf6, 0x1a, 0x3e, 0x4d, 0xf8, 0xa4, 0xbe, 0xf5, 0xff, 0x1a, 0x3e,
  0x13, 0xc1, 0x6b, 0x3d, 0xb9, 0xb4, 0x4d, 0xbe, 0x32, 0x8c, 0x47, 0xbe,
  0xf6, 0xd3, 0x87, 0x3d, 0x0a, 0xd0, 0xf0, 0xbe, 0xf4, 0xcf, 0xb7, 0xbd,
  0xea, 0x4f, 0x5a, 0x3c, 0x9b, 0xee, 0x45, 0xbe, 0x2d, 0x51, 0x26, 0x3e,
  0x48, 0x81, 0x31, 0x3e, 0x8a, 0x65, 0x88, 0xbe, 0x51, 0xe4, 0x29, 0x3c,
  0x96, 0x69, 0x82, 0xbd, 0x3c, 0xd6, 0xca, 0xbe, 0x47, 0x43, 0x04, 0xbe,
  0x57, 0x5d, 0x20, 0x3e, 0xf9, 0x08, 0xdc, 0xbe, 0xe7, 0x01, 0x12, 0x3e,
  0x70, 0x0d, 0x80, 0x3e, 0x9f, 0xca, 0xf6, 0xbe, 0x0a, 0x5e, 0x42, 0x3e,
  0x3e, 0xbf, 0x6d, 0x3e, 0xed, 0x92, 0xd3, 0xbe, 0x30, 0x70, 0xee, 0x3d,
  0xef, 0x6b, 0x2d, 0x3e, 0x19, 0x03, 0x58, 0xbe, 0x95, 0x20, 0x25, 0x3e,
  0x61, 0x44, 0xc1, 0x3c, 0xf6, 0xbb, 0x94, 0xbe, 0x13, 0xbe, 0xc3, 0xbd,
  0x69, 0xbd, 0x78, 0x3e, 0x2d, 0xb5, 0xae, 0xbd, 0xef, 0x9c, 0x96, 0xbd,
  0xf4, 0x4b, 0x33, 0x3d, 0x5a, 0x9c, 0x81, 0xbe, 0x7b, 0x56, 0x07, 0xbe,
  0xe0, 0x65, 0x91, 0x3e, 0xb4, 0xba, 0x28, 0xbe, 0xe8, 0x1c, 0x18, 0xbe,
  0xba, 0x90, 0x6e, 0xbc, 0x3a, 0xc4, 0xd6, 0xbe, 0x0a, 0xc8, 0x32, 0xbe,
  0x1f, 0x20, 0x8c, 0x3e, 0xde, 0xca, 0x26, 0xbe, 0xa0, 0x43, 0xf6, 0x3d,
  0x06, 0x17, 0x3e, 0x3e, 0x29, 0x74, 0x2e, 0xbe, 0x01, 0xd9, 0xd1, 0xbb,
  0x32, 0xb5, 0x15, 0xbc, 0xa0, 0x3e, 0x4c, 0xbd, 0xb3, 0xfe, 0x9a, 0xbd,
  0xfe, 0x4b, 0x34, 0x3f, 0x7f, 0xe1, 0x83, 0xbd, 0x33, 0xea, 0x9c, 0x3d,
  0xc8, 0xe9, 0x32, 0x3f, 0xe9, 0x44, 0x87, 0x3d, 0xf1, 0xc9, 0xa7, 0xbc,
  0x68, 0xa8, 0x28, 0x3f, 0x2b, 0x14, 0x84, 0xbe, 0x44, 0x11, 0x0d, 0x3e,
  0x14, 0xbd, 0x2e, 0x3f, 0x38, 0x54, 0xc4, 0xbb, 0x47, 0x1f, 0x80, 0x3e,
  0x5e, 0x77, 0x10, 0x3f, 0x8d, 0x82, 0x13, 0xbd, 0x8e, 0x08, 0x93, 0x3e,
  0x06, 0x51, 0xac, 0x3e, 0xab, 0xd8, 0x6d, 0xbe, 0x4a, 0xa9, 0x42, 0x3e,
  0x5f, 0x10, 0x19, 0x3f, 0x12, 0xf5, 0x9a, 0xbd, 0xff, 0x14, 0x63, 0x3e,
  0xbb, 0x13, 0xb4, 0x3e, 0x7a, 0x39, 0x6d, 0xbe, 0xf4, 0xf5, 0xa5, 0x3d,
  0x8b, 0x6d, 0xc5, 0x3e, 0x9b, 0xc4, 0x52, 0x3d, 0xb6, 0xaf, 0x4e, 0x3e,
  0x8b, 0x59, 0xe4, 0x3e, 0xae, 0x79, 0x6d, 0xbd, 0xa5, 0x49, 0x30, 0x3e,
  0x14, 0x42, 0xdc, 0x3d, 0x7b, 0xb2, 0xc7, 0x3d, 0x84, 0x1a, 0x2b, 0x3e,
  0xfe, 0x13, 0xef, 0x3c, 0x0b, 0x0f, 0x82, 0x3e, 0x9d, 0x3f, 0xbb, 0x3d,
  0x0f, 0xca, 0x80, 0x3e, 0xcd, 0xd7, 0xa6, 0x3e, 0x41, 0x9c, 0x3c, 0x3e,
  0x12, 0xc2, 0x27, 0xbd, 0x24, 0xce, 0x9b, 0x3d, 0xf9, 0xc6, 0x79, 0xbd,
  0xc3, 0xd5, 0xde, 0x3d, 0xec, 0xca, 0x1f, 0x3e, 0x3a, 0x38, 0xec, 0x3d,
  0x40, 0x1f, 0xa0, 0x3e, 0x87, 0x5c, 0xcb, 0x3d, 0x25, 0x9d, 0x88, 0xbd,
  0x86, 0x83, 0x6f, 0x3d, 0x4a, 0xe1, 0x32, 0x3e, 0x49, 0x92, 0x9c, 0x3e,
  0x47, 0xec, 0x55, 0x3e, 0x29, 0x2b, 0xc9, 0x3d, 0xaa, 0x92, 0x0f, 0x3e,
  0x55, 0xf2, 0x0f, 0xbd, 0x4d, 0x07, 0x9b, 0x3e, 0x40, 0x24, 0x08, 0xbe,
  0xb8, 0x0f, 0x73, 0x3c, 0xd1, 0x10, 0xac, 0x3d, 0xbe, 0x55, 0xf8, 0x39,
  0xb1, 0xee, 0xf9, 0xbc, 0x4c, 0x94, 0x2e, 0x3e, 0xc3, 0x36, 0x62, 0xbe,
  0x5b, 0x20, 0x11, 0x3e, 0x9b, 0x61, 0xb4, 0x3d, 0xac, 0xc6, 0x53, 0xbd,
  0x64, 0x35, 0x06, 0x3d, 0x84, 0x95, 0x13, 0x3e, 0x28, 0xb9, 0x95, 0x3d,
  0x99, 0x4f, 0x43, 0xbe, 0x10, 0x56, 0x30, 0x3e, 0x83, 0xcb, 0x3d, 0xbe,
  0x8c, 0xec, 0x0b, 0x3e, 0x7b, 0xf6, 0x41, 0x3d, 0xb3, 0x2d, 0x4a, 0xbe,
  0x19, 0x8c, 0x15, 0xbe, 0x8f, 0xd8, 0x4d, 0xbd, 0x6d, 0xfa, 0x16, 0x3e,
  0xa8, 0x8f, 0x3f, 0x3e, 0x2e, 0xdd, 0x19, 0xbe, 0x75, 0x0b, 0x06, 0xbd,
  0xe1, 0x2d, 0xe1, 0xbd, 0xfd, 0x2a, 0x46, 0xbe, 0x3d, 0xa8, 0x78, 0xbe,
  0x52, 0x48, 0x0e, 0x3e, 0xee, 0x2e, 0x43, 0x3e, 0xcb, 0x6e, 0x9b, 0xbd,
  0x2b, 0xbc, 0xe0, 0xbc, 0x7f, 0x37, 0xa4, 0xbc, 0x0c, 0x0b, 0xab, 0xbd,
  0xb2, 0x6b, 0x15, 0xbd, 0x82, 0xb5, 0xef, 0x3b, 0xcd, 0x5f, 0x1c, 0xbd,
  0xf2, 0x0e, 0x99, 0xbd, 0x61, 0xd2, 0x06, 0x3e, 0x35, 0xe6, 0x82, 0x3d,
  0x85, 0x56, 0x98, 0x3d, 0xac, 0x5f, 0x4c, 0x3e, 0x87, 0x5e, 0xa8, 0xbd,
  0x20, 0x65, 0x39, 0xbe, 0x41, 0x31, 0xc8, 0xbd, 0x4b, 0x0b, 0x43, 0x3e,
  0x70, 0x21, 0x46, 0x3e, 0x38, 0xda, 0xb9, 0xbc, 0xab, 0x95, 0x4f, 0xbd,
  0x71, 0x57, 0x0a, 0xbe, 0x0e, 0xee, 0xae, 0x3d, 0x80, 0x1f, 0x5a, 0xbe,
  0xc0, 0xa4, 0x65, 0xbe, 0x0d, 0x16, 0x71, 0xbe, 0x9a, 0x0c, 0x22, 0xbe,
  0x18, 0x18, 0x3c, 0x3e, 0xa9, 0x51, 0xd1, 0x3c, 0x0f, 0x21, 0x59, 0x3e,
  0x3e, 0xa0, 0x2a, 0xbe, 0x1c, 0x94, 0xff, 0xbd, 0x4e, 0xe1, 0x28, 0x3c,
  0x4f, 0xf5, 0x47, 0x3e, 0xc0, 0xee, 0x10, 0xbd, 0xd0, 0xa5, 0x4d, 0x3c,
  0xa8, 0x70, 0x9b, 0xbc, 0xa2, 0x5b, 0x0a, 0xbe, 0xee, 0x8c, 0x04, 0x3e,
  0xa8, 0x96, 0x1e, 0xbe, 0x35, 0xa2, 0xea, 0xbd, 0x64, 0x9c, 0xe9, 0x3d,
  0xd3, 0x98, 0x34, 0xbe, 0xd4, 0x71, 0x22, 0xbe, 0x30, 0x4a, 0xeb, 0xbd,
  0x9a, 0x23, 0xc8, 0xbd, 0xe0, 0xdf, 0xe1, 0x3c, 0x5e, 0x90, 0x98, 0xbd,
  0x94, 0xb3, 0x94, 0x3d, 0x58, 0x69, 0x4a, 0x3e, 0x40, 0xd2, 0xad, 0x3d,
  0xe0, 0x49, 0xbf, 0x3d, 0xfe, 0x87, 0x92, 0xbd, 0x80, 0xde, 0xc8, 0x3b,
  0xd0, 0xf6, 0xe7, 0xbc, 0x28, 0x82, 0x85, 0x3d, 0x28, 0x3e, 0xa1, 0xbc,
  0x64, 0xa3, 0x5d, 0x3e, 0x2c, 0x19, 0xf1, 0x3d, 0x00, 0x2b, 0x80, 0x3a,
  0xa8, 0xe2, 0x2f, 0x3e, 0x00, 0x5b, 0xf0, 0x3b, 0x49, 0x68, 0x6d, 0xbe,
  0x68, 0x7c, 0x80, 0x3d, 0xb8, 0x90, 0x7e, 0xbd, 0xc0, 0xcd, 0x18, 0x3e,
  0x7e, 0x7f, 0x1a, 0x3e, 0x47, 0x81, 0x63, 0xbe, 0x0a, 0x28, 0xcc, 0xbd,
  0xb8, 0x38, 0x0a, 0x3e, 0x58, 0xfa, 0x99, 0xbd, 0x5c, 0x6c, 0x3e, 0xbd,
  0xb0, 0x45, 0x88, 0x3c, 0x60, 0x27, 0x40, 0xbe, 0x10, 0x2b, 0x4c, 0x3d,
  0x68, 0x23, 0x7e, 0xbd, 0x49, 0x0a, 0x5b, 0xbe, 0xa6, 0x60, 0x4d, 0xbe,
  0x34, 0xe9, 0x15, 0xbe, 0x10, 0x48, 0x5b, 0xbd, 0x4a, 0xa1, 0x5d, 0xbe,
  0xc2, 0xb7, 0x07, 0x3e, 0x1c, 0x10, 0x36, 0x3e, 0x8c, 0x24, 0x7f, 0xbd,
  0x20, 0x6b, 0x8f, 0x3d, 0x80, 0xa3, 0xdb, 0xbb, 0x08, 0x33, 0x16, 0x3d,
  0x22, 0x9e, 0x67, 0x3e, 0x18, 0x15, 0x61, 0x3d, 0x60, 0x49, 0x2c, 0xbe,
  0x1e, 0xf1, 0x94, 0xbd, 0x8f, 0x65, 0x0d, 0xbe, 0xa0, 0xe6, 0xff, 0x3b,
  0x9d, 0x2c, 0xee, 0xbd, 0x32, 0xfe, 0xff, 0xff, 0x04, 0x00, 0x00, 0x00,
  0xc8, 0x00, 0x00, 0x00, 0x1a, 0x90, 0x4d, 0x3d, 0xe3, 0xab, 0x82, 0x3e,
  0x15, 0xdf, 0xd2, 0x3d, 0x00, 0x00, 0x00, 0x00, 0xf8, 0x2c, 0xcf, 0xbb,
  0xa5, 0x1f, 0xf3, 0xba, 0x17, 0xe0, 0x19, 0xbc, 0xd0, 0xc8, 0xc1, 0x3e,
  0x00, 0x8a, 0x85, 0x3f, 0x36, 0x73, 0x33, 0xbc, 0x8b, 0x6a, 0x0b, 0xbd,
  0xf6, 0xe7, 0x4d, 0x3e, 0xbe, 0xd8, 0xa5, 0xbc, 0x00, 0x00, 0x00, 0x00,
  0x11, 0xef, 0x7e, 0x3e, 0x00, 0x00, 0x00, 0x00, 0x5e, 0xde, 0x2e, 0xbf,
  0x97, 0x31, 0xd7, 0x39, 0x00, 0x00, 0x00, 0x00, 0x00, 0x00, 0x00, 0x00,
  0x4d, 0x64, 0x14, 0x3f, 0x00, 0x00, 0x00, 0x00, 0x00, 0x00, 0x00, 0x00,
  0x7e, 0xbd, 0xeb, 0x3e, 0x87, 0x1f, 0x6a, 0xbc, 0x76, 0x33, 0xa8, 0xbd,
  0x7d, 0xe1, 0xaa, 0xbc, 0x00, 0x00, 0x00, 0x00, 0x00, 0x00, 0x00, 0x00,
  0x94, 0xd8, 0x15, 0xbf, 0x1b, 0xf2, 0x65, 0xbe, 0xea, 0x2e, 0xec, 0xbe,
  0xc3, 0x28, 0xa0, 0xbe, 0xd8, 0x3f, 0x30, 0xbe, 0xbf, 0x35, 0xf5, 0xbe,
  0x00, 0x00, 0x00, 0x00, 0x00, 0x00, 0x00, 0x00, 0xdd, 0x29, 0x20, 0xbf,
  0x00, 0x00, 0x00, 0x00, 0x2d, 0x2d, 0x81, 0xbc, 0x00, 0x00, 0x00, 0x00,
  0x00, 0x00, 0x00, 0x00, 0x26, 0x46, 0x24, 0xbf, 0x00, 0x00, 0x00, 0x00,
  0x47, 0x8a, 0x69, 0xbc, 0xd9, 0x20, 0x0c, 0x3f, 0x0d, 0x8e, 0x0b, 0x3f,
  0xfe, 0xad, 0x7e, 0xbe, 0xd4, 0x27, 0x44, 0xbc, 0x00, 0x00, 0x00, 0x00,
  0x06, 0xff, 0xff, 0xff, 0x04, 0x00, 0x00, 0x00, 0x10, 0x00, 0x00, 0x00,
  0x32, 0xa2, 0xfc, 0x3c, 0xdc, 0x0e, 0x6f, 0xbf, 0xdb, 0x47, 0x1b, 0x3f,
  0x13, 0x7d, 0x45, 0xbe, 0x22, 0xff, 0xff, 0xff, 0x04, 0x00, 0x00, 0x00,
  0x3c, 0x00, 0x00, 0x00, 0x75, 0x89, 0x01, 0xbf, 0xab, 0x6e, 0xbe, 0xbe,
  0x3c, 0x7f, 0xe1, 0x3e, 0x00, 0x00, 0x00, 0x00, 0xef, 0xfa, 0x26, 0x3f,
  0x92, 0x7b, 0x97, 0xbd, 0xd8, 0x9d, 0xb1, 0xbe, 0xdf, 0x70, 0x3e, 0xbe,
  0x8b, 0xeb, 0x87, 0x3f, 0xfd, 0x94, 0x97, 0xbe, 0xd2, 0x8c, 0x59, 0x3f,
  0xbf, 0xf5, 0x9b, 0x3e, 0xde, 0x55, 0x2b, 0x3f, 0x70, 0xb9, 0xa5, 0x3c,
  0x44, 0xca, 0x8d, 0xbc, 0x5c, 0xfa, 0xff, 0xff, 0x60, 0xfa, 0xff, 0xff,
  0x0f, 0x00, 0x00, 0x00, 0x4d, 0x4c, 0x49, 0x52, 0x20, 0x43, 0x6f, 0x6e,
  0x76, 0x65, 0x72, 0x74, 0x65, 0x64, 0x2e, 0x00, 0x01, 0x00, 0x00, 0x00,
  0x14, 0x00, 0x00, 0x00, 0x00, 0x00, 0x0e, 0x00, 0x18, 0x00, 0x14, 0x00,
  0x10, 0x00, 0x0c, 0x00, 0x08, 0x00, 0x04, 0x00, 0x0e, 0x00, 0x00, 0x00,
  0x14, 0x00, 0x00, 0x00, 0x1c, 0x00, 0x00, 0x00, 0x24, 0x01, 0x00, 0x00,
  0x28, 0x01, 0x00, 0x00, 0x2c, 0x01, 0x00, 0x00, 0x04, 0x00, 0x00, 0x00,
  0x6d, 0x61, 0x69, 0x6e, 0x00, 0x00, 0x00, 0x00, 0x04, 0x00, 0x00, 0x00,
  0xcc, 0x00, 0x00, 0x00, 0x84, 0x00, 0x00, 0x00, 0x50, 0x00, 0x00, 0x00,
  0x14, 0x00, 0x00, 0x00, 0x00, 0x00, 0x0e, 0x00, 0x1a, 0x00, 0x14, 0x00,
  0x10, 0x00, 0x0c, 0x00, 0x0b, 0x00, 0x04, 0x00, 0x0e, 0x00, 0x00, 0x00,
  0x1c, 0x00, 0x00, 0x00, 0x00, 0x00, 0x00, 0x09, 0x1c, 0x00, 0x00, 0x00,
