const unsigned char model[] = {
  0x1c, 0x00, 0x00, 0x00, 0x54, 0x46, 0x4c, 0x33, 0x14, 0x00, 0x20, 0x00,
  0x1c, 0x00, 0x18, 0x00, 0x14, 0x00, 0x10, 0x00, 0x0c, 0x00, 0x00, 0x00,
  0x08, 0x00, 0x04, 0x00, 0x14, 0x00, 0x00, 0x00, 0x1c, 0x00, 0x00, 0x00,
  0x90, 0x00, 0x00, 0x00, 0xe8, 0x00, 0x00, 0x00, 0x98, 0x3e, 0x00, 0x00,
  0xa8, 0x3e, 0x00, 0x00, 0x64, 0x44, 0x00, 0x00, 0x03, 0x00, 0x00, 0x00,
  0x01, 0x00, 0x00, 0x00, 0x10, 0x00, 0x00, 0x00, 0x00, 0x00, 0x0a, 0x00,
  0x10, 0x00, 0x0c, 0x00, 0x08, 0x00, 0x04, 0x00, 0x0a, 0x00, 0x00, 0x00,
  0x0c, 0x00, 0x00, 0x00, 0x1c, 0x00, 0x00, 0x00, 0x38, 0x00, 0x00, 0x00,
  0x0f, 0x00, 0x00, 0x00, 0x73, 0x65, 0x72, 0x76, 0x69, 0x6e, 0x67, 0x5f,
  0x64, 0x65, 0x66, 0x61, 0x75, 0x6c, 0x74, 0x00, 0x01, 0x00, 0x00, 0x00,
  0x04, 0x00, 0x00, 0x00, 0x98, 0xff, 0xff, 0xff, 0x0a, 0x00, 0x00, 0x00,
  0x04, 0x00, 0x00, 0x00, 0x07, 0x00, 0x00, 0x00, 0x64, 0x65, 0x6e, 0x73,
  0x65, 0x5f, 0x32, 0x00, 0x01, 0x00, 0x00, 0x00, 0x04, 0x00, 0x00, 0x00,
  0x4a, 0xc1, 0xff, 0xff, 0x04, 0x00, 0x00, 0x00, 0x0b, 0x00, 0x00, 0x00,
  0x64, 0x65, 0x6e, 0x73, 0x65, 0x5f, 0x69, 0x6e, 0x70, 0x75, 0x74, 0x00,
  0x02, 0x00, 0x00, 0x00, 0x34, 0x00, 0x00, 0x00, 0x04, 0x00, 0x00, 0x00,
  0xdc, 0xff, 0xff, 0xff, 0x0d, 0x00, 0x00, 0x00, 0x04, 0x00, 0x00, 0x00,
  0x13, 0x00, 0x00, 0x00, 0x43, 0x4f, 0x4e, 0x56, 0x45, 0x52, 0x53, 0x49,
  0x4f, 0x4e, 0x5f, 0x4d, 0x45, 0x54, 0x41, 0x44, 0x41, 0x54, 0x41, 0x00,
  0x08, 0x00, 0x0c, 0x00, 0x08, 0x00, 0x04, 0x00, 0x08, 0x00, 0x00, 0x00,
  0x0c, 0x00, 0x00, 0x00, 0x04, 0x00, 0x00, 0x00, 0x13, 0x00, 0x00, 0x00,
  0x6d, 0x69, 0x6e, 0x5f, 0x72, 0x75, 0x6e, 0x74, 0x69, 0x6d, 0x65, 0x5f,
  0x76, 0x65, 0x72, 0x73, 0x69, 0x6f, 0x6e, 0x00, 0x0e, 0x00, 0x00, 0x00,
  0xac, 0x3d, 0x00, 0x00, 0xa4, 0x3d, 0x00, 0x00, 0x58, 0x3d, 0x00, 0x00,
  0x38, 0x3d, 0x00, 0x00, 0x60, 0x3c, 0x00, 0x00, 0x70, 0x0d, 0x00, 0x00,
  0xa8, 0x01, 0x00, 0x00, 0xa8, 0x00, 0x00, 0x00, 0xa0, 0x00, 0x00, 0x00,
  0x98, 0x00, 0x00, 0x00, 0x90, 0x00, 0x00, 0x00, 0x88, 0x00, 0x00, 0x00,
  0x68, 0x00, 0x00, 0x00, 0x04, 0x00, 0x00, 0x00, 0xfa, 0xc1, 0xff, 0xff,
  0x04, 0x00, 0x00, 0x00, 0x54, 0x00, 0x00, 0x00, 0x0c, 0x00, 0x00, 0x00,
  0x08, 0x00, 0x0e, 0x00, 0x08, 0x00, 0x04, 0x00, 0x08, 0x00, 0x00, 0x00,
  0x10, 0x00, 0x00, 0x00, 0x24, 0x00, 0x00, 0x00, 0x00, 0x00, 0x06, 0x00,
  0x08, 0x00, 0x04, 0x00, 0x06, 0x00, 0x00, 0x00, 0x04, 0x00, 0x00, 0x00,
  0x00, 0x00, 0x00, 0x00, 0x00, 0x00, 0x0a, 0x00, 0x10, 0x00, 0x0c, 0x00,
  0x08, 0x00, 0x04, 0x00, 0x0a, 0x00, 0x00, 0x00, 0x02, 0x00, 0x00, 0x00,
  0x02, 0x00, 0x00, 0x00, 0x04, 0x00, 0x00, 0x00, 0x06, 0x00, 0x00, 0x00,
  0x32, 0x2e, 0x31, 0x34, 0x2e, 0x30, 0x00, 0x00, 0x5a, 0xc2, 0xff, 0xff,
  0x04, 0x00, 0x00, 0x00, 0x10, 0x00, 0x00, 0x00, 0x31, 0x2e, 0x35, 0x2e,
  0x30, 0x00, 0x00, 0x00, 0x00, 0x00, 0x00, 0x00, 0x00, 0x00, 0x00, 0x00,
  0x68, 0xbd, 0xff, 0xff, 0x6c, 0xbd, 0xff, 0xff, 0x70, 0xbd, 0xff, 0xff,
  0x74, 0xbd, 0xff, 0xff, 0x86, 0xc2, 0xff, 0xff, 0x04, 0x00, 0x00, 0x00,
  0xf0, 0x00, 0x00, 0x00, 0x7d, 0x9d, 0x07, 0x3e, 0x7f, 0x4c, 0x90, 0xbe,
  0xe8, 0xf9, 0x11, 0xbf, 0x59, 0xf8, 0x62, 0xbf, 0x0c, 0xfd, 0xb4, 0xbe,
  0x31, 0x79, 0xa7, 0xbb, 0x5d, 0x02, 0x7a, 0x3e, 0xa3, 0x50, 0xf3, 0x3e,
  0x94, 0xce, 0x11, 0x3e, 0xf2, 0x20, 0x4e, 0x3e, 0xd2, 0x82, 0xa9, 0xbe,
  0xa7, 0x6b, 0x61, 0x3f, 0x77, 0xd9, 0x8a, 0xbf, 0x99, 0xe8, 0x9f, 0xbf,
  0xf9, 0x07, 0x2e, 0xbd, 0xbd, 0x45, 0xc0, 0xbe, 0x8a, 0x8f, 0x27, 0xbf,
  0x1d, 0xb0, 0xb3, 0xbc, 0x44, 0xb4, 0x8e, 0x3e, 0xca, 0x97, 0x55, 0xbf,
  0xe5, 0x70, 0x21, 0x3f, 0x1d, 0xcd, 0x63, 0x3d, 0xb5, 0x70, 0x41, 0xbe,
  0xba, 0x03, 0xce, 0xbe, 0xa3, 0x49, 0x44, 0xbe, 0xed, 0x4a, 0x20, 0xbf,
  0x04, 0xee, 0xb5, 0x3e, 0x77, 0x76, 0x0b, 0xbe, 0xa6, 0x07, 0x2a, 0x3f,
  0xf2, 0xd4, 0xd7, 0xbf, 0x9c, 0xaa, 0x3f, 0x3d, 0xf1, 0x3b, 0xf9, 0x3e,
  0xc5, 0x24, 0x2c, 0x3e, 0xd8, 0x8f, 0xe7, 0xbe, 0xb1, 0x57, 0x1d, 0x3f,
  0x8a, 0x61, 0x81, 0xbf, 0x9a, 0x7b, 0x0f, 0xbd, 0x46, 0x09, 0x07, 0x3f,
  0x71, 0xb9, 0xd6, 0x3e, 0x99, 0xe9, 0xa5, 0xbd, 0xce, 0x5c, 0x83, 0x3e,
  0x18, 0xdb, 0x8f, 0xbf, 0x23, 0x10, 0xa8, 0x3f, 0xdf, 0x43, 0xb6, 0xbe,
  0x40, 0x3d, 0xc9, 0x3e, 0x4d, 0x2b, 0x1b, 0xbf, 0x20, 0xcd, 0xc3, 0x3c,
  0x65, 0x5d, 0x56, 0x3f, 0x28, 0x5a, 0x72, 0x3e, 0x6f, 0x50, 0x72, 0x3f,
  0x66, 0x19, 0x20, 0xbf, 0xc6, 0x46, 0xdc, 0xbc, 0x8f, 0xf7, 0x6d, 0xbd,
  0x9b, 0x49, 0x3e, 0x3f, 0x8d, 0xf7, 0x85, 0xbe, 0xa1, 0x3b, 0x22, 0x3f,
  0xae, 0x68, 0xe7, 0x3d, 0x7d, 0xc5, 0x02, 0xbf, 0x0c, 0x57, 0xbb, 0xbe,
  0xf7, 0xbe, 0x44, 0xbf, 0x82, 0xc3, 0xff, 0xff, 0x04, 0x00, 0x00, 0x00,
  0xb8, 0x0b, 0x00, 0x00, 0xb3, 0x85, 0x61, 0xbe, 0xd9, 0xa0, 0x0c, 0x3e,
  0x07, 0xf8, 0xcc, 0x3e, 0x68, 0xfe, 0x93, 0x3e, 0x05, 0x82, 0x1f, 0x3f,
  0x50, 0x1e, 0x74, 0xbe, 0xf7, 0x51, 0x9f, 0x3d, 0x4e, 0xa5, 0xbb, 0xbd,
  0x52, 0xe4, 0x00, 0x3e, 0xe9, 0xaa, 0xd8, 0x3c, 0xbb, 0xba, 0x5d, 0xbe,
  0xea, 0xcc, 0xd8, 0x3d, 0xba, 0xa4, 0xce, 0x3d, 0xc7, 0x1a, 0x21, 0xbe,
  0x46, 0x6c, 0x9c, 0x3d, 0x42, 0xd4, 0x6b, 0x3e, 0xc5, 0x51, 0x70, 0xbe,
  0xc5, 0x53, 0xea, 0x3e, 0x3d, 0xd3, 0x45, 0x3e, 0xdb, 0x45, 0xe0, 0x3e,
  0xe3, 0x88, 0x50, 0x3e, 0x2e, 0x30, 0x42, 0xbc, 0x77, 0x4c, 0xda, 0x3c,
  0xf1, 0xc9, 0x6a, 0xbe, 0xfb, 0x10, 0x52, 0x3e, 0x86, 0x38, 0xf0, 0x3e,
  0xf8, 0xa9, 0x97, 0xbe, 0xb0, 0x73, 0x34, 0x3f, 0x8e, 0xc4, 0xe4, 0x3e,
  0xa6, 0x0f, 0x9a, 0x3e, 0xb0, 0x07, 0x85, 0x3d, 0xbe, 0x89, 0x33, 0xbe,
  0x9e, 0xbc, 0xb7, 0x3e, 0x98, 0x26, 0xb5, 0x3d, 0x75, 0x91, 0x51, 0x3e,
  0xaa, 0x2b, 0x08, 0x3f, 0x09, 0xa3, 0x7b, 0x3d, 0x40, 0x42, 0x3c, 0x3f,
  0x67, 0x37, 0x8d, 0x3e, 0x2c, 0x8c, 0x3e, 0x3e, 0x62, 0xcf, 0xc9, 0x3e,
  0xdb, 0xf2, 0x1f, 0xbd, 0xae, 0xa9, 0x1c, 0x3f, 0x13, 0x10, 0x0c, 0xbf,
  0xa6, 0x27, 0x00, 0x3e, 0xe0, 0xeb, 0x8d, 0x3d, 0xd9, 0x67, 0x05, 0x3f,
  0x22, 0xd6, 0x95, 0x3d, 0xc7, 0xee, 0x85, 0x3d, 0x79, 0x3c, 0x82, 0xbe,
  0x14, 0xe3, 0x97, 0x3e, 0x07, 0x33, 0xac, 0xbe, 0x72, 0x1d, 0xdc, 0x3e,
  0x00, 0x65, 0x37, 0xbc, 0x49, 0x7f, 0x83, 0xbe, 0x5e, 0xc9, 0x1e, 0x3f,
  0x64, 0x54, 0x19, 0xbe, 0xc8, 0x34, 0x08, 0xbd, 0xca, 0xdb, 0x8a, 0xbe,
  0xf3, 0x39, 0x2a, 0x3e, 0x1c, 0xbb, 0x75, 0x3e, 0xa5, 0x09, 0x96, 0x3d,
  0xbb, 0x8c, 0xf7, 0xbd, 0x8f, 0x1c, 0x8c, 0xbd, 0xe4, 0xba, 0x5b, 0xbe,
  0xd0, 0x8b, 0x86, 0xbd, 0xfb, 0xc2, 0x74, 0x3e, 0x6c, 0xf7, 0x70, 0x3e,
  0xb7, 0x7a, 0xb7, 0xbd, 0x9d, 0x9c, 0xd6, 0x3d, 0x8d, 0xc9, 0x7a, 0xbe,
  0x1f, 0x42, 0x89, 0xbe, 0x58, 0x4c, 0x11, 0x3e, 0x00, 0x93, 0x95, 0x3e,
  0xbc, 0xed, 0x1f, 0x3e, 0xaa, 0x8c, 0x84, 0x3e, 0x33, 0x22, 0x51, 0x3e,
  0xff, 0xfd, 0x35, 0xbe, 0x6c, 0xd2, 0xea, 0xbd, 0xbc, 0x4e, 0xdf, 0x3d,
  0x59, 0x89, 0x27, 0xbe, 0x1b, 0x47, 0xaa, 0x3d, 0x73, 0xfe, 0xd7, 0xbd,
  0xb0, 0x63, 0xeb, 0x3c, 0x98, 0x7f, 0x7f, 0xbd, 0x7f, 0x4a, 0x84, 0x3e,
  0x0e, 0x13, 0xa9, 0xbd, 0x8e, 0xd3, 0x9d, 0x3e, 0x5b, 0xba, 0x6f, 0xbd,
  0xa6, 0xe3, 0x35, 0xbe, 0xa8, 0xed, 0x9a, 0xbd, 0xa5, 0x12, 0x91, 0x3e,
  0xdf, 0x5f, 0x72, 0xbe, 0x3e, 0x6a, 0x2e, 0x3f, 0xca, 0x37, 0x33, 0x3a,
  0x5c, 0x39, 0x35, 0xbe, 0xe7, 0xc7, 0x57, 0x3e, 0x7d, 0xc7, 0x7c, 0x3e,
  0x14, 0x5e, 0x19, 0x3e, 0x36, 0xb6, 0xc1, 0xbd, 0xd4, 0x48, 0x70, 0xbd,
  0x8a, 0xae, 0xb1, 0xbe, 0x0a, 0x70, 0x00, 0xbd, 0x26, 0x53, 0x7b, 0xbe,
  0x07, 0xd5, 0xe4, 0xbe, 0x30, 0x87, 0x89, 0x3e, 0xe0, 0x08, 0xa4, 0xbe,
  0x06, 0x54, 0x80, 0xbd, 0x4a, 0xdf, 0x59, 0xbe, 0x0e, 0x21, 0x2d, 0x3e,
  0x6a, 0xea, 0xfb, 0x3e, 0xa2, 0x96, 0x3b, 0xbe, 0x0e, 0x43, 0xef, 0xbe,
  0xb7, 0x40, 0x99, 0x3e, 0x01, 0xa9, 0x10, 0x3e, 0x5b, 0x27, 0x03, 0xbc,
  0x1d, 0xf8, 0xe0, 0x3e, 0x96, 0xab, 0x86, 0xbe, 0xa1, 0xc4, 0x06, 0xbd,
  0x0b, 0x69, 0xa6, 0xbe, 0x4d, 0x27, 0xe3, 0xbe, 0x66, 0xcb, 0xa4, 0x3d,
  0x54, 0x1a, 0x26, 0xbe, 0xe8, 0xfb, 0x41, 0xbd, 0x0e, 0xe6, 0x19, 0x3e,
  0xdc, 0x3a, 0x09, 0xbf, 0x1a, 0xe3, 0x81, 0x3e, 0xde, 0x91, 0xf6, 0xbe,
  0x89, 0x8b, 0xd1, 0xbe, 0xec, 0x07, 0x93, 0x3e, 0x7f, 0x75, 0x15, 0xbe,
  0x9b, 0xc4, 0x8b, 0x3e, 0xbc, 0x33, 0x2c, 0xbe, 0xef, 0x4c, 0x85, 0xbe,
  0x53, 0x36, 0xb6, 0xbd, 0xf4, 0xbc, 0x89, 0x3d, 0x43, 0x0e, 0x8c, 0xbe,
  0x61, 0xfa, 0x0f, 0xbe, 0x58, 0x3f, 0x0a, 0xbe, 0x49, 0x67, 0xd7, 0xbe,
  0xfa, 0xe8, 0x86, 0x3d, 0xa8, 0x9a, 0x5c, 0x3e, 0xce, 0xf3, 0x53, 0xbf,
  0xe5, 0x4c, 0x32, 0x3f, 0x9e, 0x73, 0x6e, 0xbe, 0xd8, 0xfd, 0x27, 0x3e,
  0xea, 0x8d, 0x2a, 0xbe, 0x24, 0xf9, 0x40, 0x3e, 0x94, 0x24, 0x00, 0xbe,
  0x16, 0xd0, 0x8a, 0x3e, 0x02, 0x74, 0x99, 0x3e, 0x40, 0x76, 0x1e, 0xbe,
  0x01, 0xba, 0xe8, 0xbe, 0xb4, 0xbc, 0x87, 0x3d, 0xff, 0x56, 0x69, 0xbe,
  0x43, 0xfc, 0x3c, 0x3e, 0x52, 0x7d, 0xad, 0xbe, 0x00, 0xdb, 0x74, 0x3c,
  0xc8, 0x81, 0x3e, 0xbe, 0xcd, 0x61, 0xd4, 0xbe, 0x11, 0xb3, 0x16, 0x3e,
  0xa9, 0x97, 0xf9, 0x3d, 0x9f, 0x9a, 0x5a, 0x3e, 0xef, 0xc5, 0x8c, 0x3d,
  0x6a, 0x50, 0x42, 0xba, 0x5f, 0x51, 0x84, 0x3e, 0x49, 0xcc, 0x16, 0x3e,
  0xa9, 0x75, 0xf1, 0x3c, 0xb4, 0x13, 0x8c, 0xbd, 0xa6, 0xe9, 0x97, 0xbb,
  0x58, 0xba, 0xc4, 0xbd, 0x01, 0x6b, 0x76, 0x3e, 0x02, 0x26, 0xc4, 0x3e,
  0x00, 0x10, 0x15, 0x3b, 0x40, 0x81, 0x22, 0xbd, 0xc1, 0x06, 0xa6, 0xbe,
  0x66, 0x99, 0xf8, 0xbd, 0x16, 0x2b, 0x33, 0xbf, 0x9a, 0x48, 0x0f, 0x3d,
  0x00, 0xa9, 0x29, 0x3d, 0xc8, 0xfe, 0x59, 0x3e, 0xc6, 0xcb, 0x9c, 0x3e,
  0x8a, 0xc8, 0xfd, 0xbe, 0x00, 0x93, 0x3b, 0xbe, 0xdd, 0xb5, 0x40, 0xbd,
  0x3d, 0x62, 0xba, 0xbe, 0x8e, 0xa2, 0x06, 0x3e, 0xfc, 0x5c, 0x1c, 0xbf,
  0x7b, 0xab, 0x2f, 0x3e, 0x01, 0xfb, 0x1a, 0xbe, 0xd5, 0x4f, 0x45, 0x3e,
  0x39, 0x4d, 0xbd, 0xbe, 0x4e, 0x81, 0x6b, 0xbd, 0x26, 0xd5, 0xe6, 0x3e,
  0x3e, 0x25, 0x4b, 0x3d, 0x5f, 0x4b, 0x5b, 0x3e, 0x26, 0x8a, 0x84, 0xbe,
  0xb4, 0x84, 0x3a, 0x3d, 0x4e, 0x3d, 0x8d, 0xbc, 0xab, 0xa7, 0x24, 0xbe,
  0xb4, 0xec, 0x5f, 0x3e, 0x04, 0x2c, 0x07, 0xbf, 0x63, 0x1f, 0x38, 0x3d,
  0x00, 0xe0, 0xff, 0x3c, 0x54, 0x00, 0x68, 0xbe, 0xb6, 0xb3, 0x2d, 0x3f,
  0xcf, 0x96, 0xd9, 0xbd, 0x36, 0x4a, 0x98, 0x3e, 0x12, 0x08, 0xc9, 0xbd,
  0x3a, 0x11, 0x06, 0x3f, 0xec, 0xe6, 0xf9, 0x3e, 0x90, 0xc3, 0x17, 0xbe,
  0x9d, 0x34, 0xdf, 0xbe, 0x80, 0x34, 0x69, 0x3e, 0xb4, 0x5c, 0xe2, 0xbc,
  0xb0, 0xd6, 0xf8, 0x3d, 0xcc, 0x7f, 0xf7, 0x3e, 0x05, 0x15, 0x21, 0xbe,
  0x9c, 0x8f, 0x37, 0xbe, 0x09, 0x4d, 0x36, 0xbe, 0x6e, 0xff, 0x31, 0xbd,
  0xdc, 0x0c, 0x01, 0xbe, 0x96, 0x06, 0x05, 0x3e, 0x1a, 0x07, 0x0a, 0x3e,
  0xa0, 0xea, 0x11, 0x3e, 0x9b, 0xe4, 0x14, 0xbe, 0xd4, 0xf5, 0xd1, 0xbc,
  0x51, 0x5e, 0xdd, 0x3d, 0x0a, 0x71, 0x21, 0xbf, 0xfc, 0x5b, 0x94, 0xbe,
  0xd3, 0xc1, 0x8d, 0xbe, 0xf7, 0xc0, 0x95, 0x3e, 0x2e, 0x48, 0xa0, 0x3e,
  0x68, 0xf1, 0x5d, 0x3e, 0xf2, 0xec, 0xb3, 0xbe, 0xb4, 0x06, 0xea, 0x3e,
  0x32, 0xa2, 0xbe, 0x3c, 0x4b, 0x15, 0x74, 0xbd, 0x2f, 0xa2, 0x85, 0xbe,
  0xda, 0xfc, 0x91, 0x3d, 0x63, 0x58, 0x67, 0xbe, 0x65, 0xef, 0x82, 0x3c,
  0x2e, 0x6d, 0xd4, 0xbe, 0x5f, 0x4f, 0x2c, 0x3f, 0x22, 0x10, 0x9a, 0xbe,
  0x36, 0x4c, 0x2e, 0x3e, 0x26, 0xfe, 0xc0, 0x3e, 0x0c, 0x5e, 0xd9, 0x3d,
  0x7d, 0x2c, 0x80, 0x3d, 0x3c, 0x3f, 0x25, 0x3e, 0x6c, 0x9f, 0x26, 0x3e,
  0x8e, 0xa8, 0x66, 0x3e, 0xc9, 0xf3, 0xe7, 0xbe, 0x58, 0x3c, 0xf1, 0x3d,
  0x01, 0x6c, 0xa9, 0x3e, 0x22, 0x61, 0x36, 0xbf, 0x98, 0xf5, 0xce, 0xbe,
  0x44, 0xdc, 0xd9, 0x3d, 0x94, 0x89, 0x92, 0xbe, 0xda, 0x3f, 0xe6, 0xbe,
  0x3f, 0xb9, 0xe2, 0xbe, 0x32, 0x21, 0x0d, 0x3f, 0xe6, 0xf5, 0x6c, 0x3e,
  0xcc, 0xb0, 0x82, 0x3d, 0x0a, 0x79, 0xae, 0x3e, 0xaf, 0x14, 0x82, 0x3e,
  0x7e, 0xba, 0x27, 0xbf, 0xab, 0x1a, 0x0b, 0x3d, 0xab, 0xae, 0x9b, 0x3e,
  0xe6, 0xd0, 0x27, 0x3c, 0xd4, 0xae, 0xaf, 0x3e, 0x9b, 0x43, 0x01, 0xbd,
  0x36, 0xec, 0xc3, 0x3d, 0x68, 0xdc, 0x6b, 0xbd, 0x97, 0xa8, 0x5f, 0xbe,
  0x6d, 0x67, 0x8f, 0xbe, 0xd7, 0x8c, 0x55, 0x3c, 0x8b, 0x85, 0x84, 0xbe,
  0x9d, 0x76, 0xba, 0x3e, 0xe0, 0x3a, 0xe0, 0xbd, 0xd0, 0xc4, 0x05, 0x3d,
  0xe8, 0x51, 0x91, 0xbe, 0x90, 0x63, 0xf5, 0xbe, 0x62, 0x76, 0x3b, 0xbe,
  0x45, 0xcb, 0xb1, 0x3e, 0xb9, 0x02, 0x56, 0xbe, 0xe6, 0x35, 0xae, 0x3e,
  0x9f, 0x47, 0xb4, 0xbe, 0xc3, 0x01, 0xf7, 0xbd, 0x9f, 0xd7, 0x91, 0xbe,
  0xc3, 0x7c, 0xad, 0x3e, 0x50, 0xde, 0xf9, 0xbe, 0x04, 0x7d, 0x6d, 0xbe,
  0x28, 0x28, 0x58, 0xbf, 0x0d, 0x48, 0xcc, 0x3e, 0xee, 0x92, 0xf0, 0x3e,
  0xae, 0x04, 0x2b, 0xbe, 0xb6, 0x98, 0x6c, 0x3e, 0x69, 0x03, 0xed, 0x3e,
  0xf8, 0x56, 0xe8, 0x3d, 0x98, 0x19, 0x9b, 0x3d, 0xb5, 0xf6, 0x43, 0xbd,
  0x73, 0x10, 0x3a, 0xbc, 0x9c, 0x97, 0x70, 0xbe, 0x03, 0x1a, 0x8e, 0xbe,
  0xfc, 0xd3, 0x3f, 0xbd, 0x13, 0x48, 0x0e, 0xbe, 0x10, 0x91, 0x40, 0xbe,
  0xac, 0xea, 0x06, 0x3e, 0xab, 0xa1, 0x41, 0xbe, 0x0c, 0x64, 0xc7, 0x3d,
  0x9b, 0x2a, 0x0c, 0x3d, 0x39, 0xa4, 0x79, 0x3d, 0x04, 0xf5, 0x58, 0xbe,
  0xb9, 0xec, 0xc2, 0x3d, 0x43, 0x80, 0x0e, 0xbe, 0xb8, 0xb5, 0x8c, 0x38,
  0xdc, 0x32, 0x61, 0xbd, 0x80, 0x98, 0x95, 0xbe, 0x48, 0x0e, 0x78, 0xbe,
  0xe0, 0x4f, 0x05, 0x3e, 0xcb, 0x40, 0x89, 0xbe, 0x9d, 0xd8, 0xd3, 0x3d,
  0x80, 0x88, 0x0d, 0x3b, 0x8c, 0xfe, 0x4e, 0xbe, 0x26, 0x49, 0x93, 0x3e,
  0xe3, 0xe0, 0x6c, 0xbe, 0x7c, 0xc1, 0xf0, 0xbd, 0x8f, 0xf7, 0x84, 0x3e,
  0x28, 0x54, 0x77, 0xbd, 0xbe, 0x89, 0xe8, 0xbd, 0xa0, 0x56, 0xc3, 0xbc,
  0x8e, 0xec, 0x77, 0xbe, 0xc0, 0x11, 0xb6, 0xbc, 0x13, 0x75, 0xfd, 0xbc,
  0x80, 0x77, 0xe1, 0x3d, 0xb9, 0x21, 0x6c, 0x3c, 0x40, 0xb3, 0x80, 0x3e,
  0x5c, 0x32, 0x66, 0x3e, 0x7c, 0x54, 0x95, 0x3c, 0x33, 0x6b, 0x45, 0x3e,
  0x9f, 0x4d, 0x9c, 0x3e, 0x16, 0xeb, 0x8d, 0x3d, 0x81, 0x64, 0x52, 0xbe,
  0x78, 0x57, 0x43, 0x3d, 0x37, 0x77, 0x99, 0x3b, 0x08, 0x21, 0x6b, 0x3d,
  0x2e, 0x95, 0x3d, 0xbe, 0x71, 0x81, 0x27, 0xbe, 0xec, 0x96, 0x1d, 0x3e,
  0x17, 0x42, 0x8a, 0xbe, 0x64, 0x3e, 0x1b, 0x3e, 0x5b, 0x7f, 0x84, 0x3e,
  0x6c, 0x65, 0x75, 0x3e, 0x2c, 0x98, 0xc3, 0x3e, 0x62, 0x96, 0xa3, 0x3d,
  0x01, 0xb5, 0x35, 0x3d, 0x80, 0xab, 0x15, 0x3d, 0x0a, 0x03, 0x03, 0x3d,
  0x16, 0x95, 0x6b, 0xbc, 0x9f, 0x6d, 0xaa, 0x3d, 0x4b, 0x92, 0xca, 0xbe,
  0x06, 0xba, 0xde, 0x3d, 0xa0, 0x6a, 0x8a, 0xbe, 0xb3, 0xb6, 0x73, 0xbd,
  0x60, 0x7c, 0x96, 0xbd, 0x4d, 0x9d, 0xce, 0x3e, 0x0e, 0x76, 0x1b, 0x3e,
  0x86, 0xe5, 0xb0, 0xbe, 0x9b, 0x32, 0xaa, 0xbc, 0x72, 0x73, 0x8e, 0x3d,
  0xa9, 0xed, 0x57, 0x3e, 0x5b, 0xde, 0x09, 0xbe, 0xd0, 0xf8, 0x9d, 0x3d,
  0x53, 0x08, 0x77, 0x3e, 0xd3, 0xb4, 0x0b, 0xbd, 0x05, 0xcc, 0x1b, 0xbe,
  0x19, 0xd9, 0x0e, 0x3f, 0x7f, 0xed, 0x24, 0x3e, 0x86, 0x0a, 0x8f, 0x3e,
  0x9e, 0x29, 0x2b, 0xbe, 0x3d, 0xcf, 0x68, 0x3c, 0x5b, 0x4e, 0x84, 0x3e,
  0x06, 0x42, 0x84, 0x3e, 0xaa, 0x03, 0x92, 0xbe, 0x9a, 0x12, 0xe4, 0xbd,
  0xe8, 0x0f, 0xea, 0xbe, 0xd8, 0x85, 0x7c, 0x3e, 0xa1, 0xcc, 0x02, 0xbe,
  0xe2, 0x3f, 0xde, 0x3d, 0x4f, 0xc8, 0x81, 0x3e, 0xc6, 0xe9, 0x1c, 0x3d,
  0x06, 0x77, 0x05, 0x3f, 0xf4, 0xc6, 0x3f, 0xbe, 0x9b, 0x99, 0xed, 0x3c,
  0x7f, 0xdb, 0x83, 0xbe, 0x66, 0x1b, 0xcf, 0x3d, 0x5d, 0xbb, 0xd5, 0x3d,
  0x6f, 0xd6, 0xc9, 0xbd, 0x65, 0xad, 0x62, 0xbe, 0x98, 0xb5, 0x7c, 0xbe,
  0x37, 0x68, 0x64, 0x3d, 0x96, 0x22, 0xaa, 0xbd, 0xf2, 0x68, 0x8e, 0x3e,
  0x24, 0x9b, 0xa1, 0xbe, 0x90, 0x11, 0x1b, 0x3f, 0x6d, 0xd9, 0xa2, 0x3e,
  0xa8, 0xef, 0xc3, 0x3d, 0x7a, 0x6b, 0x8f, 0xbe, 0xe4, 0x4f, 0xfa, 0x3e,
  0x1d, 0xaa, 0x04, 0x3f, 0x2c, 0x55, 0xc6, 0xbe, 0xcc, 0x40, 0x19, 0x3c,
  0xc9, 0xc8, 0x6b, 0xbe, 0x43, 0xb2, 0x2f, 0xbe, 0x6b, 0x88, 0x49, 0xbd,
  0xf8, 0x11, 0xdf, 0x3e, 0xd0, 0xb8, 0x0f, 0x3e, 0x15, 0xf9, 0xf6, 0x3c,
  0x1c, 0x55, 0x8c, 0x3d, 0x44, 0xf1, 0xd8, 0xbd, 0xa0, 0x0c, 0x35, 0x3e,
  0x86, 0x07, 0x31, 0x3e, 0x8c, 0x63, 0x7b, 0x3e, 0x84, 0xf6, 0x18, 0x3e,
  0x20, 0x1d, 0xe3, 0xbd, 0xac, 0x1d, 0xea, 0xbd, 0x8b, 0xf7, 0x1d, 0xbd,
  0xa7, 0x18, 0xde, 0xbe, 0xe0, 0x17, 0x53, 0x3e, 0x30, 0x53, 0x7e, 0x3e,
  0x72, 0x22, 0x0a, 0xbd, 0x23, 0xb2, 0xdd, 0x3d, 0x56, 0xf1, 0x51, 0xbe,
  0x56, 0xad, 0xc9, 0xbe, 0xc2, 0xb5, 0xa1, 0x3e, 0x2e, 0x97, 0xfe, 0xbc,
  0x1e, 0xa0, 0x49, 0x3e, 0x48, 0x0d, 0x49, 0xbe, 0x5c, 0x83, 0xa2, 0x3e,
  0x4c, 0x73, 0x79, 0x3e, 0x15, 0xd0, 0x6f, 0x3e, 0x4a, 0x14, 0xb5, 0x3c,
  0x2b, 0x09, 0x6d, 0x3e, 0x32, 0x5a, 0x55, 0x3e, 0x74, 0xc3, 0x9a, 0xbe,
  0xdf, 0x5d, 0xf8, 0x3e, 0x37, 0x40, 0x2c, 0x3e, 0x90, 0xfc, 0x92, 0x3d,
  0x00, 0x22, 0x78, 0x3b, 0x9c, 0xee, 0x2e, 0x3e, 0x57, 0x3b, 0x18, 0xbe,
  0x15, 0x4e, 0xab, 0xbe, 0xac, 0x4c, 0x82, 0xbd, 0xf0, 0x84, 0xb2, 0xbe,
  0x6d, 0xf5, 0xad, 0xbe, 0x76, 0x31, 0x8f, 0xbe, 0x82, 0x62, 0x60, 0xbe,
  0x50, 0x46, 0x8e, 0x3c, 0x43, 0x77, 0xd7, 0x3d, 0x78, 0xa4, 0xcb, 0xbb,
  0x45, 0x29, 0xde, 0xbd, 0x61, 0x73, 0xac, 0x3c, 0x2c, 0xe1, 0x99, 0x3e,
  0x2a, 0x7f, 0x9f, 0x3d, 0xd6, 0x33, 0x5f, 0xbd, 0x67, 0xc0, 0x43, 0x3e,
  0x3d, 0xfb, 0x7b, 0xbd, 0xaa, 0xd4, 0x7b, 0xbe, 0xcf, 0xab, 0x20, 0xbe,
  0xf3, 0xb2, 0x9b, 0x3c, 0xc4, 0x7b, 0x5a, 0x3e, 0x61, 0xc2, 0x21, 0xbd,
  0xe8, 0x4a, 0x23, 0xbd, 0x94, 0x15, 0x28, 0x3e, 0x92, 0xb2, 0x55, 0xbe,
  0xd7, 0x8b, 0xa7, 0xbd, 0x93, 0x56, 0x09, 0x3e, 0x5a, 0xba, 0x70, 0xbe,
  0xf0, 0x45, 0xf6, 0x3c, 0x80, 0x86, 0x4c, 0x3c, 0xda, 0x29, 0x96, 0x3e,
  0x94, 0x0f, 0xf4, 0xbd, 0x0b, 0x91, 0x17, 0xbe, 0xa1, 0xbc, 0xbb, 0x3d,
  0x9d, 0x8b, 0x09, 0x3e, 0x23, 0x09, 0xaf, 0xbd, 0x74, 0xab, 0x6c, 0x3d,
  0x97, 0x21, 0x2e, 0xbe, 0x77, 0x41, 0x36, 0x3e, 0x15, 0x2e, 0x9a, 0x3a,
  0xb5, 0x31, 0x42, 0x3e, 0xd5, 0x26, 0xcd, 0x3c, 0x51, 0xc5, 0x30, 0x3c,
  0xd5, 0x6f, 0x7d, 0xbd, 0x4a, 0x44, 0x43, 0x3e, 0xc7, 0xbe, 0x7d, 0x3d,
  0x70, 0x9b, 0x99, 0xbd, 0x38, 0xe3, 0xea, 0x3d, 0xfb, 0x76, 0x18, 0xbe,
  0x00, 0xd3, 0x2a, 0xbb, 0xe0, 0x42, 0x8e, 0xbe, 0x3f, 0xf6, 0x20, 0xbe,
  0x04, 0x02, 0x87, 0x3e, 0x0e, 0xbe, 0x31, 0xbf, 0x44, 0xc6, 0x3f, 0x3f,
  0x33, 0xab, 0x9d, 0xbe, 0x64, 0x96, 0x8f, 0x3e, 0x52, 0x23, 0x96, 0xbe,
  0x1a, 0xc0, 0x0c, 0x3f, 0xaa, 0x90, 0xa5, 0x3d, 0x73, 0x0c, 0xec, 0xbd,
  0xf9, 0xe4, 0xb7, 0xbe, 0x52, 0xa6, 0xdf, 0x3d, 0xe2, 0xa5, 0x21, 0x3e,
  0x00, 0x78, 0x9a, 0xbe, 0xcf, 0x10, 0x53, 0x3e, 0xcf, 0x28, 0xe1, 0xbe,
  0xee, 0xa4, 0xc4, 0xbe, 0x6c, 0x3b, 0x04, 0xbe, 0xc5, 0x56, 0xa6, 0x3d,
  0x71, 0x57, 0xb6, 0xbc, 0xea, 0x8e, 0xae, 0xbc, 0x36, 0x4c, 0x1a, 0x3e,
  0x35, 0x53, 0x74, 0x3d, 0x76, 0x14, 0x24, 0x3e, 0x04, 0xd9, 0xa4, 0x3e,
  0x6d, 0x0c, 0x7e, 0x3c, 0x56, 0x97, 0x22, 0xbe, 0x35, 0xd3, 0x1a, 0xbe,
  0xf2, 0xfa, 0x6e, 0xbe, 0x9e, 0x27, 0x26, 0x3e, 0x47, 0xe5, 0x8e, 0x3d,
  0x00, 0x32, 0xad, 0x3d, 0xd4, 0x0c, 0xc6, 0xbe, 0xd4, 0xd2, 0x9f, 0x3e,
  0xa4, 0xa8, 0x19, 0x3d, 0x12, 0x99, 0xad, 0xbe, 0xf9, 0x94, 0x3b, 0x3e,
  0xce, 0xcd, 0x26, 0xbe, 0xd9, 0x52, 0x6f, 0x3e, 0x74, 0x26, 0xa1, 0x3e,
  0xf8, 0x4a, 0xdc, 0xbe, 0xce, 0x04, 0x60, 0x3f, 0x64, 0x68, 0xa3, 0xbe,
  0x46, 0xe3, 0x00, 0x3d, 0xb5, 0x6c, 0x6b, 0x3d, 0xc8, 0xb1, 0x8f, 0x3e,
  0xca, 0x3d, 0x7b, 0x3d, 0x94, 0xbc, 0x57, 0x3e, 0xba, 0xaa, 0x1b, 0x3e,
  0x9b, 0x3d, 0x4d, 0x3e, 0x05, 0x62, 0x52, 0x3e, 0xa0, 0x0d, 0xb2, 0x3c,
  0x5e, 0x64, 0xb3, 0xbd, 0x6b, 0x76, 0x5f, 0xbe, 0x63, 0xe2, 0x6f, 0xbe,
  0x00, 0x59, 0x46, 0xbe, 0x6c, 0x21, 0x56, 0x3d, 0x0b, 0xa8, 0x3e, 0xbe,
  0x9e, 0x3b, 0x0a, 0xbe, 0xf5, 0x43, 0xdc, 0x3e, 0xb1, 0x74, 0x96, 0x3e,
  0xb1, 0x46, 0x49, 0xbe, 0xfc, 0xd9, 0xc0, 0x3e, 0x3c, 0xde, 0x28, 0xbe,
  0xcf, 0x45, 0x70, 0x3e, 0xb4, 0xf5, 0xa7, 0x3e, 0x4b, 0x00, 0xe5, 0x3e,
  0xe7, 0xea, 0xb7, 0x3c, 0x8f, 0x8a, 0xce, 0x3e, 0x4f, 0xff, 0xdb, 0x3d,
  0x5f, 0xa4, 0xd8, 0x3d, 0xfc, 0x93, 0x3b, 0x3e, 0xe2, 0xcd, 0x0a, 0xbe,
  0xeb, 0xb4, 0xb5, 0xbc, 0x87, 0xb6, 0x55, 0x3d, 0x93, 0x22, 0x43, 0xbd,
  0x5c, 0x8f, 0xb2, 0x3e, 0xde, 0x2b, 0x1b, 0x3e, 0xf8, 0x39, 0x93, 0xbe,
  0xec, 0xe1, 0xb1, 0xbe, 0x3b, 0x65, 0x6f, 0xbd, 0xb0, 0xb0, 0x4c, 0x3d,
  0xf5, 0xa6, 0x11, 0x3e, 0xa6, 0x84, 0xf6, 0xbe, 0xd3, 0x56, 0xb7, 0x3d,
  0x24, 0x45, 0x89, 0xbe, 0xbd, 0xbc, 0x26, 0xbf, 0xda, 0x0d, 0xb1, 0xbe,
  0xb7, 0xbe, 0x59, 0x3e, 0xab, 0xd7, 0x44, 0xbe, 0x26, 0xaf, 0x4c, 0xbe,
  0xa0, 0x35, 0x48, 0xbf, 0x76, 0x84, 0x84, 0x3e, 0x8f, 0x66, 0x38, 0x3d,
  0xd6, 0xdd, 0xe9, 0xbe, 0xb2, 0x90, 0x86, 0x3e, 0x80, 0x3e, 0x0d, 0x3e,
  0x72, 0x18, 0xc0, 0xbd, 0x20, 0xc3, 0x66, 0xbc, 0x56, 0x18, 0x89, 0xbe,
  0x3d, 0x6f, 0x2c, 0x3e, 0x58, 0x6a, 0xc2, 0x3d, 0xe9, 0x48, 0xcc, 0x3e,
  0x27, 0xca, 0xaf, 0x3e, 0x30, 0x87, 0x3d, 0x3e, 0x5c, 0x22, 0xa4, 0x3d,
  0x3c, 0x8d, 0x95, 0x3e, 0xa6, 0xde, 0xa9, 0x3e, 0x09, 0xd2, 0xda, 0x3d,
  0xbd, 0x9d, 0x10, 0xbe, 0xe0, 0xd2, 0x92, 0xbd, 0xa8, 0x6f, 0x7e, 0x3d,
  0x64, 0x50, 0xc9, 0xbe, 0x8f, 0x1a, 0xc4, 0xbb, 0x0f, 0xe6, 0x99, 0x3d,
  0x5e, 0x1b, 0x53, 0x3e, 0xdb, 0x00, 0x50, 0xbe, 0xc8, 0xe5, 0x0d, 0x3f,
  0x5c, 0xdf, 0xf1, 0xbe, 0xae, 0x69, 0x8b, 0xbd, 0xfe, 0x5d, 0xf5, 0xbe,
  0x28, 0x4f, 0x75, 0x3e, 0x08, 0xa9, 0x1f, 0xbe, 0xb5, 0x6d, 0xa0, 0x3e,
  0xbe, 0xc1, 0x3a, 0xbe, 0xfb, 0x05, 0xa8, 0x3e, 0x35, 0x1a, 0xf0, 0xbe,
  0x90, 0x39, 0x7a, 0x3e, 0x50, 0x67, 0xa5, 0xbc, 0xb6, 0x7b, 0x10, 0xbd,
  0xc9, 0xd0, 0xca, 0x3e, 0x3c, 0xeb, 0xb3, 0x3d, 0x29, 0x1b, 0xf6, 0xbd,
  0xd4, 0x1f, 0xe0, 0x3e, 0x57, 0x96, 0x9e, 0xbe, 0x56, 0xd8, 0xba, 0x3e,
  0xba, 0xae, 0xc5, 0x3e, 0x19, 0xef, 0xef, 0x3d, 0xed, 0xc1, 0x97, 0x3c,
  0x1c, 0x65, 0xfa, 0x3d, 0xe9, 0x32, 0x9f, 0x3e, 0x6a, 0x44, 0x1d, 0x3e,
  0x4c, 0x06, 0x71, 0xbe, 0x42, 0x08, 0xe7, 0xbe, 0x39, 0xbb, 0x11, 0x3f,
  0xf9, 0xb3, 0x10, 0xbe, 0x14, 0x5a, 0x0f, 0xbf, 0xc0, 0x93, 0xd3, 0x3d,
  0xb2, 0xa1, 0x1e, 0xbe, 0x50, 0x97, 0x05, 0xbe, 0xb5, 0x2b, 0xd4, 0xbe,
  0xb8, 0x22, 0x05, 0x3d, 0x2b, 0x23, 0x35, 0xbe, 0x22, 0x8f, 0x29, 0xbe,
  0xf7, 0x9a, 0x86, 0xbe, 0x3c, 0x34, 0x5e, 0xbe, 0x06, 0x59, 0x97, 0x3e,
  0xf7, 0x5f, 0xd9, 0xbe, 0xed, 0x2e, 0x08, 0xbe, 0x09, 0x32, 0x1d, 0xbe,
  0xd3, 0xb3, 0xbd, 0x3d, 0xd8, 0x73, 0x8c, 0x3e, 0xcf, 0x2b, 0xa4, 0x3e,
  0x8a, 0xb6, 0x1e, 0x3e, 0x51, 0xb7, 0xc5, 0xbe, 0xe4, 0xbd, 0x61, 0x3e,
  0x03, 0x5e, 0xbd, 0xbd, 0x30, 0xb5, 0xbe, 0xbe, 0xf6, 0xda, 0x19, 0x3e,
  0xf4, 0x50, 0xe0, 0xbd, 0xc8, 0xee, 0x3c, 0x3e, 0x72, 0x4c, 0x57, 0xbe,
  0x46, 0x75, 0xa9, 0xbd, 0x41, 0xa9, 0xb3, 0xbe, 0xf3, 0x85, 0x29, 0x3d,
  0xc6, 0x92, 0xc9, 0xbe, 0xb5, 0xb3, 0x0f, 0xbe, 0x14, 0x22, 0x73, 0xbd,
  0x98, 0x55, 0x08, 0xbd, 0x79, 0xc3, 0x8a, 0xbe, 0x78, 0x9b, 0xcc, 0xbe,
  0x00, 0x9a, 0xa5, 0xbb, 0xe1, 0xeb, 0x9e, 0x3d, 0x69, 0x1f, 0xdd, 0xbe,
  0xa0, 0xf9, 0x3e, 0x3e, 0x49, 0xe4, 0x5c, 0xbf, 0x79, 0x27, 0x78, 0x3e,
  0x3c, 0x28, 0x30, 0xbf, 0x86, 0x21, 0x50, 0x3e, 0x15, 0x2e, 0xe1, 0xbe,
  0x7d, 0x64, 0x31, 0x3e, 0xf2, 0xc6, 0x10, 0xbf, 0xaa, 0x4e, 0xa7, 0x3d,
  0xec, 0x3c, 0x5a, 0x3e, 0xd6, 0x5f, 0x6a, 0xbf, 0x0c, 0x5b, 0xaa, 0xbd,
  0xf0, 0x04, 0xbf, 0x3d, 0x8d, 0x64, 0x8e, 0xbe, 0xa0, 0xe3, 0x23, 0x3e,
  0x44, 0xe3, 0x12, 0x3e, 0x49, 0x49, 0xd6, 0x3e, 0x60, 0x94, 0x48, 0xbc,
  0xf5, 0xfe, 0xba, 0x3e, 0x07, 0x2b, 0x30, 0x3e, 0xb3, 0x50, 0x90, 0x3e,
  0xa8, 0x47, 0x7e, 0x3d, 0xac, 0x4d, 0x1b, 0x3e, 0x22, 0xc3, 0xf3, 0x3e,
  0x3f, 0x17, 0x23, 0xbe, 0xbe, 0xe5, 0xd7, 0xbe, 0x16, 0x7b, 0x90, 0x3e,
  0x14, 0x18, 0x73, 0x3e, 0xbb, 0x9b, 0xb5, 0xbe, 0x74, 0xa0, 0xb2, 0x3d,
  0xed, 0xa1, 0x9e, 0x3e, 0xa1, 0x30, 0xcd, 0xbd, 0x9a, 0xe5, 0xcc, 0xbe,
  0x33, 0x1f, 0x08, 0x3f, 0xef, 0x6a, 0x92, 0xbc, 0xf9, 0x5e, 0x3c, 0x3e,
  0xb6, 0x70, 0xd1, 0xbe, 0x74, 0x87, 0x70, 0x3e, 0x29, 0xb3, 0x8e, 0xbe,
  0x65, 0xb3, 0x1c, 0x3f, 0x94, 0x21, 0x2a, 0x3d, 0xe6, 0x18, 0xbe, 0x3e,
  0x5f, 0xe5, 0x96, 0xbe, 0xf8, 0xfa, 0x47, 0xbd, 0x64, 0x55, 0x38, 0xbe,
  0x1e, 0xce, 0xdc, 0xbb, 0x6d, 0x51, 0x81, 0x3e, 0x00, 0x22, 0x2d, 0xbe,
  0x2a, 0x40, 0x89, 0xbe, 0x85, 0x0e, 0xf0, 0x3e, 0x44, 0xe6, 0x52, 0xbd,
  0xbf, 0x92, 0x26, 0x3f, 0x95, 0xe2, 0xe7, 0x3e, 0xef, 0xba, 0xc6, 0x3e,
  0xf3, 0xae, 0x29, 0x3c, 0x61, 0x9c, 0xd4, 0x3e, 0x6a, 0xe7, 0x0b, 0x3f,
  0x97, 0x2d, 0xcf, 0x3d, 0x5b, 0x06, 0x8a, 0x3e, 0x7b, 0xa7, 0xff, 0x3b,
  0xc5, 0xec, 0xc1, 0x3e, 0x5a, 0x9d, 0xec, 0xbe, 0x48, 0x6e, 0xdc, 0xbe,
  0xc6, 0xcc, 0x33, 0xbe, 0x46, 0xcf, 0xff, 0xff, 0x04, 0x00, 0x00, 0x00,
  0xe0, 0x2e, 0x00, 0x00, 0xec, 0x06, 0x09, 0xbd, 0x1a, 0xd5, 0x52, 0x3e,
  0xc0, 0x9c, 0xa4, 0xbb, 0xe0, 0x9c, 0x67, 0xbc, 0xb2, 0xea, 0xe4, 0xbd,
  0x94, 0xa2, 0x2a, 0xbe, 0x24, 0xf1, 0x32, 0xbd, 0x56, 0xd9, 0x69, 0x3e,
  0x40, 0xcd, 0x9c, 0xbc, 0xcc, 0x67, 0xdc, 0x3d, 0x18, 0x29, 0x30, 0xbd,
  0x60, 0xff, 0x59, 0x3c, 0xe2, 0x3b, 0x39, 0xbe, 0xd5, 0xd6, 0x0b, 0xbe,
  0xe0, 0xb3, 0xfa, 0xbb, 0xca, 0xcc, 0xae, 0xbd, 0x4c, 0x03, 0x96, 0x3d,
  0x90, 0x08, 0x15, 0x3d, 0xf0, 0x89, 0x79, 0xbc, 0x62, 0xc3, 0x49, 0xbe,
  0x33, 0x99, 0x19, 0xbe, 0x4e, 0x05, 0x60, 0x3e, 0xb9, 0xda, 0xeb, 0xbd,
  0xf0, 0x04, 0x7a, 0x3d, 0xbe, 0x77, 0x45, 0xbe, 0x2a, 0xe7, 0x65, 0x3e,
  0x5c, 0x77, 0x4f, 0xbd, 0x66, 0x4e, 0x50, 0xbe, 0x58, 0x3b, 0x0e, 0xbe,
  0x78, 0x2f, 0xb2, 0x3d, 0xb6, 0x9a, 0x5a, 0x3e, 0x16, 0x18, 0x4e, 0xbe,
  0x00, 0x11, 0x87, 0x3c, 0xac, 0xbf, 0x40, 0xbd, 0xf0, 0x81, 0x37, 0x3e,
  0x19, 0xaf, 0x5f, 0xbe, 0x4c, 0xf6, 0x42, 0x3e, 0x34, 0x9d, 0xad, 0x3d,
  0x68, 0xc9, 0x80, 0xbc, 0x00, 0x14, 0x74, 0xbd, 0xfe, 0x2a, 0x4b, 0x3e,
  0xc0, 0x07, 0x54, 0xbe, 0x5a, 0x1b, 0x2c, 0x3e, 0x0a, 0xad, 0x97, 0xbd,
  0x1a, 0xe3, 0x4b, 0xbe, 0x28, 0x96, 0x5a, 0x3e, 0xa4, 0x57, 0x99, 0xbd,
  0x00, 0x2a, 0x4e, 0xba, 0x4a, 0x8d, 0xbe, 0xbd, 0xd8, 0xff, 0x39, 0x3e,
  0x9e, 0x8f, 0x00, 0xbe, 0x40, 0x56, 0x1b, 0xbc, 0x28, 0x9c, 0x22, 0xbe,
  0x40, 0x5d, 0x9f, 0x3c, 0x78, 0x59, 0x23, 0x3d, 0x03, 0x4c, 0x16, 0xbe,
  0xfe, 0x73, 0x64, 0xbe, 0x14, 0x77, 0xb2, 0xbd, 0x06, 0xa8, 0x03, 0x3e,
  0x3c, 0x5e, 0xb6, 0x3d, 0x12, 0x0d, 0x1e, 0x3e, 0xe4, 0x1d, 0x8c, 0x3d,
  0xb4, 0x2b, 0x07, 0xbe, 0xc9, 0x66, 0xb0, 0x3d, 0x5f, 0xf6, 0x85, 0x3e,
  0xdc, 0xb5, 0x5a, 0x3e, 0x67, 0x30, 0xd0, 0x3d, 0x84, 0xb9, 0xea, 0xbd,
  0x31, 0xce, 0xb5, 0xbd, 0x37, 0xaa, 0x28, 0xbd, 0xef, 0x92, 0x39, 0x3e,
  0xe2, 0x1b, 0x37, 0xbd, 0xb8, 0x5c, 0x7d, 0x3e, 0x07, 0x01, 0x2a, 0x3e,
  0x0c, 0x94, 0x0c, 0x3e, 0x85, 0x72, 0xd6, 0xbc, 0x6a, 0x30, 0xa9, 0x3b,
  0x43, 0xd3, 0xba, 0xbd, 0x44, 0xf7, 0x18, 0xbe, 0x3e, 0x56, 0x33, 0x3e,
  0x07, 0x8f, 0xb8, 0x3d, 0x8a, 0x90, 0x5c, 0x3b, 0x7a, 0x6e, 0x18, 0x3e,
  0x08, 0xe2, 0x8c, 0x3e, 0x13, 0x15, 0xef, 0x3d, 0x62, 0x2a, 0xdc, 0x3d,
  0x56, 0xb8, 0x7e, 0xbd, 0xad, 0x1d, 0x2e, 0x3e, 0xda, 0x77, 0x2e, 0x3e,
  0x9c, 0x67, 0xfc, 0x3d, 0x9c, 0xc5, 0x50, 0x3e, 0xf8, 0xcf, 0x29, 0x3e,
  0xca, 0xf0, 0x6c, 0x3d, 0x10, 0x71, 0xb3, 0xb9, 0x79, 0xd1, 0xd4, 0x3c,
  0x51, 0x26, 0x56, 0x3d, 0x5a, 0x6c, 0x27, 0xbe, 0x29, 0x5c, 0x38, 0x3c,
  0xf9, 0xb8, 0x0a, 0xbd, 0x6a, 0x22, 0x5e, 0xbd, 0x56, 0x7b, 0x5d, 0xbc,
  0xc1, 0x38, 0x67, 0x3e, 0xd1, 0xe6, 0x7e, 0x3d, 0x77, 0xa7, 0x43, 0x3e,
  0x91, 0x5b, 0x8e, 0x3e, 0x21, 0x03, 0xb8, 0x3e, 0x08, 0xf9, 0x88, 0x3e,
  0x04, 0xee, 0x2f, 0x3e, 0x62, 0x2e, 0xff, 0x3d, 0x51, 0xcf, 0x08, 0x3d,
  0xb8, 0xda, 0x57, 0x3e, 0x1f, 0x05, 0x9e, 0x3d, 0x38, 0x7e, 0x26, 0xbe,
  0xf2, 0x8b, 0x02, 0x3e, 0x10, 0xac, 0x64, 0x3d, 0x4d, 0xed, 0x29, 0x3d,
  0x19, 0xa2, 0x33, 0x3c, 0x83, 0x1f, 0x49, 0x3d, 0x93, 0x6c, 0x4b, 0x3e,
  0x57, 0x40, 0x6d, 0xbe, 0x8d, 0xa5, 0x4a, 0xbc, 0x5f, 0xf1, 0x7d, 0xbc,
  0x29, 0x84, 0x46, 0x3c, 0x8b, 0xcb, 0xb3, 0xbd, 0x4b, 0x08, 0x92, 0xbe,
  0xec, 0xe5, 0x1e, 0xbe, 0xab, 0x82, 0x57, 0xbe, 0x09, 0xa2, 0x45, 0xbe,
  0x3b, 0xbc, 0xaf, 0xbe, 0x0d, 0x4d, 0x5a, 0xbe, 0x1e, 0x8e, 0x33, 0xbe,
  0x06, 0xb0, 0x00, 0xbc, 0x45, 0x7f, 0xd7, 0xbd, 0x4c, 0x58, 0x94, 0xbd,
  0x0c, 0xdf, 0xda, 0xbc, 0x35, 0x00, 0x12, 0xbe, 0x92, 0x74, 0x67, 0xbe,
  0xa9, 0x3e, 0x36, 0x3d, 0xcf, 0xfc, 0x91, 0xbe, 0x0e, 0x09, 0x3b, 0xbe,
  0xfb, 0xd3, 0x45, 0x3e, 0x13, 0x77, 0x91, 0xbd, 0xe4, 0x77, 0x1a, 0x3c,
  0xb0, 0x57, 0xcb, 0xbc, 0x93, 0x71, 0xf5, 0x3c, 0x3c, 0xdf, 0xdc, 0xbd,
  0x3a, 0xd4, 0x36, 0x3e, 0x61, 0xd2, 0xeb, 0x3d, 0xfc, 0xd8, 0x1b, 0x3e,
  0xfb, 0xbb, 0x00, 0xbe, 0x8e, 0xf5, 0xb2, 0x3d, 0x2d, 0xa3, 0x35, 0xbe,
  0x26, 0xc4, 0xe9, 0x3d, 0x59, 0x3f, 0xde, 0x3d, 0xd2, 0x6e, 0x2e, 0x3e,
  0x90, 0x87, 0x1d, 0x3e, 0x0b, 0x25, 0xda, 0x3d, 0xa5, 0xe8, 0xcf, 0xbd,
  0xe4, 0xc4, 0x05, 0x3e, 0x0d, 0x01, 0x58, 0x3e, 0xae, 0xd1, 0xbe, 0x3d,
  0xc2, 0xe2, 0xd9, 0xbb, 0x10, 0x0e, 0xcd, 0xbd, 0x36, 0xc3, 0x9f, 0xbc,
  0x6b, 0xb5, 0x97, 0x3e, 0xe7, 0xf7, 0x65, 0x3e, 0x34, 0xeb, 0xa5, 0xbd,
  0xa1, 0xf1, 0x15, 0x3e, 0xd5, 0xe0, 0x37, 0x3e, 0x38, 0x9b, 0xa5, 0x3d,
  0x4b, 0x3a, 0x96, 0xbd, 0x32, 0xb5, 0x9a, 0xbc, 0x2c, 0x91, 0xbc, 0x3d,
  0x2c, 0xe8, 0x5e, 0x3e, 0xc4, 0x36, 0x56, 0xbd, 0x9e, 0xf3, 0x0d, 0x3d,
  0xbf, 0x98, 0xb7, 0x3c, 0xf5, 0xfe, 0x24, 0x3e, 0x1d, 0xbd, 0x10, 0x3e,
  0xa2, 0xb5, 0x88, 0xbc, 0x29, 0x4c, 0x3a, 0xbe, 0xde, 0xf6, 0x1f, 0x3e,
  0x6c, 0x6a, 0x5e, 0xbe, 0xb6, 0xb7, 0x03, 0x3e, 0xba, 0x83, 0x1d, 0x3e,
  0xc6, 0x93, 0x64, 0x3e, 0x48, 0x88, 0x15, 0xbe, 0x4e, 0x22, 0x40, 0x3e,
  0xc0, 0x7d, 0x4b, 0x3e, 0x00, 0xc3, 0x97, 0x3c, 0x6c, 0x67, 0xd1, 0xbd,
  0x98, 0xdd, 0xd5, 0xbd, 0xae, 0x87, 0xc0, 0xbd, 0x10, 0x7e, 0xff, 0x3d,
  0x40, 0xc1, 0xda, 0xbc, 0x72, 0xc7, 0xb3, 0xbd, 0xa4, 0xee, 0x8d, 0xbd,
  0xd8, 0xce, 0x1c, 0xbe, 0xf6, 0x2d, 0x57, 0xbe, 0xce, 0xdb, 0x91, 0xbd,
  0x3b, 0xaf, 0x37, 0xbe, 0x32, 0x32, 0x5d, 0xbe, 0xd0, 0x3b, 0x82, 0x3c,
  0xe2, 0x4b, 0x34, 0x3e, 0x14, 0xfe, 0x9e, 0x3d, 0x54, 0xbe, 0x55, 0xbe,
  0x76, 0xc6, 0x1f, 0x3e, 0x18, 0x01, 0xcb, 0x3d, 0x48, 0xd7, 0xe9, 0xbd,
  0xc6, 0x27, 0x5e, 0x3e, 0xb0, 0xa5, 0x60, 0xbd, 0x58, 0x80, 0x3a, 0x3e,
  0xc8, 0x95, 0x16, 0xbe, 0xa8, 0x4f, 0x67, 0x3d, 0x50, 0xa3, 0xac, 0x3c,
  0xc4, 0x4a, 0xb7, 0x3d, 0x6c, 0xf4, 0x28, 0xbe, 0xba, 0x5f, 0x03, 0xbe,
  0xf0, 0x55, 0x66, 0xbe, 0x88, 0x1e, 0x66, 0x3e, 0xf4, 0xca, 0xad, 0xbd,
  0xf1, 0x29, 0x67, 0xbe, 0x4a, 0xc3, 0x33, 0xbe, 0xbe, 0x69, 0x9f, 0xbd,
  0x70, 0x53, 0x50, 0x3e, 0xd3, 0x3d, 0x65, 0xbe, 0x64, 0xce, 0xaa, 0x3d,
  0x04, 0x8b, 0x36, 0xbd, 0x10, 0x0b, 0x5d, 0x3e, 0xe5, 0xc9, 0x17, 0xbe,
  0xac, 0x1a, 0x1b, 0x3e, 0x26, 0x9a, 0x0b, 0x3e, 0x41, 0xfe, 0xe5, 0xbd,
  0x35, 0x45, 0x1c, 0xbe, 0x28, 0x46, 0x2d, 0xbd, 0x60, 0xee, 0xd0, 0x3d,
  0x00, 0x4b, 0x64, 0x3c, 0x6f, 0xe0, 0x12, 0xbe, 0x26, 0x21, 0x2e, 0xbe,
  0xe2, 0x14, 0xe3, 0xbd, 0x57, 0x7b, 0x4f, 0xbe, 0x31, 0x32, 0x1c, 0xbe,
  0x05, 0xcd, 0x01, 0x3d, 0xb3, 0x8a, 0x79, 0xbe, 0xab, 0xc6, 0x27, 0xbe,
  0x00, 0x0a, 0x55, 0xbc, 0xf5, 0xa8, 0xcb, 0x3d, 0x44, 0xfa, 0xf1, 0x3d,
  0x84, 0xd2, 0x2e, 0xbd, 0xb7, 0x82, 0xb2, 0x3d, 0xd0, 0x2a, 0x9f, 0xbe,
  0xd9, 0x1e, 0x2a, 0xbe, 0xbe, 0xaa, 0x12, 0xbe, 0xd0, 0xa4, 0x38, 0xbd,
  0xd8, 0xeb, 0x9b, 0xbe, 0x84, 0x95, 0x0b, 0xbd, 0x3e, 0x1c, 0x8c, 0xbe,
  0x72, 0x28, 0x25, 0xbe, 0x85, 0x05, 0xfb, 0xbb, 0xfa, 0x50, 0x17, 0xbe,
  0x37, 0x87, 0x42, 0x3e, 0xb3, 0x3f, 0x0c, 0xbd, 0xe6, 0x9a, 0xac, 0xbd,
  0xf3, 0x2e, 0xa8, 0x3d, 0x66, 0xce, 0xdf, 0x3c, 0x7d, 0xf4, 0x85, 0x3d,
  0x62, 0xc8, 0x28, 0xbd, 0xae, 0x96, 0x2f, 0x3e, 0x9f, 0x4f, 0x61, 0x3e,
  0x92, 0x26, 0x9e, 0xbc, 0x90, 0x5a, 0x69, 0x3e, 0xd7, 0x5a, 0x4e, 0x3e,
  0x22, 0x02, 0xb6, 0xbc, 0x04, 0x05, 0x53, 0x3e, 0x80, 0x0a, 0x37, 0xbd,
  0x20, 0xf9, 0xb0, 0xbd, 0x8b, 0xaa, 0x21, 0xbe, 0x01, 0x0e, 0xa3, 0x3d,
  0x60, 0xbe, 0x80, 0xbd, 0x9d, 0xe2, 0x2e, 0x3e, 0x9e, 0xe7, 0xb9, 0x3e,
  0xe7, 0x6b, 0xa4, 0x3d, 0x38, 0xc2, 0xd7, 0x3e, 0x70, 0xbf, 0xbf, 0x3e,
  0xe4, 0x0b, 0xcc, 0x3e, 0x8e, 0x23, 0x88, 0x3e, 0xce, 0x7b, 0x94, 0x3e,
  0xad, 0x78, 0x17, 0x3d, 0x07, 0x51, 0xa9, 0x3e, 0x12, 0x13, 0xa3, 0x3e,
  0xcd, 0xa0, 0x4b, 0x3d, 0x7a, 0xf3, 0x94, 0x3e, 0x76, 0x4f, 0x58, 0x3e,
  0x4e, 0xfb, 0x83, 0x3e, 0xe4, 0x6b, 0xfd, 0x3d, 0xb0, 0x67, 0xe3, 0x3c,
  0xfb, 0x98, 0x50, 0x3e, 0xee, 0x7a, 0x80, 0xbd, 0x6f, 0x17, 0x8a, 0x3e,
  0xc0, 0xb5, 0x78, 0x3e, 0x5e, 0x36, 0xb3, 0x3d, 0x5f, 0x1d, 0x1f, 0x3e,
  0x66, 0xf9, 0x27, 0xbd, 0x4d, 0xf8, 0x7b, 0xbd, 0x78, 0xfb, 0x16, 0x3e,
  0xdc, 0xed, 0x2c, 0x3a, 0x52, 0x81, 0xad, 0x3c, 0x5e, 0xf3, 0x72, 0xbe,
  0xd7, 0x01, 0x3b, 0xbc, 0x7f, 0x38, 0x11, 0xbe, 0x27, 0xf9, 0x59, 0x3e,
  0x7d, 0x77, 0x88, 0xbd, 0x9c, 0x8d, 0xfb, 0xbd, 0xa9, 0x1d, 0xea, 0xbd,
  0x4e, 0x84, 0x63, 0xbe, 0x61, 0xc9, 0x10, 0xbe, 0x3a, 0xc7, 0xd3, 0xbc,
  0x6b, 0x4d, 0x5e, 0xbe, 0x6a, 0x47, 0x4d, 0x3e, 0xa5, 0xc2, 0xf3, 0x3d,
  0x73, 0xf9, 0xac, 0x3d, 0x3d, 0x88, 0x5a, 0x3e, 0x5c, 0x5a, 0x18, 0xbd,
  0x66, 0x5b, 0xa2, 0x3e, 0x43, 0xc0, 0x29, 0x3e, 0xeb, 0x82, 0x37, 0x3e,
  0x92, 0xd3, 0xaf, 0x3c, 0x42, 0x3e, 0x51, 0x3e, 0x95, 0x46, 0xa7, 0x3e,
  0x3a, 0x8b, 0x8c, 0x3e, 0x04, 0x61, 0xbe, 0xbd, 0x8e, 0x49, 0x1a, 0x3e,
  0x40, 0x3e, 0x25, 0x3e, 0xa7, 0x63, 0xf1, 0xbd, 0x8e, 0xe4, 0x26, 0x3c,
  0xbe, 0xfb, 0xab, 0x3e, 0xed, 0x37, 0x9e, 0x3c, 0xe3, 0x0d, 0x8d, 0x3e,
  0xf6, 0x98, 0xd9, 0xbd, 0xe1, 0x5d, 0x2e, 0x3d, 0x37, 0x54, 0xd3, 0xbe,
  0x3b, 0xb8, 0x4c, 0xbe, 0x66, 0x62, 0x07, 0xbe, 0x8f, 0x99, 0x2f, 0xbe,
  0x88, 0x5b, 0x32, 0xbd, 0x65, 0xeb, 0x8d, 0xbd, 0x41, 0x2f, 0x2a, 0xbe,
  0x5a, 0xfb, 0xe6, 0xbd, 0x1e, 0x84, 0xac, 0xbe, 0xc6, 0x0f, 0xbe, 0xbe,
  0x10, 0x44, 0x08, 0xbe, 0xc8, 0x9a, 0x42, 0x3c, 0x83, 0x66, 0x33, 0x3c,
  0xfa, 0xd0, 0xab, 0xbe, 0x07, 0xc3, 0x2a, 0xbe, 0x84, 0x6c, 0x6b, 0xbe,
  0x14, 0xd9, 0xb4, 0xbd, 0x36, 0x7e, 0x89, 0xbe, 0x64, 0xf5, 0x35, 0xbe,
  0x59, 0x8c, 0x20, 0xbb, 0x63, 0xc0, 0x5b, 0xbe, 0x82, 0x01, 0xd0, 0xbe,
  0x9d, 0x7f, 0xa3, 0xbe, 0xa9, 0x67, 0xd4, 0xbd, 0x6e, 0x04, 0xb5, 0xbe,
  0xb7, 0xdf, 0x14, 0xbe, 0x8d, 0x8f, 0xa2, 0xbe, 0xa6, 0x8d, 0x86, 0xbc,
  0xd6, 0xfe, 0x86, 0xbe, 0x9a, 0x55, 0x6f, 0xbe, 0x98, 0xb3, 0x35, 0xbe,
  0x94, 0x8c, 0x9d, 0x3c, 0x22, 0xb2, 0xfb, 0xbd, 0x43, 0x95, 0x16, 0xbd,
  0x42, 0x7d, 0xac, 0xbe, 0xef, 0x89, 0x50, 0xbd, 0x1e, 0x91, 0x92, 0x3c,
  0x96, 0xba, 0xca, 0xbe, 0x9f, 0xd1, 0x4d, 0xbe, 0x55, 0x4c, 0x3a, 0xbe,
  0xa0, 0x17, 0xa1, 0x3c, 0xd4, 0xad, 0xdf, 0x3d, 0xc9, 0xf5, 0x2f, 0x3d,
  0x74, 0xcd, 0xa2, 0x3d, 0xe2, 0xfb, 0x21, 0xbe, 0xcc, 0x6c, 0x97, 0xbd,
  0x9b, 0xe5, 0x41, 0xbd, 0xd5, 0x22, 0x2f, 0x3d, 0xc7, 0xb6, 0x3a, 0xbe,
  0x66, 0xc4, 0x3e, 0xbe, 0xe1, 0x24, 0x09, 0xbe, 0xd2, 0x6e, 0xf9, 0x3d,
  0xce, 0x43, 0xcc, 0x3d, 0xdd, 0x9e, 0xbe, 0x3d, 0x69, 0xfd, 0xf5, 0xb9,
  0x2c, 0xc5, 0x91, 0xbc, 0x0b, 0xef, 0x88, 0xbd, 0xf4, 0x21, 0x22, 0xbe,
  0xb2, 0xb2, 0x5f, 0xbe, 0x21, 0x34, 0x70, 0xbe, 0x67, 0x8e, 0x79, 0x3e,
  0xe2, 0x50, 0x95, 0x3e, 0x98, 0xec, 0x12, 0x3e, 0xa0, 0x3f, 0x88, 0x3e,
  0x25, 0xd7, 0x1e, 0x3e, 0x87, 0xc3, 0x50, 0x3e, 0x82, 0x1b, 0x64, 0x3d,
  0x49, 0x66, 0x24, 0xbe, 0xda, 0x4e, 0x0a, 0xbe, 0x58, 0x50, 0x21, 0x3e,
  0x67, 0x79, 0x1e, 0xbc, 0x91, 0x6b, 0x0c, 0xbe, 0x0b, 0xbe, 0x31, 0x3e,
  0xaf, 0x1e, 0xd8, 0x3d, 0x93, 0xc5, 0x70, 0x3e, 0xd3, 0xb6, 0x9b, 0x3e,
  0x8a, 0xcc, 0x73, 0x3e, 0xb6, 0xe6, 0x7e, 0x3c, 0x64, 0x97, 0x1b, 0xbe,
  0x93, 0xe8, 0x8d, 0x3c, 0xb0, 0xef, 0x24, 0xbd, 0x28, 0x74, 0x32, 0x3e,
  0x3e, 0x67, 0x2d, 0x3e, 0x9c, 0xc5, 0x28, 0xbe, 0x80, 0x1c, 0x08, 0x3e,
  0x0e, 0x44, 0x63, 0x3e, 0x3a, 0x3f, 0x0e, 0xbe, 0x68, 0x1e, 0x46, 0x3d,
  0x60, 0x1c, 0xf1, 0x3c, 0x50, 0x47, 0x36, 0xbe, 0x3a, 0x9c, 0x34, 0xbe,
  0x88, 0x60, 0x04, 0xbd, 0x4c, 0x7f, 0x58, 0xbe, 0xb8, 0x77, 0xa4, 0x3d,
  0xf4, 0x59, 0xd2, 0x3d, 0x50, 0xb6, 0xa8, 0x3c, 0xa0, 0x36, 0x90, 0xbb,
  0x40, 0xff, 0x83, 0xbc, 0xd0, 0xb5, 0xf7, 0x3d, 0x5e, 0x6d, 0x30, 0x3e,
  0xe0, 0xfb, 0x67, 0x3d, 0x46, 0xaf, 0x0f, 0xbe, 0xb8, 0x42, 0xde, 0xbd,
  0x5c, 0x49, 0xbf, 0x3d, 0x20, 0x6f, 0xdb, 0x3c, 0x88, 0x72, 0x68, 0x3d,
  0x87, 0x96, 0x46, 0xbe, 0x93, 0x74, 0x45, 0xbe, 0x9c, 0x8a, 0xa2, 0x3d,
  0x70, 0xa2, 0xc1, 0x3c, 0xfe, 0xb8, 0xc4, 0xbd, 0x66, 0x3d, 0x45, 0xbe,
  0x53, 0xe0, 0x51, 0xbe, 0xe4, 0x8d, 0x97, 0x3d, 0x81, 0x72, 0xea, 0xbd,
  0xd8, 0x70, 0x02, 0xbe, 0x70, 0xfb, 0x0c, 0xbe, 0xd8, 0xac, 0x70, 0x3d,
  0x1d, 0xc8, 0x15, 0xbe, 0x5e, 0xf7, 0x62, 0xbe, 0xe4, 0xc2, 0x58, 0x3e,
  0x0c, 0xd6, 0x1c, 0xbd, 0x80, 0x0a, 0xd3, 0x3a, 0xee, 0xd9, 0xf9, 0xbd,
  0x40, 0x1e, 0x6f, 0x3d, 0xb2, 0xd4, 0x67, 0xbe, 0x7b, 0xbb, 0xfe, 0xbd,
  0x3c, 0xfb, 0xcd, 0x3d, 0x08, 0x93, 0x02, 0x3e, 0xf8, 0xa5, 0x45, 0xbe,
  0xc4, 0x14, 0xeb, 0x3d, 0x44, 0x01, 0xe2, 0x3d, 0xc8, 0x6f, 0x70, 0x3d,
  0x38, 0x11, 0xfe, 0x3d, 0x50, 0x48, 0xb8, 0x3c, 0xe7, 0x1f, 0x10, 0xbe,
  0x5a, 0x60, 0x31, 0xbe, 0x54, 0xf6, 0xc1, 0xbd, 0xc8, 0xda, 0x4b, 0x3e,
  0x12, 0x0f, 0xeb, 0xbd, 0x91, 0x3e, 0x12, 0xbe, 0xb6, 0xcb, 0xc3, 0x3d,
  0x0b, 0x15, 0x00, 0xbe, 0x53, 0x7e, 0x17, 0x3d, 0x1f, 0x0c, 0x38, 0x3e,
  0xd4, 0x9b, 0x17, 0xbe, 0x95, 0x98, 0x23, 0xbe, 0x5f, 0xca, 0x25, 0x3e,
  0x18, 0x90, 0x9e, 0xbd, 0x12, 0xc4, 0x59, 0xbe, 0x89, 0x0e, 0xb7, 0xbd,
  0x87, 0x2d, 0x60, 0xbc, 0x22, 0x5c, 0x20, 0xbd, 0x09, 0x1c, 0x91, 0x3d,
  0x2b, 0xa6, 0x96, 0x3d, 0x85, 0x97, 0x37, 0xbd, 0xd2, 0x66, 0xb1, 0xbd,
  0xed, 0x3a, 0xf3, 0x3c, 0xf9, 0xe8, 0xd5, 0x3d, 0xc1, 0x0b, 0x7e, 0x3d,
  0x0e, 0xe9, 0x4c, 0x3e, 0x3b, 0xe3, 0x42, 0xbe, 0x01, 0x31, 0x6b, 0xbe,
  0x2f, 0x2c, 0xd7, 0xbc, 0x3e, 0xf6, 0x31, 0x3e, 0xfc, 0xb0, 0x4b, 0x3e,
  0xd5, 0x93, 0x11, 0x3e, 0x3f, 0x27, 0x71, 0xbe, 0xf2, 0x0e, 0x34, 0x3d,
  0x88, 0xc5, 0x3e, 0x3d, 0x6e, 0xc5, 0x31, 0x3e, 0xd2, 0xcc, 0x4a, 0xbd,
  0x2e, 0xb1, 0xf5, 0x3d, 0xdd, 0x91, 0x35, 0xbd, 0xe7, 0xa6, 0x2a, 0xbe,
  0x38, 0xe8, 0x81, 0xbd, 0xba, 0x32, 0x58, 0x3d, 0x5b, 0xdc, 0x11, 0xbe,
  0x81, 0x4c, 0x38, 0xbe, 0x9a, 0x44, 0x43, 0xbe, 0x7b, 0x1f, 0x83, 0xbc,
  0x66, 0xeb, 0xec, 0xbd, 0x3e, 0x04, 0x49, 0x3e, 0x8a, 0xc1, 0xdb, 0x3d,
  0x83, 0x85, 0x38, 0xbe, 0xff, 0xe9, 0x8f, 0x3d, 0x50, 0x29, 0x2f, 0xbe,
  0x82, 0xe2, 0x27, 0xbe, 0xbc, 0xef, 0xe4, 0xbd, 0x22, 0xdc, 0x37, 0x3e,
  0x00, 0x5c, 0x30, 0x3d, 0x1d, 0x90, 0x5b, 0x3d, 0x5f, 0x03, 0x87, 0x3d,
  0x7d, 0xb0, 0x4b, 0x3d, 0x64, 0xbb, 0xc1, 0x3c, 0x33, 0x00, 0xab, 0x3d,
  0x43, 0x88, 0x71, 0xbe, 0x7c, 0xfa, 0x7f, 0xbc, 0xb4, 0x6d, 0xa0, 0xbd,
  0x2d, 0x4d, 0x58, 0x3e, 0x1a, 0x5d, 0xb1, 0xbd, 0x65, 0x23, 0xd8, 0xbd,
  0x66, 0x2c, 0x06, 0xbe, 0x27, 0x4b, 0x2c, 0xbd, 0x05, 0x5b, 0x43, 0xbe,
  0x3b, 0x20, 0x23, 0x3e, 0xaa, 0x46, 0x3f, 0xbe, 0x8a, 0x0e, 0x1e, 0xbe,
  0x97, 0x08, 0x39, 0x3d, 0xbe, 0x23, 0x67, 0x3e, 0xbf, 0xcd, 0x47, 0xbd,
  0x75, 0xde, 0x09, 0x3e, 0xb8, 0x12, 0xba, 0xbd, 0xa1, 0x28, 0xfa, 0x3d,
  0x0d, 0xab, 0xca, 0xbd, 0x7e, 0xe7, 0x3b, 0xbe, 0xbc, 0x21, 0x9a, 0x3d,
  0x19, 0x86, 0x05, 0xbe, 0x1f, 0x09, 0xfa, 0x3d, 0x1b, 0x53, 0xcd, 0x3d,
  0xdb, 0xf3, 0x99, 0x3e, 0xd3, 0x83, 0x73, 0x3e, 0x3a, 0x45, 0x01, 0x3d,
  0xf3, 0x50, 0x02, 0xbe, 0x9b, 0x37, 0x06, 0x3e, 0x89, 0x3a, 0xdc, 0x3c,
  0x2b, 0x7e, 0xe1, 0x3d, 0x33, 0x1a, 0x7b, 0x3e, 0x6a, 0x30, 0x22, 0xbe,
  0x72, 0x28, 0xd0, 0x3d, 0xcf, 0x34, 0xdc, 0x3d, 0xff, 0x5b, 0x6f, 0x3e,
  0xf7, 0xef, 0x15, 0xbe, 0x73, 0xc2, 0x3d, 0x3e, 0x71, 0x95, 0x91, 0x3e,
  0xd5, 0xc8, 0x96, 0x3d, 0x73, 0xdd, 0x32, 0x3e, 0xe6, 0xdb, 0x94, 0x3e,
  0x32, 0x20, 0x78, 0x3e, 0x7a, 0x8a, 0x72, 0xbd, 0x17, 0x36, 0x94, 0xbe,
  0x1a, 0x41, 0x4d, 0xbd, 0x25, 0x6f, 0x02, 0x3e, 0xd6, 0x25, 0x50, 0x3d,
  0xdd, 0xb2, 0x93, 0x3d, 0x04, 0xa1, 0x9d, 0xbc, 0x30, 0x81, 0xf8, 0x3c,
  0x58, 0xe1, 0x6a, 0xbe, 0x8c, 0xb4, 0x4a, 0xbd, 0xd9, 0x73, 0x61, 0xbd,
  0xd1, 0x66, 0xa2, 0xbd, 0xd0, 0xe6, 0x6f, 0x3e, 0xde, 0x95, 0x43, 0xbe,
  0x97, 0x8c, 0x8f, 0x3d, 0xf0, 0x2d, 0xda, 0x3d, 0x3b, 0xf4, 0x4f, 0xbd,
  0x29, 0x8d, 0xd6, 0x3d, 0xeb, 0x02, 0x59, 0xbd, 0x70, 0x7f, 0x57, 0x3e,
  0xb5, 0xc7, 0x28, 0xbd, 0xa4, 0x06, 0x85, 0xbd, 0xfa, 0xaa, 0x95, 0xbd,
  0xa1, 0x34, 0x98, 0xbd, 0x8b, 0xfb, 0x37, 0x3e, 0x8f, 0xb1, 0x9a, 0xbd,
  0xa3, 0xa0, 0xd9, 0x3d, 0x4d, 0x86, 0x43, 0xbd, 0x73, 0x95, 0x85, 0x3e,
  0x95, 0x77, 0x22, 0x3e, 0x6c, 0x07, 0x70, 0x3e, 0x34, 0xcc, 0xeb, 0xbd,
  0x1e, 0x21, 0x18, 0x3d, 0x71, 0xcd, 0xbc, 0x3d, 0x2e, 0x65, 0xc0, 0x3d,
  0xc9, 0xae, 0x13, 0x3e, 0x19, 0x6f, 0xa8, 0x3d, 0xd7, 0xee, 0x1b, 0x3e,
  0x32, 0xb2, 0x41, 0x3d, 0xf0, 0xf7, 0x73, 0xbc, 0xa4, 0xce, 0x25, 0x3e,
  0x87, 0xb9, 0xda, 0x3b, 0x79, 0x1a, 0x51, 0x3e, 0x7a, 0x0b, 0x18, 0x3e,
  0x60, 0x12, 0x63, 0xbc, 0xb7, 0x0f, 0xd3, 0xbd, 0x6c, 0x02, 0x1a, 0xbe,
  0x9e, 0x56, 0x35, 0x3e, 0x8e, 0x51, 0x9f, 0xbc, 0x2c, 0x48, 0xdb, 0xbd,
  0x61, 0xe9, 0x47, 0xbe, 0xcd, 0x87, 0x32, 0x3e, 0x62, 0x31, 0x55, 0x3e,
  0xae, 0xd8, 0xa1, 0x3d, 0xe4, 0xf9, 0x85, 0x3e, 0x32, 0x47, 0x9c, 0xbd,
  0x16, 0xc6, 0xe4, 0xbc, 0x9a, 0xc9, 0xf2, 0xbd, 0x05, 0x4b, 0x8b, 0x3e,
  0x1f, 0x85, 0x2b, 0x3e, 0xce, 0x6d, 0x85, 0x3d, 0xfc, 0x07, 0xb2, 0xbe,
  0x16, 0xff, 0x91, 0xbe, 0x84, 0x61, 0x41, 0xbe, 0xfc, 0xb9, 0xa0, 0xbe,
  0x17, 0xbe, 0x49, 0xbe, 0xf4, 0xa5, 0x23, 0xbe, 0x40, 0xb4, 0x1c, 0xbe,
  0x99, 0x99, 0x89, 0xbe, 0x8a, 0x4a, 0x90, 0xbe, 0xed, 0xaf, 0xae, 0xbe,
  0x28, 0x4c, 0x12, 0xbe, 0x4f, 0xd2, 0x9e, 0xbe, 0x30, 0xe9, 0xcf, 0xbe,
  0xc5, 0xd4, 0xf7, 0xbd, 0x56, 0xfc, 0xdf, 0xbd, 0x17, 0x79, 0x7b, 0xbd,
  0xbd, 0x0c, 0xb0, 0xbe, 0x10, 0x16, 0x85, 0xbe, 0x16, 0x9a, 0xdb, 0x3c,
  0xd5, 0xd9, 0xc4, 0xbe, 0x84, 0xa0, 0xcf, 0xbd, 0x97, 0x53, 0x75, 0x3e,
  0x36, 0xe7, 0xdf, 0x3d, 0x46, 0x66, 0xa0, 0xbd, 0xcf, 0x3b, 0x7b, 0x3e,
  0x99, 0x19, 0xe6, 0x3d, 0xb7, 0xc3, 0xf0, 0xbd, 0x7e, 0x49, 0x76, 0x3e,
  0x78, 0xa5, 0x03, 0x3e, 0xfd, 0x44, 0xd7, 0x3d, 0x67, 0x36, 0xd3, 0xbd,
  0x4a, 0xa1, 0xcf, 0x3d, 0x1a, 0x73, 0xdb, 0x3d, 0x41, 0x17, 0xcf, 0xbd,
  0xd1, 0xa3, 0x0e, 0x3e, 0x25, 0x84, 0xdd, 0x3d, 0xa4, 0x3e, 0x9f, 0xbc,
  0x66, 0x60, 0xa9, 0xbd, 0x73, 0xa4, 0x2b, 0xbe, 0xfd, 0xb2, 0x51, 0xbe,
  0xb9, 0xb8, 0x4b, 0xbc, 0x3e, 0x28, 0xb8, 0x3d, 0xc1, 0x12, 0xad, 0xbc,
  0xb5, 0x38, 0x0f, 0x3e, 0xd6, 0xbe, 0xda, 0x3d, 0x2f, 0xe2, 0x1d, 0xbd,
  0x9c, 0xd8, 0x47, 0xbd, 0x00, 0xe1, 0x5e, 0x3e, 0x0d, 0xa5, 0x05, 0xbe,
  0xbf, 0x87, 0xa9, 0xbb, 0x12, 0xa6, 0x3b, 0x3d, 0x0c, 0x91, 0x1e, 0x3e,
  0x79, 0x62, 0x71, 0x3d, 0x4a, 0xf1, 0xef, 0xbd, 0x5a, 0x50, 0x29, 0xbe,
  0x2b, 0x39, 0x09, 0xbb, 0x38, 0x1b, 0x60, 0x3e, 0xdf, 0x90, 0xd1, 0xbd,
  0xb3, 0xc5, 0x5a, 0xbe, 0x00, 0x03, 0x86, 0xbd, 0x7f, 0x2f, 0x98, 0x3e,
  0x27, 0x82, 0xd3, 0xbd, 0xec, 0xb9, 0x21, 0x3e, 0x27, 0xb7, 0xb7, 0xbd,
  0xf7, 0x51, 0x92, 0x3e, 0xa7, 0x6a, 0x2f, 0x3d, 0x3a, 0xb9, 0x9b, 0x3e,
  0x9c, 0x6d, 0xa4, 0x3d, 0xed, 0x99, 0x82, 0xbd, 0x4b, 0x8f, 0xa6, 0xbd,
  0x41, 0xbe, 0xff, 0x3d, 0xb4, 0xb9, 0x24, 0x3c, 0x5a, 0xc2, 0x4e, 0xbe,
  0xdc, 0x6b, 0x60, 0xbe, 0xe0, 0x53, 0x3c, 0x3e, 0xd5, 0xf6, 0x18, 0x3e,
  0x55, 0x56, 0x56, 0x3e, 0x1c, 0xd1, 0x6d, 0x3d, 0x03, 0x12, 0x38, 0x3e,
  0xbd, 0x67, 0x96, 0xbd, 0x2f, 0x7c, 0x7c, 0x3e, 0xc0, 0x1f, 0x26, 0xbd,
  0x82, 0x61, 0xbe, 0x3e, 0xe1, 0x5b, 0x37, 0x3e, 0x41, 0x5a, 0x24, 0x3d,
  0x4c, 0xa1, 0xa9, 0x3d, 0xd1, 0x38, 0x17, 0x3e, 0xce, 0x0a, 0xc5, 0x3d,
  0x79, 0x14, 0xa6, 0x3e, 0x0f, 0x5c, 0x04, 0x3e, 0xf0, 0x9b, 0x53, 0x3e,
  0x9c, 0xe7, 0x80, 0x3d, 0xd7, 0x53, 0xd2, 0x3c, 0xb9, 0x07, 0x05, 0xbe,
  0x02, 0x20, 0xdc, 0xbd, 0x1c, 0x32, 0x74, 0x3e, 0x45, 0xf5, 0x2b, 0xbd,
  0xb9, 0x89, 0xf9, 0xbc, 0xdc, 0x1c, 0xc1, 0xbd, 0x11, 0x06, 0xc7, 0xbd,
  0xdc, 0x3c, 0x04, 0x3e, 0x88, 0x86, 0x9d, 0x3e, 0x91, 0xaf, 0x52, 0xbd,
  0xe2, 0x6e, 0x8c, 0x3e, 0x3b, 0xf1, 0x5f, 0x3c, 0xc2, 0xa0, 0xb0, 0xbd,
  0xac, 0x0f, 0xe5, 0x3d, 0x7c, 0x1d, 0x18, 0x3d, 0x33, 0x56, 0x7c, 0x3e,
  0x44, 0xae, 0x73, 0xbd, 0xc1, 0xea, 0xee, 0xbd, 0x53, 0x44, 0x6f, 0x3e,
  0x17, 0x2f, 0xdc, 0xbd, 0x80, 0xc5, 0x1e, 0x3e, 0x64, 0x56, 0xc9, 0xbc,
  0x58, 0x5b, 0xef, 0x3d, 0xbf, 0x5d, 0x5b, 0x3e, 0x99, 0xd7, 0x18, 0xbe,
  0xe8, 0xd3, 0x8b, 0x3e, 0xbf, 0x2a, 0xbd, 0x3d, 0x95, 0xb0, 0xa2, 0x3e,
  0x6e, 0x0f, 0x1e, 0x3c, 0xce, 0x2d, 0x31, 0x3e, 0x8c, 0x18, 0xb3, 0x3e,
  0x2b, 0xf6, 0x48, 0xbd, 0x60, 0xda, 0xc9, 0x3e, 0x7e, 0xdb, 0x71, 0x3e,
  0x72, 0xe0, 0xd2, 0x3e, 0xf0, 0x82, 0x21, 0xbd, 0xb6, 0x1f, 0x33, 0x3e,
  0xbd, 0x4e, 0x60, 0x3e, 0xaa, 0x57, 0x8b, 0x3e, 0x80, 0xab, 0x43, 0xbe,
  0x47, 0xec, 0x2e, 0x3e, 0x0e, 0xc6, 0x36, 0x3d, 0x35, 0x21, 0x2f, 0xbe,
  0x3b, 0x1d, 0x7a, 0x3e, 0x71, 0x53, 0xbf, 0xbd, 0x6a, 0x18, 0x44, 0x3d,
  0xb6, 0xe7, 0xc6, 0x3d, 0x67, 0x2d, 0x23, 0x3e, 0xcd, 0xbb, 0x1f, 0xbd,
  0xd9, 0x1c, 0x17, 0xbd, 0x7e, 0x97, 0x34, 0x3e, 0x82, 0xc9, 0x58, 0x3e,
  0x48, 0xfa, 0x57, 0xbe, 0x19, 0xaf, 0x83, 0x3c, 0xfa, 0x91, 0x81, 0x3d,
  0xf4, 0xc8, 0x61, 0xbe, 0x4b, 0xc5, 0x27, 0xbe, 0x38, 0x05, 0x0b, 0x3c,
  0x76, 0x94, 0xbe, 0x3d, 0x3b, 0x8c, 0x26, 0xbd, 0x43, 0x9d, 0x0e, 0xbe,
  0x91, 0xdd, 0xda, 0x3d, 0x0c, 0x51, 0x31, 0x3e, 0x2b, 0xa7, 0x42, 0xbe,
  0x67, 0xc0, 0x64, 0x3e, 0xbc, 0x9f, 0x43, 0xbe, 0xca, 0x14, 0x9d, 0xbd,
  0xac, 0x5c, 0xad, 0xbd, 0xea, 0x39, 0x70, 0xbe, 0xd9, 0x64, 0xcf, 0xbd,
  0x47, 0xcd, 0x90, 0xbd, 0x01, 0xd4, 0x69, 0x3e, 0x01, 0x2b, 0xdc, 0xbd,
  0xd3, 0xea, 0xb8, 0x3d, 0x44, 0x7c, 0x11, 0xbe, 0x2b, 0x8c, 0xa6, 0xbd,
  0xb4, 0x81, 0x2c, 0x3e, 0xe7, 0xd1, 0x18, 0xbe, 0x3a, 0xef, 0x12, 0x3c,
  0x25, 0x50, 0x2d, 0xbe, 0xa2, 0x73, 0x5c, 0x3d, 0xdf, 0x26, 0xcc, 0x3d,
  0xef, 0xa9, 0x08, 0x3e, 0x90, 0x5e, 0x0d, 0xbe, 0x73, 0xda, 0x5d, 0x3d,
  0x7d, 0x05, 0xaf, 0x3c, 0x78, 0x45, 0xf0, 0x3d, 0x25, 0x85, 0x6c, 0x3d,
  0xec, 0x07, 0x0c, 0xbe, 0x5c, 0x92, 0x25, 0x3e, 0x79, 0x40, 0xd8, 0xbd,
  0x26, 0xf5, 0x2f, 0x3e, 0xca, 0x70, 0x3c, 0x3d, 0x4d, 0x77, 0x03, 0x3c,
  0xaa, 0x50, 0xbd, 0x3d, 0x4d, 0xf7, 0x0b, 0xbb, 0x72, 0x6c, 0x0a, 0xbd,
  0x03, 0xfd, 0xbc, 0xbd, 0x3c, 0x96, 0xec, 0xbd, 0xbf, 0x22, 0x36, 0x3e,
  0xed, 0x2c, 0x3b, 0xbe, 0xa2, 0x09, 0xe5, 0xbb, 0x5b, 0x13, 0x54, 0xbe,
  0x6d, 0x35, 0x03, 0x3e, 0xcd, 0x21, 0x18, 0xbe, 0xb8, 0x4f, 0xf4, 0x3d,
  0x69, 0xe1, 0x5f, 0x3d, 0x4b, 0x30, 0xf1, 0x3e, 0xd1, 0xbd, 0xf9, 0x3e,
  0x11, 0x35, 0xbc, 0x3e, 0x48, 0x45, 0xfb, 0x3e, 0x19, 0x5c, 0x57, 0x3e,
  0xa6, 0xdb, 0xc8, 0x3e, 0x51, 0x0a, 0xcf, 0x3e, 0x20, 0x48, 0xeb, 0x3e,
  0x2b, 0x3e, 0xcc, 0x3e, 0xe8, 0xb1, 0x88, 0xbb, 0x70, 0x41, 0x9a, 0x3e,
  0x08, 0x8e, 0x1b, 0x3e, 0x1c, 0xfe, 0x8c, 0x3e, 0x26, 0x34, 0xb3, 0x3d,
  0x35, 0x83, 0x38, 0x3d, 0xd9, 0x54, 0x03, 0x3e, 0x73, 0xf0, 0xc0, 0x3e,
  0x2b, 0xe5, 0xbe, 0x3e, 0x4d, 0x6b, 0x39, 0xbd, 0xdc, 0x79, 0xa2, 0x3e,
  0x78, 0xa2, 0xfa, 0x3d, 0x5c, 0xb6, 0x52, 0x3e, 0x68, 0x0b, 0xaf, 0xbd,
  0x0a, 0x31, 0xe0, 0xbd, 0x66, 0x80, 0xdb, 0x3d, 0xae, 0xbf, 0x01, 0xbd,
  0x72, 0x21, 0x1e, 0x3e, 0x49, 0x69, 0xdd, 0xbd, 0x20, 0x73, 0xd0, 0x3d,
  0x2c, 0xc4, 0x9b, 0xbd, 0x52, 0x61, 0x30, 0x3d, 0x3c, 0x0c, 0x10, 0xbe,
  0xcf, 0xef, 0x2c, 0xbd, 0x80, 0x91, 0xad, 0xbd, 0x8f, 0x9d, 0x2e, 0xbe,
  0xd6, 0xee, 0x0b, 0x3c, 0x31, 0x2b, 0xf4, 0x3d, 0x71, 0xee, 0x37, 0xbd,
  0x0d, 0x78, 0x3f, 0x3e, 0x58, 0x66, 0xee, 0x3d, 0x8c, 0x37, 0x6e, 0xbe,
  0xe3, 0xb5, 0x16, 0x3e, 0xd0, 0xd5, 0xa7, 0xbd, 0x66, 0xac, 0xf9, 0x3d,
  0xd7, 0xa3, 0xdf, 0xbc, 0x38, 0x25, 0xa3, 0x3c, 0x26, 0xd5, 0x4d, 0x3d,
  0x91, 0xbe, 0xe3, 0x3d, 0x33, 0x50, 0xb1, 0x3d, 0x14, 0x19, 0xd9, 0x3c,
  0x37, 0xa7, 0x28, 0xbe, 0x17, 0xcf, 0x58, 0xbe, 0x19, 0x75, 0x0e, 0x3e,
  0x62, 0x74, 0x2c, 0xbe, 0x0a, 0xe2, 0xaf, 0xbc, 0x71, 0xb1, 0xc0, 0x3d,
  0x1f, 0xc3, 0x64, 0x3d, 0xc1, 0x59, 0xf1, 0x3d, 0xb9, 0x95, 0x24, 0x3e,
  0x03, 0xf1, 0xbb, 0x3d, 0xf6, 0x25, 0xe7, 0x3e, 0x23, 0x67, 0xed, 0x3e,
  0xe3, 0xa3, 0xf4, 0x3e, 0x54, 0x67, 0x82, 0x3e, 0xef, 0xe6, 0xa1, 0x3e,
  0xd7, 0x77, 0xdb, 0x3e, 0x1a, 0xe8, 0x4a, 0x3e, 0xc8, 0x0f, 0xe6, 0x3d,
  0x3f, 0xe8, 0xa3, 0x3d, 0x92, 0x8a, 0x7d, 0x3b, 0x04, 0xb8, 0xa3, 0x3e,
  0x2c, 0x24, 0x65, 0x3e, 0x38, 0xd0, 0x8c, 0x3d, 0xeb, 0x2b, 0xe1, 0x3e,
  0x9d, 0x3b, 0x3a, 0x3e, 0xc9, 0xfc, 0xe6, 0x3d, 0x63, 0xcf, 0xc3, 0x3d,
  0xee, 0xf3, 0xa4, 0x3c, 0x81, 0x4a, 0x09, 0x3e, 0x33, 0x1f, 0x72, 0x3d,
  0x06, 0x28, 0xb9, 0x3e, 0xd8, 0xb9, 0x34, 0xbc, 0x1d, 0x74, 0x8f, 0x3e,
  0xe9, 0x2e, 0xa3, 0x3e, 0xae, 0xbd, 0xb0, 0x3e, 0xe3, 0x8e, 0xaf, 0x3d,
  0xed, 0xf1, 0x2b, 0x3e, 0xe9, 0x99, 0x92, 0xbc, 0x93, 0x20, 0x9d, 0x3e,
  0x8c, 0x56, 0x3f, 0x3d, 0x04, 0x70, 0x8c, 0x3e, 0xe1, 0x90, 0x9a, 0x3c,
  0xf3, 0x64, 0xae, 0x3e, 0x12, 0x9f, 0x11, 0x3e, 0x34, 0x3b, 0x84, 0x3e,
  0x04, 0x66, 0xda, 0x3d, 0x0a, 0xcf, 0xb3, 0x3e, 0x2b, 0x78, 0x8d, 0x3c,
  0x10, 0x29, 0x7f, 0x3d, 0x71, 0x1a, 0xae, 0x3e, 0x66, 0x5c, 0x13, 0x3e,
  0x87, 0x61, 0xb8, 0x3e, 0x69, 0xaf, 0x4b, 0x3e, 0xa6, 0x8a, 0x9f, 0x3e,
  0x9d, 0x05, 0xaf, 0x3d, 0xf9, 0xac, 0xc1, 0x3d, 0x9d, 0xdd, 0xe9, 0x3e,
  0xe0, 0xe7, 0xca, 0x3e, 0xfd, 0xf8, 0x3f, 0x3e, 0xe1, 0x64, 0xbe, 0xbc,
  0x59, 0x60, 0x9a, 0x3e, 0x02, 0x4c, 0x3b, 0x3d, 0x19, 0xbf, 0x73, 0x3e,
  0x4f, 0xe2, 0xbf, 0x3e, 0xe7, 0x9e, 0x56, 0x3e, 0xea, 0xe3, 0xaa, 0x3e,
  0x96, 0xf1, 0x8c, 0x3d, 0x22, 0x55, 0x1b, 0x3e, 0xd6, 0x96, 0xa9, 0x3e,
  0x49, 0x77, 0xd1, 0x3d, 0xf3, 0x7d, 0x83, 0x3e, 0x19, 0xa7, 0x23, 0x3e,
  0x23, 0x88, 0x96, 0x3c, 0xc5, 0xad, 0x84, 0x3e, 0x4b, 0x3e, 0x1b, 0x3e,
  0xa2, 0x20, 0x10, 0xbe, 0xa6, 0xb4, 0xa7, 0xbb, 0x49, 0x20, 0x27, 0x3e,
  0x62, 0x1d, 0xab, 0x3d, 0x8e, 0x5c, 0x05, 0x3e, 0xc6, 0x1f, 0x0a, 0xbe,
  0x89, 0xf1, 0x66, 0x3e, 0xf9, 0x6c, 0x8d, 0x3e, 0x50, 0x41, 0x7f, 0x3e,
  0x19, 0x53, 0x53, 0x3e, 0x98, 0x7b, 0x7a, 0x3c, 0x67, 0x96, 0xb7, 0xbd,
  0x88, 0xa2, 0x77, 0x3e, 0x67, 0xc0, 0x3d, 0xbc, 0x5a, 0xfb, 0xa3, 0xbc,
  0x98, 0x6a, 0x97, 0x3e, 0x4f, 0x28, 0x7a, 0x3d, 0x4a, 0xbd, 0x3c, 0x3e,
  0x58, 0x8d, 0xa6, 0x3e, 0xc7, 0x23, 0x53, 0x3e, 0x86, 0xfd, 0x2a, 0x3e,
  0xd2, 0xc2, 0x80, 0x3e, 0x1f, 0x2d, 0x59, 0x3e, 0x61, 0x8f, 0x31, 0x3e,
  0xfc, 0x0e, 0x0e, 0x3e, 0xae, 0xe0, 0x65, 0x3e, 0xa7, 0x17, 0xb9, 0xbd,
  0x2a, 0x2f, 0xc7, 0xbd, 0xf9, 0xc0, 0x58, 0x3e, 0xda, 0x72, 0xd3, 0xbd,
  0x1d, 0x97, 0xc0, 0x3d, 0x6c, 0x06, 0x49, 0x3e, 0x46, 0xf7, 0x3f, 0x3e,
  0x41, 0x19, 0x17, 0x3c, 0xf0, 0xe0, 0x63, 0xbd, 0xd5, 0x9a, 0x24, 0xbe,
  0x9c, 0x6d, 0xd7, 0xbe, 0x8b, 0x8b, 0x34, 0xbe, 0x7b, 0xd7, 0xf1, 0xbd,
  0xb2, 0xd3, 0xd9, 0xbe, 0xb2, 0xbf, 0xe2, 0xbe, 0xed, 0xd6, 0x68, 0xbe,
  0x4f, 0xc5, 0xca, 0xbe, 0x02, 0x1b, 0x82, 0xbe, 0x58, 0xbe, 0xae, 0xbe,
  0xa5, 0xd2, 0xe1, 0x3d, 0xd4, 0x45, 0x71, 0xbd, 0x2a, 0xb3, 0xe8, 0xbb,
  0x87, 0x4c, 0x90, 0xbe, 0x86, 0xc0, 0x8e, 0xbe, 0x59, 0xe7, 0xc2, 0x3d,
  0x71, 0x5a, 0xe0, 0xbd, 0x68, 0x8e, 0x35, 0xbe, 0xd1, 0x28, 0x98, 0xbd,
  0xef, 0x74, 0x43, 0xbe, 0x62, 0xb4, 0x65, 0x3e, 0xca, 0x6c, 0x69, 0x3d,
  0x16, 0xf1, 0x13, 0x3e, 0x30, 0xf5, 0x80, 0x3d, 0x1f, 0x59, 0xb5, 0xbd,
  0x13, 0xfa, 0xc6, 0xbd, 0x16, 0x1d, 0x0d, 0xbe, 0x7f, 0x95, 0x9f, 0xbd,
  0x8e, 0x9f, 0x90, 0x3e, 0x77, 0x37, 0x57, 0x3e, 0x14, 0x64, 0xbd, 0xbd,
  0x74, 0x6f, 0x28, 0xbe, 0x1a, 0xae, 0x4a, 0x3e, 0xcb, 0xba, 0x1a, 0x3c,
  0xb2, 0xdc, 0x42, 0x3c, 0x5c, 0xfa, 0x22, 0xbe, 0xf8, 0x07, 0xee, 0x3c,
  0x93, 0x3a, 0x6b, 0x3e, 0xfe, 0x31, 0x57, 0x3e, 0xa5, 0xb2, 0x60, 0x3e,
  0x58, 0xc7, 0xb4, 0xbc, 0x12, 0x9f, 0x18, 0x3e, 0xd7, 0x53, 0x60, 0x3e,
  0x5e, 0xab, 0x9b, 0xbd, 0x26, 0xbb, 0x8d, 0x3c, 0xe1, 0x7c, 0xa0, 0xbd,
  0x71, 0x46, 0x45, 0xbc, 0x0a, 0xe1, 0x20, 0x3e, 0xc4, 0x1c, 0x99, 0x3c,
  0x04, 0x1f, 0x7d, 0x3e, 0xc3, 0x95, 0x3d, 0x3e, 0xdb, 0x4e, 0x44, 0xbc,
  0xcb, 0xa6, 0x20, 0xbe, 0x5c, 0xff, 0x14, 0xbe, 0xa0, 0xee, 0x07, 0xbe,
  0xf5, 0xf0, 0x0e, 0xbd, 0xe6, 0x9f, 0x96, 0xbd, 0x52, 0x9b, 0x23, 0x3e,
  0x02, 0x0e, 0xa2, 0x3d, 0x5a, 0xba, 0x63, 0x3e, 0x6a, 0x31, 0x44, 0x3e,
  0xa8, 0xa4, 0x5a, 0x3e, 0xef, 0x5b, 0xcf, 0x3e, 0x64, 0xd5, 0xe7, 0x3e,
  0x16, 0xaf, 0x6f, 0x3e, 0xbb, 0x7e, 0x1b, 0x3e, 0xb8, 0x40, 0x87, 0x3e,
  0x7e, 0x85, 0xd3, 0x3e, 0xaa, 0x01, 0x3e, 0x3e, 0x25, 0xf5, 0xf7, 0x3d,
  0x8f, 0xc3, 0xbb, 0xbd, 0xe1, 0xf0, 0xd6, 0x3d, 0xdb, 0x0f, 0x89, 0x3e,
  0x67, 0x24, 0x04, 0x3c, 0x39, 0x37, 0x10, 0xbe, 0x85, 0xb0, 0xc1, 0x3d,
  0x38, 0xca, 0xb0, 0x3d, 0x37, 0x4c, 0xc2, 0x3c, 0x32, 0xad, 0x41, 0x3d,
  0x52, 0xf2, 0xc4, 0x3d, 0xcc, 0x29, 0x2a, 0x3d, 0x78, 0x89, 0x44, 0x3e,
  0x73, 0x16, 0x78, 0x3d, 0x0b, 0x0b, 0x7c, 0xbd, 0xfc, 0xd3, 0xb1, 0x3e,
  0xd4, 0x4b, 0x8f, 0x3e, 0xd0, 0x18, 0x78, 0x3e, 0xf7, 0x60, 0x89, 0x3e,
  0x2d, 0x69, 0x66, 0x3d, 0x3d, 0xf5, 0x6c, 0x3e, 0x08, 0x12, 0x2e, 0x3e,
  0x94, 0xc6, 0x9c, 0xbc, 0xc9, 0x7b, 0x18, 0xbe, 0x9b, 0x87, 0x3b, 0x3d,
  0xd2, 0xa3, 0xba, 0x3d, 0x51, 0x20, 0x09, 0x3e, 0x22, 0xb2, 0x09, 0x3e,
  0xd4, 0x76, 0x29, 0xbe, 0x17, 0x14, 0x8d, 0x3e, 0xb3, 0xbf, 0x40, 0xbe,
  0xf0, 0x8d, 0x22, 0x3e, 0x71, 0xc9, 0x81, 0xbd, 0x8f, 0x03, 0xc2, 0x3d,
  0x0e, 0x27, 0xd0, 0xbd, 0x11, 0x6d, 0xac, 0xbb, 0x48, 0x2f, 0x39, 0x3e,
  0xc3, 0xdd, 0x00, 0xbe, 0xf4, 0xb2, 0x53, 0xbd, 0x88, 0x4f, 0x02, 0xbd,
  0xdd, 0xde, 0xa9, 0xbd, 0x1b, 0x73, 0x53, 0xbe, 0x6e, 0x41, 0x5f, 0xbd,
  0xc0, 0x58, 0x3c, 0xbd, 0x2c, 0x75, 0x15, 0x3e, 0x88, 0xae, 0xc5, 0x3c,
  0xde, 0x32, 0x08, 0xbe, 0xce, 0x5b, 0x2c, 0xbe, 0x84, 0xf5, 0x49, 0x3e,
  0x53, 0x02, 0x0e, 0x3e, 0x58, 0xd2, 0x96, 0xbd, 0x7b, 0x19, 0x17, 0x3e,
  0x0c, 0xa8, 0xa6, 0x3e, 0x25, 0x54, 0x0b, 0xbe, 0x68, 0x46, 0xd9, 0x3d,
  0x9d, 0xce, 0xa0, 0x3d, 0xbc, 0xb9, 0x57, 0x3e, 0xba, 0xb3, 0x2b, 0x3e,
  0x71, 0x12, 0x09, 0xbd, 0xba, 0xdb, 0x8a, 0xbd, 0x4d, 0xfa, 0xe5, 0x3d,
  0x21, 0x0d, 0x74, 0xbd, 0xeb, 0xf1, 0x36, 0xbd, 0x61, 0x9f, 0xf4, 0xba,
  0xac, 0x5e, 0x43, 0xbe, 0xe4, 0x7c, 0x97, 0xbd, 0x05, 0x6b, 0x8d, 0x3d,
  0x79, 0x88, 0xe6, 0xbc, 0x30, 0x5b, 0x5d, 0x3d, 0x05, 0x65, 0xe1, 0x3d,
  0x16, 0xc5, 0x4b, 0xbe, 0x9d, 0x39, 0x04, 0xbf, 0xdb, 0x4f, 0x03, 0xbf,
  0x7e, 0x92, 0x45, 0xbe, 0x5f, 0xf2, 0x93, 0xbe, 0xfe, 0x21, 0xe9, 0xbd,
  0xa4, 0x5a, 0x76, 0xbe, 0xbb, 0xc4, 0x7f, 0xbe, 0x6f, 0x73, 0x51, 0xbe,
  0x66, 0x2a, 0x03, 0xbf, 0x8d, 0xf7, 0x86, 0xbe, 0x89, 0xde, 0xf5, 0xbe,
  0x46, 0x4f, 0x68, 0xbe, 0xbb, 0x32, 0xaa, 0xbe, 0x76, 0x38, 0xf3, 0xbe,
  0xd0, 0xf1, 0xaf, 0xbe, 0xf4, 0x22, 0x98, 0xbe, 0x42, 0xbd, 0x7c, 0xbe,
  0x79, 0xb3, 0x9c, 0xbd, 0x59, 0x17, 0xdc, 0xbd, 0xfa, 0x34, 0x38, 0xbd,
  0x51, 0x05, 0x41, 0x3d, 0xe6, 0x84, 0x11, 0xbd, 0x6f, 0x43, 0x81, 0xbe,
  0xf0, 0xa3, 0x44, 0xbe, 0x5b, 0x1e, 0xb4, 0x3d, 0x0b, 0x88, 0x24, 0x3d,
  0xc6, 0x37, 0x16, 0x3d, 0xb0, 0x65, 0xe7, 0xbc, 0x14, 0xc5, 0x38, 0xbd,
  0x5c, 0x81, 0x74, 0xbd, 0xfa, 0x31, 0x0a, 0xbd, 0xca, 0xc7, 0x22, 0xbe,
  0x6a, 0xeb, 0x80, 0xbd, 0xbf, 0x5c, 0xc0, 0x3d, 0x7c, 0x71, 0x67, 0xbe,
  0x87, 0x91, 0x43, 0xbc, 0xaf, 0xa2, 0x67, 0xbd, 0x82, 0x4f, 0x20, 0x3d,
  0x0b, 0xdc, 0xca, 0x3d, 0x68, 0xab, 0x8b, 0xbe, 0x9c, 0xe3, 0x0a, 0x3e,
  0xc3, 0xe5, 0xab, 0x3e, 0xac, 0xad, 0x69, 0x3e, 0xe9, 0x56, 0xb6, 0x3e,
  0xc2, 0x1a, 0x76, 0x3d, 0xea, 0x1c, 0x23, 0x3e, 0x89, 0x8a, 0xf4, 0x3d,
  0x38, 0x19, 0x03, 0x3d, 0x19, 0x37, 0x58, 0x3e, 0x07, 0x76, 0x0b, 0x3d,
  0x23, 0x65, 0x5b, 0x3e, 0x22, 0xef, 0xb0, 0xbd, 0xce, 0x58, 0x9c, 0x3e,
  0x09, 0xe4, 0xad, 0x3c, 0x05, 0x61, 0x53, 0x3e, 0x5f, 0x06, 0x34, 0x3e,
  0x82, 0x19, 0x9e, 0x3e, 0xad, 0x56, 0xca, 0x3d, 0x30, 0xff, 0x72, 0x3e,
  0xa5, 0xbe, 0xb7, 0xbd, 0x72, 0x7e, 0x9c, 0xba, 0xc2, 0xf9, 0xde, 0x3d,
  0x01, 0x5b, 0x75, 0x3e, 0x91, 0x71, 0x1c, 0xbd, 0xcd, 0x07, 0x99, 0x3e,
  0x65, 0x4d, 0x97, 0x3e, 0xba, 0xb8, 0x5d, 0x3e, 0x93, 0x13, 0x95, 0x3e,
  0xd0, 0x51, 0x5f, 0x3e, 0xbf, 0xc3, 0x48, 0x3e, 0xe2, 0xf8, 0xa0, 0x3c,
  0xfc, 0x67, 0x2b, 0xbb, 0x66, 0x1d, 0x3c, 0x3d, 0x17, 0x9c, 0x9e, 0xbd,
  0xcd, 0xc7, 0xdc, 0xbd, 0xb4, 0x43, 0x84, 0x3c, 0x79, 0xdd, 0x8c, 0x3e,
  0x4a, 0xde, 0x28, 0x3e, 0x14, 0xa6, 0x99, 0x3d, 0xe7, 0xcd, 0x30, 0x3e,
  0x04, 0x61, 0x08, 0x3d, 0xf3, 0xbd, 0x73, 0x3e, 0x41, 0x48, 0x28, 0xbe,
  0xae, 0x52, 0x72, 0x3e, 0x41, 0x67, 0x2d, 0xbe, 0x7a, 0x8f, 0x3c, 0x3d,
  0x4c, 0x6b, 0xce, 0xbc, 0xaa, 0xf9, 0x8b, 0xbd, 0x58, 0x03, 0x71, 0x3e,
  0x03, 0x1e, 0x4e, 0xbc, 0x76, 0x45, 0xb3, 0x3c, 0xa8, 0xec, 0xa9, 0x3d,
  0x55, 0x09, 0x1e, 0xbe, 0x0b, 0xc9, 0x02, 0xbe, 0x07, 0xb6, 0x9b, 0xbd,
  0x45, 0x80, 0x1d, 0x3e, 0x61, 0x37, 0x72, 0xbe, 0x44, 0xbd, 0xd2, 0xbd,
  0xc6, 0x59, 0x41, 0x3e, 0xd8, 0x3c, 0xe4, 0xbd, 0x84, 0xa0, 0xfd, 0xbc,
  0x90, 0x69, 0x83, 0xbc, 0x59, 0x32, 0x47, 0x3d, 0xdb, 0x40, 0x84, 0x3e,
  0x2a, 0x2f, 0x66, 0x3e, 0xb7, 0x0a, 0x6c, 0x3e, 0xb2, 0xff, 0x0e, 0x3e,
  0xc9, 0x7c, 0x09, 0xbe, 0x02, 0xd7, 0x6e, 0x3e, 0x9f, 0x3f, 0xde, 0xbb,
  0x64, 0x7c, 0x34, 0xbe, 0xc2, 0xdf, 0x18, 0xbe, 0xe6, 0x83, 0xb6, 0x3c,
  0x54, 0x81, 0xd9, 0xbd, 0xc6, 0x8c, 0x34, 0xbd, 0x1b, 0x16, 0xd1, 0x3d,
  0xbf, 0x2c, 0xcf, 0x3d, 0x92, 0x96, 0xb0, 0x3d, 0xb3, 0x96, 0x07, 0x3a,
  0xae, 0x66, 0x69, 0x3d, 0x00, 0xdb, 0xc6, 0x3d, 0x8e, 0x90, 0x6d, 0x3c,
  0x87, 0x14, 0x01, 0x3e, 0x1e, 0x91, 0xde, 0xbc, 0x23, 0xb5, 0x0b, 0x3e,
  0xf2, 0x23, 0x38, 0xbe, 0x6e, 0x19, 0xca, 0x3d, 0x6f, 0x2f, 0x8b, 0x3d,
  0x87, 0xac, 0xbc, 0x3c, 0x0e, 0xc9, 0xa4, 0x3d, 0xb4, 0x1d, 0x68, 0x3d,
  0x8d, 0x22, 0x1f, 0xbe, 0x59, 0x64, 0x25, 0x3d, 0xda, 0x40, 0x89, 0xbd,
  0x6a, 0xf3, 0x2e, 0x3e, 0x91, 0x97, 0x1a, 0xbe, 0x1f, 0xc2, 0xb4, 0x3d,
  0x69, 0x24, 0x92, 0xbd, 0xeb, 0xe4, 0x52, 0xbd, 0x85, 0xfa, 0x5a, 0xbd,
  0xb1, 0xbd, 0x93, 0x3d, 0x7c, 0x64, 0x1b, 0xbe, 0x6f, 0xf1, 0x37, 0x3e,
  0x73, 0xc5, 0xdd, 0xbd, 0x73, 0x59, 0xb5, 0xbd, 0xbf, 0x64, 0x5b, 0x3e,
  0x81, 0x02, 0x2a, 0xbd, 0x6d, 0x15, 0x70, 0xbd, 0x34, 0xa6, 0xe0, 0xbc,
  0xf1, 0xed, 0x87, 0xbd, 0x26, 0x65, 0x4e, 0xbe, 0x8b, 0x94, 0x8a, 0xbd,
  0x65, 0x11, 0x60, 0xbe, 0x3d, 0x9a, 0x10, 0x3e, 0xd6, 0x16, 0xf5, 0xbc,
  0x6d, 0x4f, 0x76, 0xbd, 0x00, 0xd1, 0x46, 0xbd, 0xbe, 0x88, 0x2b, 0xbd,
  0x5f, 0xe3, 0x61, 0xbe, 0x28, 0x19, 0x34, 0xbe, 0x84, 0xaa, 0x1e, 0x3c,
  0xa7, 0xd9, 0x45, 0xbe, 0xf8, 0x71, 0xd4, 0xbc, 0x61, 0x3d, 0xa1, 0x3c,
  0xef, 0x8d, 0x4c, 0xbe, 0xb5, 0xe6, 0x2d, 0xbe, 0xbd, 0xc0, 0x0e, 0x3e,
  0xb1, 0xd8, 0x04, 0xbe, 0xac, 0x89, 0x22, 0x3e, 0xfe, 0x42, 0x1a, 0xbd,
  0x84, 0xe1, 0x0a, 0xbe, 0xcd, 0xf2, 0x62, 0x3e, 0xd5, 0xd4, 0x37, 0x3e,
  0xf3, 0x1c, 0x72, 0x3d, 0xef, 0xd8, 0x64, 0xbe, 0xee, 0xb8, 0x19, 0xbe,
  0xa2, 0x24, 0x26, 0x3e, 0x4e, 0x53, 0x57, 0x3e, 0x37, 0x40, 0xe2, 0x3d,
  0x3e, 0x1a, 0xc6, 0xbd, 0xc8, 0x27, 0x02, 0x3f, 0x1d, 0x90, 0xdc, 0x3d,
  0xe3, 0x89, 0xc4, 0x3e, 0x5c, 0x87, 0x79, 0x3e, 0x92, 0xca, 0xf9, 0x3e,
  0x67, 0x38, 0xf5, 0x3e, 0xe6, 0x0b, 0xf0, 0x3e, 0x55, 0x5e, 0x66, 0x3e,
  0x01, 0xd2, 0xdd, 0x3e, 0x77, 0x43, 0x32, 0x3e, 0xea, 0x7b, 0x7f, 0x3c,
  0x5b, 0x7f, 0x7a, 0x3e, 0x5a, 0x59, 0xa5, 0x3e, 0xd9, 0x6f, 0x94, 0x3e,
  0xab, 0x80, 0xe3, 0x3d, 0x1e, 0x34, 0x20, 0x3c, 0xf5, 0x59, 0xf3, 0x3d,
  0x7e, 0xbc, 0xba, 0x3e, 0xc6, 0x25, 0xbc, 0x3d, 0x59, 0x11, 0x46, 0x3e,
  0xde, 0x26, 0x3d, 0x3e, 0xaa, 0xa4, 0xd4, 0xbd, 0x6c, 0x33, 0x46, 0x3e,
  0xfa, 0xd3, 0xae, 0x3e, 0x03, 0xf4, 0x43, 0x3e, 0x23, 0x9e, 0x5c, 0xbd,
  0xf2, 0xed, 0x93, 0x3e, 0x29, 0x90, 0xb7, 0x3d, 0xf3, 0x08, 0x0d, 0xbd,
  0xa5, 0x9f, 0xd3, 0xbd, 0x90, 0x9d, 0x90, 0x3e, 0x03, 0xa6, 0x5a, 0x3e,
  0x92, 0x52, 0x4a, 0x3e, 0xa6, 0x15, 0x84, 0x3e, 0xce, 0xa3, 0xa4, 0x3e,
  0xb3, 0xba, 0xe8, 0xbd, 0xd8, 0x13, 0x92, 0x3c, 0x72, 0x00, 0x19, 0x3e,
  0x8c, 0xa1, 0x20, 0x3e, 0xec, 0xfd, 0xe7, 0xbd, 0x90, 0x01, 0x81, 0x3d,
  0x0b, 0x6c, 0x5b, 0xbe, 0xe4, 0xce, 0x93, 0xbd, 0x3d, 0xa8, 0x9b, 0xbe,
  0x3f, 0x7a, 0xe4, 0xbc, 0x89, 0x33, 0xa2, 0xbe, 0x1e, 0x0c, 0x8b, 0xbc,
  0xfe, 0x2f, 0x30, 0x3d, 0x18, 0xef, 0xa0, 0xbe, 0x2d, 0xc0, 0x27, 0xbc,
  0x19, 0x9d, 0x9f, 0xbd, 0x4d, 0x06, 0x84, 0xbd, 0x59, 0x13, 0x09, 0x3e,
  0xc8, 0x33, 0x6f, 0xbd, 0x05, 0x06, 0x86, 0xbe, 0xaa, 0x6d, 0x5c, 0xbc,
  0x29, 0x8c, 0x79, 0xbe, 0x49, 0x03, 0x29, 0xbe, 0x99, 0x31, 0xfc, 0x3d,
  0xa4, 0x11, 0x2c, 0xbc, 0xe0, 0x58, 0x03, 0xbc, 0xc5, 0x39, 0x60, 0xbe,
  0x82, 0x94, 0x21, 0xbe, 0x32, 0xfb, 0x59, 0xbe, 0x06, 0x6e, 0x13, 0xbe,
  0xc0, 0xc7, 0x93, 0x3d, 0xd3, 0xed, 0x30, 0xbe, 0x50, 0x72, 0x48, 0xbd,
  0x40, 0x3c, 0x14, 0x3d, 0xf0, 0xf1, 0x1d, 0xbd, 0x96, 0x09, 0x2d, 0xbe,
  0x30, 0x0f, 0x10, 0x3e, 0xb8, 0x1f, 0x59, 0x3d, 0x40, 0xa5, 0x87, 0xbd,
  0xf4, 0x0c, 0x6b, 0x3e, 0x3c, 0xb8, 0xad, 0x3d, 0x89, 0xb1, 0x0f, 0xbe,
  0xc8, 0x0e, 0x3f, 0x3e, 0xa8, 0xeb, 0x40, 0xbe, 0xd6, 0x24, 0x67, 0xbe,
  0x8c, 0x6e, 0x69, 0x3e, 0x3d, 0xde, 0x4c, 0xbe, 0xf0, 0xad, 0x18, 0x3d,
  0xf6, 0x35, 0x54, 0xbe, 0x06, 0x3e, 0x1e, 0xbe, 0x50, 0x33, 0x2e, 0x3d,
  0xda, 0xb7, 0x49, 0xbe, 0xc0, 0x2a, 0x2c, 0xbe, 0x08, 0x50, 0x1b, 0xbd,
  0x36, 0xf3, 0xff, 0xbd, 0xe8, 0x9b, 0xc5, 0x3d, 0xa3, 0x9e, 0x01, 0xbe,
  0xd8, 0xee, 0x64, 0xbd, 0xe0, 0x7c, 0x5c, 0xbd, 0x88, 0xa8, 0xb7, 0x3d,
  0x7e, 0xf6, 0x38, 0xbe, 0xc0, 0x8f, 0x2a, 0x3d, 0x08, 0xd1, 0x53, 0x3d,
  0xd3, 0x1d, 0x1d, 0xbe, 0x30, 0x1b, 0x89, 0x3d, 0x1c, 0xea, 0x99, 0xbd,
  0xd4, 0x43, 0xd3, 0x3d, 0x24, 0x27, 0x38, 0x3e, 0x38, 0x8f, 0x98, 0xbc,
  0x00, 0xe0, 0x0a, 0x3e, 0xd4, 0x7f, 0xc3, 0x3d, 0xe0, 0xe8, 0x96, 0x3c,
  0x4d, 0xeb, 0x28, 0xbe, 0x14, 0xa3, 0xf1, 0xbd, 0xe0, 0xe5, 0xb8, 0x3c,
  0x89, 0x76, 0x63, 0xbe, 0x98, 0x69, 0x2c, 0xbe, 0xfc, 0xeb, 0x31, 0x3e,
  0x72, 0x19, 0x16, 0xbe, 0x40, 0xc3, 0xcd, 0x3b, 0x60, 0x99, 0x26, 0x3d,
  0xfc, 0xaf, 0x40, 0xbe, 0x88, 0xb2, 0x5c, 0x3d, 0xf4, 0xd5, 0xbb, 0xbd,
  0xb6, 0x65, 0xf9, 0xbd, 0xd4, 0xe5, 0x3d, 0xbe, 0xe2, 0xaa, 0x4b, 0xbe,
  0x96, 0x24, 0x86, 0x3b, 0x4f, 0xa9, 0x5d, 0x3e, 0xa3, 0x0b, 0x5e, 0xbe,
  0xc8, 0x61, 0xe5, 0xbd, 0xa4, 0x41, 0xe0, 0xbc, 0x38, 0xf8, 0x11, 0xbe,
  0x38, 0xb8, 0x43, 0x3e, 0x79, 0x26, 0xdc, 0xbd, 0x1c, 0x49, 0x61, 0x3e,
  0xb1, 0x2f, 0x9e, 0x3d, 0xbb, 0x39, 0x59, 0x3e, 0x2e, 0x59, 0x3c, 0xbe,
  0x0c, 0xc4, 0x16, 0x3d, 0xa9, 0x8e, 0xcf, 0xbd, 0x4d, 0x8b, 0x38, 0xbe,
  0xc5, 0x6f, 0x85, 0xbd, 0x40, 0x14, 0x34, 0xbe, 0xab, 0xcd, 0x4a, 0x3e,
  0x26, 0xd4, 0x0f, 0x3e, 0x07, 0xa3, 0x86, 0xbd, 0x10, 0xc3, 0x27, 0x3d,
  0x52, 0x9a, 0x8d, 0x3d, 0x64, 0x8a, 0x8b, 0xbc, 0xa7, 0xd8, 0x49, 0xbe,
  0xf7, 0xbd, 0xc4, 0xbd, 0x40, 0xe6, 0x98, 0x3d, 0x01, 0x86, 0x5f, 0x3e,
  0xe8, 0xd8, 0x19, 0xbe, 0x0d, 0x62, 0xef, 0x3d, 0xae, 0x1c, 0x5b, 0xbe,
  0xf6, 0x93, 0x62, 0x3e, 0x67, 0x32, 0x2d, 0xbe, 0x59, 0x5b, 0x51, 0x3d,
  0xd0, 0x24, 0x50, 0xbe, 0x41, 0xb9, 0x3c, 0xbe, 0x18, 0x63, 0xe3, 0x3d,
  0xb9, 0xf3, 0x1a, 0x3e, 0xba, 0xe4, 0x09, 0x3d, 0xdf, 0xf0, 0x04, 0x3e,
  0xb0, 0xbe, 0x63, 0x3d, 0xd7, 0xd1, 0x11, 0x3e, 0x01, 0xde, 0x16, 0xbe,
  0xff, 0xe2, 0x2c, 0xbd, 0xc4, 0x13, 0x86, 0x3d, 0x15, 0x20, 0x09, 0xbe,
  0xae, 0xdf, 0x48, 0x3e, 0xc3, 0xfc, 0x88, 0x3d, 0xed, 0xe3, 0x4d, 0x3e,
  0x59, 0xe4, 0xaf, 0xbd, 0xdd, 0x33, 0x4c, 0x3e, 0x71, 0x61, 0x85, 0xbd,
  0xd5, 0xb4, 0xe2, 0xbd, 0xab, 0x52, 0x86, 0xbd, 0xbc, 0xd9, 0xc5, 0xbc,
  0x48, 0xad, 0x4f, 0xbe, 0x04, 0x65, 0x35, 0xbe, 0xf7, 0xf9, 0x12, 0xbc,
  0x15, 0xa7, 0x33, 0xbe, 0x5a, 0x9a, 0x35, 0xbe, 0xef, 0x14, 0xbf, 0xbd,
  0x66, 0x88, 0xb3, 0xbe, 0x9d, 0x05, 0xc5, 0xbe, 0x5f, 0xb6, 0x81, 0x3d,
  0x05, 0x16, 0xba, 0xbd, 0x8b, 0x2e, 0x9e, 0x3d, 0x04, 0x84, 0xab, 0xbe,
  0x8d, 0xa5, 0x51, 0xbd, 0x83, 0x9c, 0x0c, 0x3e, 0x7a, 0xff, 0xc2, 0xbd,
  0xf6, 0x82, 0xa6, 0x3d, 0x67, 0xae, 0xa6, 0xbd, 0x82, 0xaa, 0xd7, 0xbd,
  0x9d, 0x62, 0x52, 0xbe, 0xd1, 0xba, 0x8f, 0xbe, 0x30, 0x29, 0x9a, 0xbe,
  0x2e, 0xe2, 0x59, 0xbd, 0xb5, 0x7e, 0x68, 0xbe, 0xcf, 0xab, 0x5d, 0x3d,
  0xf8, 0x88, 0xbc, 0xbc, 0x35, 0x22, 0x23, 0xbe, 0x3e, 0x93, 0x71, 0xbd,
  0x17, 0xca, 0xc5, 0x3d, 0x84, 0x2c, 0x05, 0x3e, 0xf1, 0x17, 0x60, 0x3e,
  0x6f, 0x36, 0x6f, 0xbd, 0x45, 0x3b, 0xc3, 0x3d, 0x98, 0x2a, 0x1b, 0xbe,
  0xc0, 0x70, 0x5c, 0x3c, 0x9a, 0x16, 0x10, 0x3e, 0x02, 0xc3, 0xda, 0xbc,
  0xa6, 0x01, 0x60, 0x3c, 0x37, 0xbb, 0x1e, 0x3c, 0xdf, 0x81, 0xeb, 0xbc,
  0x8c, 0x01, 0x16, 0xbe, 0x28, 0x21, 0x3f, 0xbe, 0xae, 0x0d, 0xeb, 0xbd,
  0xad, 0xf5, 0x58, 0x3e, 0x13, 0xf0, 0xb0, 0x3d, 0xe4, 0x52, 0x48, 0x3e,
  0x09, 0x6e, 0x11, 0x3d, 0x66, 0xc3, 0x4e, 0x3e, 0x12, 0xef, 0x80, 0x3e,
  0xc9, 0x7d, 0x9b, 0x3e, 0xe2, 0x38, 0x17, 0x3e, 0x5f, 0x33, 0x8a, 0x3d,
  0x3c, 0xf2, 0x93, 0x3d, 0xf5, 0x64, 0xa3, 0x3e, 0x62, 0x1e, 0xaf, 0xb9,
  0xe4, 0xd8, 0xf3, 0xbd, 0xd2, 0x17, 0xc0, 0xbd, 0x94, 0x8c, 0xab, 0xbc,
  0x51, 0x84, 0x8c, 0x3e, 0x05, 0xb4, 0x93, 0x3c, 0x96, 0x24, 0x4e, 0x3e,
  0xd4, 0x6b, 0xb1, 0xbc, 0xe2, 0xf8, 0x99, 0x3d, 0x97, 0x9a, 0x26, 0x3e,
  0x1e, 0x2c, 0x31, 0xbe, 0xf8, 0xe3, 0x82, 0x3e, 0x90, 0xa4, 0x1a, 0x3f,
  0x5e, 0xf7, 0x1e, 0x3f, 0x14, 0x11, 0x92, 0x3e, 0x2c, 0x89, 0xd7, 0x3e,
  0x3e, 0x2f, 0x01, 0x3f, 0xb9, 0x42, 0xb5, 0x3e, 0x55, 0x53, 0x05, 0x3f,
  0x16, 0xf1, 0xc0, 0x3e, 0x1e, 0xe9, 0xac, 0x3e, 0x75, 0x60, 0x07, 0x3f,
  0x79, 0xcf, 0x03, 0x3f, 0xa4, 0xba, 0x1c, 0x3f, 0x75, 0x3c, 0x1e, 0x3f,
  0x52, 0x17, 0x58, 0x3e, 0xfd, 0x1c, 0x13, 0x3f, 0xb1, 0xa5, 0xf4, 0x3e,
  0xc1, 0x16, 0xec, 0x3e, 0x24, 0x0c, 0xe2, 0x3e, 0xbe, 0xb6, 0xb8, 0x3e,
  0xf9, 0x16, 0x1e, 0x3f, 0xbe, 0x12, 0xf8, 0x3e, 0xc5, 0x67, 0xab, 0x3e,
  0xb2, 0x8d, 0xa7, 0x3e, 0xb0, 0xd7, 0xf3, 0x3e, 0x68, 0x7a, 0xeb, 0x3e,
  0x56, 0xc1, 0xe8, 0x3e, 0x4b, 0xfb, 0xc5, 0x3e, 0x1b, 0x92, 0x39, 0x3e,
  0x47, 0xac, 0xbc, 0x3e, 0x28, 0xe7, 0xe6, 0x3e, 0x16, 0xe6, 0xa9, 0x3e,
  0x3a, 0x3d, 0xd5, 0x3e, 0xb4, 0x6c, 0x88, 0x3e, 0x12, 0x88, 0x20, 0x3f,
  0x89, 0x71, 0xb5, 0x3e, 0x14, 0xa0, 0xbc, 0x3e, 0x14, 0x38, 0x1f, 0x3f,
  0x77, 0x67, 0xa1, 0x3e, 0xd9, 0xfc, 0x89, 0x3e, 0x1a, 0xe3, 0xb0, 0xbd,
  0x4d, 0x12, 0xf6, 0x3c, 0xc4, 0xa0, 0x11, 0xbe, 0x51, 0xfa, 0x8f, 0x3e,
  0x98, 0x76, 0x2c, 0x3e, 0x94, 0x2d, 0xf5, 0xbd, 0xa0, 0x15, 0x9d, 0xbd,
  0x8b, 0x7d, 0x7f, 0x3e, 0x2b, 0xf0, 0xf0, 0xbc, 0xa2, 0xc5, 0x77, 0x3e,
  0xc8, 0x1a, 0xcc, 0x3c, 0x1e, 0x92, 0xe1, 0x3d, 0xcc, 0x1f, 0x58, 0x3e,
  0x1c, 0xdb, 0xa2, 0x3e, 0xc4, 0xc1, 0x98, 0x3d, 0x1a, 0xdc, 0x0c, 0xbd,
  0xd2, 0x38, 0xd3, 0x3d, 0x85, 0xdf, 0x80, 0x3e, 0x30, 0xab, 0x99, 0x3d,
  0xce, 0x73, 0x5d, 0x3e, 0xcc, 0x0a, 0x9d, 0xbe, 0x7e, 0x80, 0xb0, 0xbe,
  0xee, 0x78, 0xc1, 0x3c, 0x8e, 0x92, 0x46, 0xbe, 0x45, 0xa8, 0xc3, 0xbe,
  0x7d, 0xbb, 0x31, 0xbe, 0x32, 0x14, 0x5d, 0xbd, 0xe5, 0x4e, 0x57, 0xbe,
  0x20, 0x09, 0x0c, 0xbd, 0xe3, 0x76, 0x7c, 0xbd, 0x9d, 0xff, 0x0e, 0x3e,
  0xa1, 0xae, 0xd8, 0xbd, 0x47, 0x1f, 0xa0, 0xbe, 0xad, 0xd5, 0xd4, 0xbd,
  0x9a, 0x0d, 0xa0, 0xbd, 0x7c, 0x29, 0x0c, 0x3e, 0xfc, 0x9e, 0x73, 0xbe,
  0x41, 0xed, 0x41, 0xbe, 0x85, 0xb9, 0xab, 0xbc, 0x8e, 0xab, 0x1e, 0xbe,
  0x5d, 0xbe, 0x4f, 0x3e, 0x35, 0x8d, 0x3d, 0xbe, 0x3f, 0xf2, 0x41, 0x3e,
  0xc4, 0xc8, 0x00, 0x3d, 0x2c, 0x98, 0x93, 0x3d, 0xbd, 0xd6, 0x19, 0xbe,
  0xf8, 0xc1, 0xa4, 0xbc, 0x1c, 0xf2, 0x1c, 0xbe, 0xde, 0x76, 0x76, 0x3c,
  0xa5, 0x7f, 0xe0, 0xbd, 0xd7, 0xcc, 0xba, 0xbd, 0x63, 0x16, 0x7f, 0x3d,
  0x77, 0xb9, 0x2d, 0x3e, 0xd5, 0xcc, 0x4d, 0xbe, 0x4c, 0xf0, 0xc2, 0xbd,
  0xd8, 0xc6, 0x07, 0x3e, 0x0e, 0x45, 0x2d, 0x3d, 0x66, 0xcc, 0x36, 0x3e,
  0xad, 0xbe, 0x55, 0xbe, 0xfa, 0xaf, 0x49, 0x3e, 0x76, 0xc3, 0x31, 0x3e,
  0x95, 0x37, 0x61, 0x3e, 0xa7, 0x05, 0x51, 0x3e, 0x6f, 0xc5, 0x85, 0x3e,
  0xf5, 0xf7, 0xaa, 0x3e, 0x4f, 0x79, 0xd3, 0x3d, 0x0d, 0x84, 0x7d, 0x3e,
  0x0e, 0x14, 0xae, 0x3e, 0x45, 0xd6, 0x13, 0x3e, 0xc7, 0xee, 0x46, 0xbd,
  0xcf, 0x17, 0x18, 0x3e, 0x77, 0x16, 0x88, 0x3e, 0xfd, 0xda, 0x05, 0xbe,
  0x43, 0x42, 0x51, 0xbd, 0xe5, 0xcf, 0x82, 0x3e, 0x61, 0x9b, 0x17, 0x3e,
  0x1c, 0xcb, 0xeb, 0xbd, 0x65, 0xea, 0x34, 0x3e, 0xa2, 0xf3, 0x05, 0xbe,
  0x75, 0xe1, 0xac, 0xbd, 0x58, 0x25, 0x99, 0x3e, 0x30, 0x90, 0x59, 0x3d,
  0x94, 0x74, 0x70, 0x3d, 0x08, 0x43, 0xc2, 0xbd, 0x36, 0x66, 0x8a, 0x3d,
  0xe2, 0xab, 0xaf, 0x3e, 0x76, 0x31, 0x88, 0x3c, 0x79, 0xcd, 0xa2, 0x3d,
  0x4d, 0xb6, 0x97, 0x3d, 0x0d, 0xd1, 0xcb, 0x3c, 0xe4, 0x38, 0x58, 0x3e,
  0x68, 0x5a, 0x05, 0x3e, 0x6d, 0x1f, 0xdf, 0x3c, 0x2e, 0x52, 0x80, 0x3e,
  0x0a, 0xdc, 0xc0, 0xbc, 0x86, 0x1d, 0x34, 0xbc, 0xde, 0x65, 0x1c, 0xbd,
  0x44, 0x30, 0xbb, 0xbd, 0xe3, 0xc0, 0x6b, 0x3e, 0xa7, 0x47, 0xeb, 0xbd,
  0x30, 0x06, 0x54, 0xbe, 0x89, 0x61, 0xa2, 0x3d, 0xf8, 0xeb, 0x21, 0xbe,
  0x32, 0xa0, 0xe6, 0x3b, 0x7c, 0x4d, 0xd6, 0xbd, 0x10, 0x66, 0xd5, 0xbd,
  0x97, 0xf7, 0x15, 0xbc, 0x9b, 0xbe, 0x48, 0xbe, 0x73, 0xe6, 0x18, 0x3e,
  0x8c, 0x02, 0x1c, 0x3e, 0x16, 0x6b, 0x58, 0xbe, 0xa2, 0xf0, 0x97, 0x3c,
  0xae, 0x1c, 0xe1, 0xbd, 0x11, 0x76, 0x82, 0x3d, 0x90, 0xa0, 0x70, 0x3d,
  0x72, 0x3e, 0xad, 0x3d, 0xc9, 0xbe, 0xe4, 0xbd, 0xd1, 0x10, 0x79, 0xbe,
  0x45, 0x64, 0x4e, 0x3e, 0x0e, 0xfe, 0x61, 0x3d, 0x5b, 0x66, 0xf7, 0x3d,
  0x0d, 0xba, 0xa1, 0x3c, 0xb9, 0xa4, 0x0f, 0x3e, 0x47, 0xfb, 0x53, 0x3e,
  0x7e, 0x5b, 0x05, 0xbb, 0xdc, 0xda, 0x5d, 0x3e, 0x63, 0xd1, 0xc0, 0x3d,
  0x74, 0xe0, 0x1d, 0x3e, 0x20, 0x07, 0x67, 0x3e, 0x54, 0x65, 0x5d, 0x3c,
  0x03, 0x1b, 0xdf, 0x3c, 0x79, 0x85, 0x0a, 0x3e, 0x40, 0xca, 0xf8, 0x3c,
  0x65, 0x6b, 0x25, 0x3e, 0x05, 0xce, 0xd8, 0x3d, 0xfc, 0x31, 0x61, 0xbe,
  0x2c, 0x0c, 0x26, 0xbe, 0x7c, 0xf3, 0x39, 0x3e, 0xc2, 0x3d, 0x1e, 0x3d,
  0x5c, 0xcb, 0x39, 0xbe, 0xb2, 0x0b, 0x4d, 0x3e, 0xc0, 0x9a, 0x25, 0x3b,
  0x43, 0xda, 0xe2, 0xbd, 0xd0, 0x1f, 0x04, 0x3c, 0x20, 0xf8, 0xb3, 0xbc,
  0xe0, 0x38, 0xf3, 0xbb, 0xad, 0xd3, 0x13, 0xbe, 0xc0, 0x3b, 0x01, 0xbb,
  0x4e, 0x09, 0x1d, 0x3e, 0x80, 0xdd, 0xec, 0x3d, 0x28, 0xc5, 0x27, 0x3d,
  0xc8, 0x5a, 0x45, 0x3e, 0x4c, 0x80, 0xca, 0x3d, 0x00, 0xd8, 0x86, 0xb9,
  0x80, 0x3a, 0x2a, 0xbc, 0x38, 0x5e, 0x80, 0x3d, 0xa0, 0x45, 0x54, 0xbe,
  0x0f, 0x33, 0xfe, 0xbd, 0xd8, 0xf5, 0x46, 0xbe, 0xd4, 0xac, 0x91, 0x3d,
  0x62, 0x40, 0x52, 0x3e, 0x40, 0x2a, 0xea, 0xbd, 0x8c, 0x25, 0x1e, 0xbd,
  0xf0, 0x92, 0x85, 0xbc, 0x00, 0x5e, 0x2a, 0xbe, 0x1a, 0x5a, 0x2c, 0xbe,
  0x06, 0x84, 0x37, 0xbe, 0x4a, 0xc0, 0x1b, 0xbe, 0x96, 0xe9, 0x92, 0xbd,
  0xde, 0x46, 0x23, 0xbe, 0x30, 0x20, 0x6f, 0xbc, 0x48, 0x97, 0x2e, 0x3d,
  0xc0, 0x0b, 0x01, 0xbe, 0x5c, 0x39, 0x13, 0x3e, 0xe8, 0xb1, 0xdb, 0xbc,
  0xb0, 0x59, 0x15, 0xbc, 0xa9, 0xe1, 0x69, 0xbe, 0x20, 0x11, 0xbc, 0x3c,
  0x16, 0x3c, 0x18, 0x3e, 0xb8, 0x5e, 0x0a, 0x3d, 0x3b, 0x9e, 0x4a, 0xbe,
  0x87, 0x20, 0xee, 0xbd, 0xf0, 0x7b, 0xcc, 0x3d, 0xc1, 0xe9, 0xf8, 0xbd,
  0x60, 0xba, 0xa6, 0xbd, 0xc6, 0xb0, 0x41, 0x3e, 0xa0, 0xad, 0xd3, 0x3c,
  0x9c, 0x43, 0xef, 0x3d, 0x50, 0x14, 0x5e, 0x3c, 0x76, 0x0f, 0x6e, 0x3e,
  0x6e, 0x8f, 0xa6, 0xbd, 0xb0, 0x76, 0x74, 0x3c, 0x44, 0xc2, 0x2d, 0xbe,
  0x60, 0xfb, 0x4e, 0xbe, 0x40, 0x04, 0xbe, 0xbd, 0xe4, 0x7d, 0x39, 0x3e,
  0x5c, 0x32, 0x4a, 0xbe, 0xdf, 0xc1, 0x08, 0xbe, 0xa6, 0x6e, 0x4a, 0x3e,
  0x00, 0xc4, 0x3e, 0x3e, 0xd8, 0x8b, 0x68, 0x3e, 0x53, 0xcf, 0x66, 0xbe,
  0x34, 0x0a, 0x04, 0x3e, 0x40, 0x93, 0xbe, 0x3d, 0xd0, 0xb5, 0x3d, 0xbe,
  0xb2, 0x0b, 0xc6, 0xbd, 0xac, 0x08, 0x9e, 0x3d, 0x98, 0xc1, 0x0f, 0xbd,
  0x7b, 0x04, 0x51, 0xbe, 0x5e, 0xd1, 0x11, 0xbe, 0xdf, 0x08, 0x30, 0xbe,
  0x48, 0xbd, 0xc0, 0x3d, 0xb0, 0x16, 0xed, 0x3d, 0x13, 0x46, 0x5a, 0xbe,
  0xec, 0x59, 0x55, 0xbd, 0x44, 0xaf, 0x00, 0xbe, 0x7c, 0x4e, 0x05, 0xbe,
  0x8c, 0x8b, 0x97, 0x3d, 0xbe, 0xcc, 0x60, 0xbe, 0x64, 0x8e, 0x94, 0x3d,
  0xd0, 0x3d, 0x2e, 0xbe, 0x98, 0x4b, 0x5a, 0xbe, 0xd0, 0x1e, 0x25, 0xbe,
  0x80, 0x80, 0xcb, 0xbd, 0xc0, 0xca, 0x72, 0x3d, 0x2b, 0x10, 0x09, 0xbe,
  0x96, 0xf2, 0x29, 0xbe, 0x4e, 0xf7, 0xa0, 0xbd, 0x2a, 0xcc, 0x25, 0xbe,
  0x5a, 0x5a, 0x58, 0xbe, 0xb4, 0x4b, 0x6e, 0xbe, 0x1a, 0xdd, 0x25, 0x3e,
  0xf0, 0x81, 0x03, 0x3e, 0xae, 0x6c, 0xb5, 0xbd, 0xac, 0x73, 0x24, 0xbd,
  0x60, 0x56, 0xb8, 0x3c, 0x1b, 0xaa, 0x3b, 0xbe, 0xa0, 0x2b, 0xa4, 0xbc,
  0x4c, 0x94, 0xc7, 0x3d, 0x00, 0x62, 0x99, 0x3c, 0xa0, 0xc4, 0x3b, 0xbe,
  0xe0, 0x25, 0x6c, 0x3c, 0x48, 0x79, 0xd9, 0xbd, 0x98, 0x3f, 0x84, 0xbd,
  0x10, 0xd5, 0x1a, 0xbe, 0x70, 0xe9, 0xc5, 0xbc, 0xe3, 0x0c, 0x53, 0xbe,
  0xf0, 0x1d, 0x2c, 0xbc, 0x70, 0x3b, 0x16, 0xbd, 0x02, 0x24, 0x5e, 0x3e,
  0xfa, 0x49, 0xf8, 0xbd, 0x44, 0x1d, 0x0c, 0xbd, 0xd0, 0x5f, 0xbb, 0x3c,
  0xf8, 0x5d, 0xa5, 0x3d, 0x66, 0xd5, 0x41, 0xbe, 0xbc, 0x01, 0xd1, 0x3d,
  0xec, 0xf3, 0x3b, 0xbe, 0x10, 0xf0, 0xb2, 0x3c, 0x07, 0x7f, 0x15, 0xbe,
  0xb0, 0xd2, 0x9e, 0x3d, 0xe2, 0x96, 0xf3, 0xbd, 0x21, 0xf3, 0xbb, 0xbd,
  0x55, 0x75, 0x27, 0xbe, 0x16, 0x1a, 0x95, 0x3d, 0x50, 0x48, 0xfd, 0x3b,
  0x96, 0xee, 0x39, 0x3d, 0x3b, 0xc0, 0x3d, 0x3e, 0xdc, 0xec, 0x0e, 0x3e,
  0x64, 0x55, 0x3e, 0x3e, 0xf6, 0x14, 0xe8, 0x3d, 0xf9, 0x69, 0x07, 0x3e,
  0x35, 0x5e, 0x43, 0x3e, 0x0c, 0xf9, 0x85, 0x3e, 0x30, 0xd0, 0xe8, 0xbd,
  0xe8, 0x9c, 0x16, 0x3e, 0x9c, 0x63, 0xf3, 0xbd, 0xb4, 0x75, 0x0c, 0xbe,
  0x75, 0x88, 0x98, 0xbd, 0x21, 0x41, 0x89, 0xbd, 0xee, 0x93, 0x57, 0x3e,
  0x9f, 0xc7, 0xd7, 0x3d, 0x2f, 0xe6, 0x00, 0x3d, 0x45, 0x3a, 0x4f, 0xbe,
  0xe3, 0x55, 0xae, 0xbd, 0xb6, 0x86, 0xc3, 0x3d, 0xab, 0x93, 0x80, 0xbd,
  0x1c, 0x9c, 0xb7, 0x3d, 0xbe, 0x5e, 0x48, 0x3e, 0xe9, 0x22, 0x46, 0xbe,
  0xea, 0x73, 0x22, 0xbe, 0x0a, 0x15, 0x3d, 0x3e, 0x93, 0x49, 0x87, 0x3d,
  0xbd, 0xca, 0xc6, 0x3c, 0xf0, 0xb2, 0x77, 0x3d, 0x02, 0x34, 0x2d, 0x3e,
  0x3a, 0x4e, 0x27, 0x3c, 0x0b, 0xc0, 0xe8, 0xbc, 0x00, 0x35, 0x95, 0xbd,
  0x57, 0x8c, 0x16, 0x3d, 0x2e, 0x26, 0xd3, 0xbd, 0x50, 0x55, 0x96, 0xbe,
  0x8e, 0x1c, 0x06, 0xbe, 0x99, 0xb5, 0x98, 0xbe, 0x14, 0x01, 0x92, 0xbe,
  0x9a, 0x0e, 0x44, 0xbe, 0xfa, 0xea, 0xe4, 0xbd, 0x1f, 0x0e, 0x5c, 0x3d,
  0x2d, 0xa2, 0x17, 0xbe, 0xbd, 0xfc, 0xa3, 0xbd, 0x1d, 0xbb, 0x30, 0x3e,
  0x4c, 0xa4, 0x75, 0x3e, 0x29, 0xf4, 0xba, 0x3d, 0x63, 0xea, 0x34, 0x3e,
  0xec, 0x22, 0x14, 0xbe, 0xcc, 0x8d, 0x20, 0xbd, 0xa4, 0x2d, 0x21, 0xbd,
  0xbd, 0xa8, 0x2f, 0x3e, 0xad, 0x08, 0x51, 0xbe, 0xaa, 0x45, 0x0f, 0x3e,
  0x98, 0x20, 0x3f, 0xbe, 0xb8, 0x37, 0x8d, 0xbe, 0x68, 0x71, 0xc6, 0xbe,
  0x03, 0xad, 0xe4, 0xbc, 0xb7, 0xc4, 0xab, 0xbd, 0x33, 0x50, 0x44, 0xbe,
  0x40, 0x71, 0xa0, 0xbc, 0x75, 0xb0, 0x99, 0xbd, 0x36, 0x16, 0x19, 0x3d,
  0x9b, 0x31, 0xa4, 0xbe, 0x7c, 0x57, 0x42, 0x3d, 0xe8, 0x31, 0x07, 0x3d,
  0x5c, 0x4d, 0x01, 0x3e, 0x99, 0x2b, 0x27, 0xbc, 0xee, 0xb3, 0x69, 0xbe,
  0x43, 0xb7, 0x57, 0x3d, 0xa5, 0xef, 0x44, 0xbe, 0xba, 0x22, 0xef, 0x3d,
  0xc6, 0x2b, 0x2d, 0xbe, 0xc9, 0xe8, 0x74, 0xbe, 0xfc, 0xde, 0x99, 0xbc,
  0x36, 0xc0, 0x03, 0xbe, 0xb3, 0x22, 0x3f, 0x3e, 0x24, 0x31, 0x22, 0x3e,
  0xa1, 0xf9, 0x4a, 0xbe, 0xc6, 0x9a, 0x83, 0x3d, 0x7a, 0x67, 0xac, 0xbd,
  0xcc, 0x55, 0x2d, 0x3e, 0xa1, 0x9b, 0x5b, 0x3d, 0xd8, 0x0b, 0x9d, 0xbd,
  0x9e, 0x1f, 0xd8, 0xbd, 0x4d, 0x6f, 0xe6, 0xbd, 0x6d, 0xe0, 0xdb, 0x3c,
  0x3b, 0x7c, 0xa2, 0x3d, 0x9a, 0x0f, 0xfe, 0xbd, 0xa9, 0x66, 0x53, 0xbb,
  0x2e, 0x0c, 0xf2, 0x3d, 0x5e, 0x5a, 0x9b, 0x3d, 0x26, 0x2c, 0x13, 0x3e,
  0x79, 0x1b, 0x39, 0xbe, 0xda, 0x1b, 0x3e, 0x3e, 0x60, 0x84, 0x1e, 0xbd,
  0xba, 0xc2, 0xb7, 0x3d, 0xbb, 0x79, 0x2e, 0x3e, 0x83, 0x8f, 0xca, 0xbd,
  0x2c, 0x6a, 0x4e, 0x3e, 0xe1, 0x8b, 0x70, 0x3e, 0xc7, 0xe5, 0x25, 0xbe,
  0x37, 0xdd, 0x09, 0x3e, 0xbc, 0xd8, 0x6f, 0x3e, 0x19, 0x1c, 0x43, 0x3e,
  0xae, 0x55, 0x4c, 0xbe, 0xb4, 0xd5, 0x4c, 0x3e, 0x8c, 0x9c, 0x3d, 0xbd,
  0x24, 0xd9, 0x85, 0xbc, 0xff, 0x7c, 0x1d, 0xbd, 0xe6, 0xc3, 0x08, 0x3e,
  0x3c, 0xeb, 0x42, 0xbe, 0x5f, 0x10, 0x81, 0xbb, 0x7b, 0x0d, 0xee, 0x3d,
  0x71, 0xf6, 0x73, 0x3e, 0x80, 0xe8, 0x21, 0x3c, 0x74, 0x4a, 0x08, 0x3e,
  0x5c, 0x99, 0x1f, 0xbd, 0xb0, 0xe0, 0xe9, 0x3d, 0x20, 0x69, 0xfc, 0x3c,
  0x92, 0xbf, 0x9e, 0xbd, 0x9e, 0x28, 0x35, 0x3e, 0xfa, 0x91, 0x88, 0xbd,
  0x11, 0x36, 0x51, 0xbe, 0x60, 0x8f, 0xef, 0x3b, 0x0c, 0x79, 0x33, 0xbe,
  0xd3, 0xcd, 0x3b, 0xbe, 0xd0, 0x7b, 0x41, 0x3e, 0x2c, 0x87, 0x9c, 0x3d,
  0xae, 0x32, 0x24, 0x3e, 0x47, 0x75, 0x6b, 0xbe, 0x76, 0xe9, 0x56, 0x3e,
  0x68, 0x01, 0x16, 0x3d, 0x0c, 0x6e, 0x83, 0x3d, 0x08, 0x32, 0xc3, 0x3d,
  0x1a, 0x9e, 0x4a, 0x3e, 0x46, 0x58, 0xc3, 0xbd, 0xca, 0x56, 0x2c, 0x3e,
  0xd4, 0x49, 0x9b, 0x3d, 0xba, 0x06, 0x01, 0xbe, 0x42, 0x5d, 0x07, 0xbe,
  0x38, 0xf0, 0x6d, 0x3d, 0x50, 0xa3, 0x69, 0x3e, 0xec, 0x6e, 0x21, 0xbe,
  0x58, 0x8a, 0xbe, 0xbd, 0x4c, 0x25, 0x4c, 0xbd, 0xb6, 0x56, 0x13, 0x3e,
  0x24, 0x65, 0xcc, 0xbd, 0xb8, 0x2f, 0x40, 0x3e, 0x8b, 0xe9, 0x64, 0xbe,
  0xe5, 0xe0, 0x26, 0xbe, 0xd4, 0xf5, 0xd1, 0x3d, 0x5c, 0x46, 0xec, 0xbd,
  0x83, 0xaf, 0x51, 0xbe, 0x24, 0x36, 0x26, 0xbe, 0x0a, 0xac, 0x54, 0x3e,
  0xbc, 0x10, 0xf0, 0x3d, 0x9a, 0x1c, 0x6c, 0x3e, 0x00, 0x06, 0x50, 0xbe,
  0x78, 0xed, 0x19, 0xbe, 0xd1, 0xa5, 0x5d, 0xbe, 0xa0, 0x62, 0xa8, 0x3c,
  0x48, 0x71, 0xd8, 0xbd, 0x4e, 0x9a, 0xd0, 0xbd, 0xc8, 0x53, 0xb1, 0x3d,
  0x7a, 0xc5, 0x0c, 0xbe, 0x21, 0xf9, 0x45, 0xbe, 0xfc, 0x84, 0x13, 0xbd,
  0x02, 0x59, 0x0b, 0x3e, 0xec, 0x4c, 0xf2, 0x3d, 0xfe, 0x14, 0xa8, 0xbd,
  0xdc, 0xf7, 0x66, 0xbe, 0x00, 0xd4, 0xcc, 0xbc, 0x1c, 0xd8, 0xc9, 0xbd,
  0x74, 0xf2, 0x57, 0xbe, 0x36, 0x39, 0xc4, 0xbd, 0x5a, 0xce, 0xfe, 0x3d,
  0x7f, 0xff, 0xaa, 0x3e, 0x16, 0x19, 0x8b, 0x3e, 0x25, 0x32, 0x88, 0x3e,
  0x72, 0x3a, 0x9c, 0x3e, 0xa9, 0xb9, 0xf9, 0x3d, 0x27, 0x25, 0x90, 0x3e,
  0xc1, 0x16, 0x18, 0xbd, 0x9c, 0x97, 0x9c, 0xbd, 0x05, 0x33, 0x9e, 0x3d,
  0xdd, 0xf0, 0x31, 0x3e, 0xd5, 0xf2, 0xeb, 0xbd, 0xf3, 0x6a, 0x03, 0x3e,
  0x92, 0x59, 0x41, 0xbe, 0x6d, 0xb8, 0x3b, 0x3e, 0x0d, 0xa6, 0xff, 0xbd,
  0x03, 0xcd, 0x4d, 0x3b, 0x81, 0x4b, 0x25, 0x3e, 0xa3, 0xfa, 0x8c, 0x3e,
  0xb8, 0x73, 0x35, 0xbe, 0x34, 0x5b, 0x79, 0x3d, 0xab, 0xe3, 0x02, 0x3e,
  0xa8, 0x89, 0x86, 0xbd, 0x01, 0xd1, 0xb6, 0xbd, 0xec, 0x15, 0x58, 0xbe,
  0xbf, 0xb4, 0x5e, 0xbe, 0xc7, 0x7d, 0x0d, 0x3e, 0x4a, 0x9d, 0x6f, 0xbe,
  0x48, 0x1d, 0x13, 0xbe, 0x08, 0xb5, 0x3a, 0xbe, 0x7d, 0x82, 0x7a, 0xbe,
  0x74, 0x0d, 0x85, 0xbe, 0x57, 0xc1, 0x34, 0xbe, 0x96, 0x52, 0x7f, 0xbe,
  0x9e, 0x16, 0x8e, 0xbd, 0x69, 0x7a, 0xe5, 0xbd, 0x3c, 0x4e, 0x01, 0x3d,
  0x74, 0xc4, 0x8e, 0xbe, 0x0a, 0x31, 0xab, 0xbd, 0x82, 0xdc, 0x71, 0x3e,
  0x22, 0x3d, 0x80, 0x3b, 0xf4, 0xe0, 0x2e, 0x3e, 0x02, 0x06, 0x6f, 0x3e,
  0xbc, 0x1f, 0x6f, 0xbd, 0x99, 0x21, 0x63, 0xbd, 0xf5, 0x3d, 0xc1, 0x3c,
  0x27, 0xfb, 0x6e, 0xbb, 0xc5, 0xa9, 0x8a, 0x3e, 0xf1, 0xdc, 0x37, 0x3e,
  0x8f, 0x60, 0xda, 0x3d, 0x3d, 0xbb, 0x0c, 0x3e, 0x65, 0x5e, 0x28, 0x3e,
  0x75, 0x8a, 0x35, 0x3e, 0xba, 0xab, 0xb8, 0x3d, 0xda, 0x32, 0x62, 0x3e,
  0x55, 0xf1, 0xf0, 0xbd, 0x7a, 0x50, 0x85, 0xbc, 0x18, 0xab, 0xdb, 0xbd,
  0x64, 0xf1, 0x8f, 0xbd, 0xff, 0x42, 0x04, 0xbe, 0xca, 0xa8, 0x99, 0xbe,
  0x6e, 0x9b, 0xaa, 0xbe, 0xa6, 0x2e, 0x54, 0xbe, 0xe6, 0x18, 0x94, 0x3d,
  0x98, 0xf0, 0x62, 0xbd, 0x31, 0x03, 0x8a, 0xbe, 0x4f, 0x4f, 0x24, 0xbe,
  0x57, 0xc8, 0x0c, 0xbe, 0x1d, 0x2a, 0xdc, 0x3d, 0xb3, 0x53, 0x9e, 0x3d,
  0xd0, 0xa2, 0x70, 0xbe, 0x6c, 0x38, 0x2f, 0xbe, 0x4b, 0x11, 0xcf, 0x3d,
  0x71, 0x9f, 0x80, 0xbe, 0x25, 0xba, 0xc7, 0xbd, 0x5f, 0x61, 0x82, 0x3c,
  0xa5, 0xb3, 0x8b, 0xbe, 0xa6, 0x0e, 0x56, 0x3d, 0xee, 0x58, 0x8d, 0xbe,
  0xd6, 0x3d, 0x55, 0x3e, 0x98, 0x29, 0x78, 0xbd, 0x34, 0x2f, 0xc6, 0x3c,
  0x7f, 0x92, 0x17, 0x3e, 0xc9, 0xd2, 0xc4, 0xbc, 0x09, 0xeb, 0xc5, 0xbd,
  0x49, 0xab, 0x39, 0x3d, 0x4c, 0x82, 0xdc, 0x3d, 0x79, 0x73, 0xbf, 0x3d,
  0x88, 0xa6, 0x7c, 0x3d, 0x42, 0x63, 0xe3, 0x3d, 0xbc, 0xe8, 0x65, 0xbc,
  0x58, 0x7f, 0x63, 0x3d, 0x5f, 0xf8, 0x18, 0x3e, 0x47, 0x1b, 0x62, 0xbd,
  0xf1, 0x29, 0xeb, 0x3d, 0xc7, 0x6e, 0xc0, 0xbd, 0x35, 0xfe, 0x4e, 0x3e,
  0x65, 0xb2, 0x3d, 0x3e, 0x46, 0xaa, 0x11, 0xbd, 0x67, 0xf0, 0x11, 0x3e,
  0xc4, 0xfb, 0x56, 0x3e, 0x40, 0x8e, 0x38, 0xbd, 0x12, 0xdf, 0x88, 0xbb,
  0x5d, 0x71, 0x3a, 0x3e, 0x25, 0x2e, 0x06, 0x3d, 0xb5, 0xc4, 0x47, 0xbd,
  0x8f, 0x0f, 0xd3, 0x3c, 0x00, 0x59, 0xf7, 0x3c, 0xc9, 0x4d, 0xe0, 0x3d,
  0x02, 0xd7, 0x55, 0x3e, 0x1e, 0xbd, 0x9b, 0x3e, 0xd5, 0x95, 0x1f, 0x3e,
  0xef, 0x0b, 0x85, 0x3e, 0xe3, 0xc9, 0x3c, 0x3c, 0xa6, 0x31, 0xc5, 0xbd,
  0x0a, 0xe4, 0x98, 0x3e, 0x83, 0xd6, 0x44, 0x3e, 0x91, 0x32, 0xd4, 0xbd,
  0x35, 0xaa, 0xd6, 0x3d, 0x39, 0x72, 0x9c, 0x3d, 0xc4, 0xe7, 0x77, 0x3e,
  0xb8, 0x1a, 0xbf, 0xbc, 0x52, 0x67, 0x46, 0x3d, 0x22, 0x26, 0x40, 0x3e,
  0x18, 0xa2, 0xc8, 0x3d, 0xa0, 0x13, 0x3e, 0x3e, 0x71, 0x96, 0x54, 0x3e,
  0x93, 0x73, 0x58, 0x3e, 0x39, 0x96, 0x2b, 0xbd, 0x1f, 0xe4, 0x36, 0x3e,
  0xb4, 0x84, 0x1b, 0x3e, 0x3b, 0xea, 0x59, 0x3e, 0x68, 0x22, 0x62, 0xbe,
  0xe6, 0x25, 0x09, 0xbe, 0x61, 0xb8, 0x1e, 0xbe, 0xed, 0x94, 0x38, 0x3e,
  0x7e, 0xfb, 0x0b, 0xbe, 0xa7, 0xaa, 0x01, 0x3d, 0x0b, 0x90, 0x1b, 0x3d,
  0xe9, 0x34, 0x35, 0x3e, 0x9c, 0xeb, 0x4b, 0xbc, 0x4e, 0xe3, 0x30, 0x3e,
  0x98, 0xb7, 0x52, 0x3e, 0xa6, 0x21, 0x57, 0x3e, 0x37, 0x0b, 0x29, 0xbe,
  0x8a, 0x91, 0xa4, 0xbc, 0x55, 0x60, 0x62, 0xbe, 0x6a, 0x31, 0x11, 0xbe,
  0x94, 0x02, 0x9a, 0xbd, 0xc6, 0xc2, 0x91, 0x3d, 0xfe, 0xa0, 0x6c, 0x3e,
  0x33, 0x1b, 0x36, 0xbe, 0xb9, 0x5a, 0x45, 0xbe, 0xb6, 0x6f, 0x03, 0x3d,
  0x2f, 0xcc, 0xed, 0xbd, 0xf9, 0x85, 0xc6, 0x3d, 0x56, 0x35, 0x75, 0xbd,
  0xfa, 0xf6, 0x52, 0xbe, 0x2c, 0x63, 0xce, 0xbd, 0x41, 0x6d, 0x57, 0xbd,
  0x88, 0xa9, 0x59, 0x3d, 0x1e, 0x4f, 0xe3, 0x3d, 0x70, 0xf8, 0x7e, 0x3d,
  0xab, 0xa1, 0xc8, 0xbd, 0xf1, 0xb2, 0x1f, 0x3d, 0xce, 0x65, 0xd4, 0xbb,
  0xc5, 0xdb, 0x33, 0x3d, 0xa1, 0x08, 0x03, 0x3d, 0xa1, 0x4c, 0x25, 0x3e,
  0x90, 0x5a, 0x2f, 0x3e, 0x2b, 0x66, 0x2f, 0x3e, 0x64, 0x5a, 0x12, 0xbe,
  0xb9, 0x79, 0x07, 0x3e, 0xa0, 0x7c, 0x41, 0x3e, 0x50, 0x90, 0x87, 0xbd,
  0xe7, 0x79, 0x87, 0x3d, 0x59, 0xa0, 0x9e, 0x3d, 0x40, 0x9d, 0x57, 0x3e,
  0x88, 0x9c, 0x80, 0xbe, 0xf1, 0x17, 0x4b, 0xbd, 0xf0, 0xec, 0x2e, 0xbe,
  0x05, 0xe2, 0x3f, 0xbe, 0xe8, 0x2e, 0x9f, 0xbe, 0xb7, 0x42, 0xb5, 0xbe,
  0x28, 0xa3, 0x23, 0xbe, 0xdb, 0x08, 0x3e, 0xbe, 0x7d, 0x82, 0x27, 0xbe,
  0xff, 0xac, 0xf4, 0xbc, 0x86, 0x1d, 0x14, 0xbd, 0x0c, 0x1f, 0x45, 0xbe,
  0x9d, 0x71, 0xa0, 0xbe, 0xc2, 0x74, 0x9e, 0xbe, 0x35, 0x28, 0x29, 0xbe,
  0x18, 0xc8, 0x0f, 0xbe, 0xfd, 0xac, 0x16, 0xbe, 0x87, 0x33, 0xa1, 0x3d,
  0x72, 0x85, 0xd3, 0xbd, 0xf3, 0xbb, 0x9f, 0xbd, 0x54, 0x36, 0x80, 0xbe,
  0xb3, 0x1a, 0x83, 0x3d, 0xd5, 0x20, 0xb1, 0x3d, 0x82, 0x11, 0x93, 0xbb,
  0x3e, 0x8c, 0xac, 0xbc, 0x74, 0x38, 0x57, 0x3d, 0xad, 0x69, 0xb9, 0x3d,
  0x54, 0x98, 0x6c, 0xbe, 0x57, 0x15, 0x56, 0x3e, 0x98, 0xe6, 0x64, 0xbd,
  0x9b, 0x51, 0x51, 0xbe, 0xb7, 0xc2, 0x53, 0xbe, 0xbc, 0x09, 0x51, 0xbe,
  0x20, 0xbb, 0xf4, 0xbd, 0xca, 0x0e, 0x65, 0x3d, 0x1f, 0x90, 0xce, 0x3d,
  0xaa, 0xd6, 0x25, 0x3e, 0xb4, 0x55, 0xcc, 0xbd, 0xf8, 0x40, 0xf8, 0xbd,
  0x37, 0x81, 0x89, 0x3d, 0x1a, 0xbe, 0x3b, 0x3e, 0xf5, 0x48, 0x5e, 0x3e,
  0x69, 0x43, 0xb2, 0xbd, 0xff, 0x5a, 0x1f, 0x3d, 0x3d, 0xca, 0xa9, 0x3e,
  0xde, 0x1b, 0xb3, 0x3e, 0x53, 0xc1, 0x5c, 0x3e, 0x35, 0x10, 0x42, 0x3e,
  0x61, 0x6b, 0x3f, 0x3e, 0x01, 0x34, 0x09, 0x3e, 0xf5, 0xd8, 0xe6, 0xbc,
  0x43, 0x03, 0xe6, 0x3d, 0x25, 0xc2, 0x39, 0x3d, 0xc5, 0x09, 0x9b, 0x3e,
  0x77, 0x8f, 0x22, 0x3e, 0x15, 0xdb, 0xf0, 0xbc, 0xd8, 0xab, 0xc6, 0xbd,
  0x96, 0xf0, 0x3c, 0x3e, 0x39, 0x74, 0xb6, 0xbd, 0xc0, 0x79, 0x20, 0x3e,
  0x9e, 0xdb, 0xb0, 0xbd, 0x0c, 0x46, 0xbc, 0xbe, 0xfa, 0x83, 0x52, 0xbe,
  0xde, 0xad, 0xb6, 0xbe, 0x82, 0xc2, 0xa1, 0xbe, 0xb6, 0xf0, 0xb7, 0xbe,
  0xf3, 0x94, 0x8f, 0xbe, 0x91, 0xdd, 0xdb, 0xbe, 0x0d, 0xc9, 0x0e, 0xbe,
  0x20, 0x79, 0x39, 0xbe, 0x93, 0xcb, 0x68, 0xbe, 0xe7, 0xb5, 0x2c, 0xbe,
  0xcf, 0x89, 0x8e, 0xbe, 0x58, 0x38, 0x62, 0xbd, 0xcc, 0x0e, 0xdd, 0xbe,
  0x92, 0xa9, 0xdf, 0xbe, 0x4a, 0xe3, 0xba, 0xbe, 0x9c, 0x4b, 0x19, 0xbd,
  0xc1, 0xd8, 0x96, 0xbd, 0x2d, 0xa8, 0x0c, 0xbe, 0x75, 0x6a, 0xb5, 0xbe,
  0x7f, 0xf5, 0x48, 0x3e, 0x38, 0x83, 0x1c, 0x3e, 0xee, 0x6b, 0xc6, 0x3d,
  0xf5, 0xb7, 0x28, 0x3e, 0xbb, 0x3d, 0x22, 0xbd, 0xee, 0xc5, 0x70, 0xbe,
  0x67, 0xac, 0x8d, 0xbd, 0x12, 0xc7, 0x20, 0xbe, 0xda, 0x2e, 0xc4, 0x3d,
  0x31, 0xc0, 0x55, 0xbc, 0x9f, 0x9c, 0x48, 0x3e, 0xdb, 0x98, 0x1e, 0x3e,
  0x68, 0xd9, 0x5f, 0xbe, 0xa0, 0xf4, 0xb2, 0x3d, 0xea, 0x63, 0xc4, 0xbc,
  0xb0, 0x56, 0x79, 0xbd, 0x18, 0xb4, 0xe8, 0xbd, 0xba, 0x35, 0x04, 0x3d,
  0x30, 0x78, 0xc7, 0x3d, 0xb0, 0xa9, 0x69, 0xbe, 0xeb, 0xd9, 0x1f, 0x3d,
  0x2b, 0xba, 0x61, 0x3e, 0x1a, 0xbe, 0x04, 0xbe, 0x51, 0x54, 0x93, 0x3e,
  0xdf, 0x55, 0xa0, 0x3e, 0x2a, 0x6d, 0xd4, 0x3c, 0xa5, 0xd4, 0xda, 0x3d,
  0xa9, 0x7f, 0x5a, 0xbd, 0xf7, 0x0e, 0x19, 0x3e, 0x6c, 0x74, 0xf0, 0x3c,
  0x5d, 0x93, 0x60, 0x3d, 0xeb, 0x80, 0xea, 0x3d, 0x17, 0xea, 0xbe, 0x3d,
  0xcf, 0x6f, 0x7d, 0x3d, 0x24, 0x46, 0x65, 0xbd, 0xcb, 0x49, 0xc3, 0xbd,
  0xa6, 0xc4, 0xb0, 0xbd, 0xeb, 0x97, 0x75, 0x3e, 0x44, 0x2b, 0x45, 0x3e,
  0xcc, 0x12, 0xc1, 0x3d, 0xe8, 0xfd, 0x84, 0xbe, 0xd2, 0x93, 0x77, 0xbe,
  0xe6, 0x97, 0xbd, 0xbe, 0xe4, 0x4f, 0x16, 0xbc, 0x0a, 0x3e, 0x0e, 0xbd,
  0xf2, 0x0b, 0x15, 0xbe, 0x14, 0x4f, 0xdf, 0xbe, 0x8d, 0x03, 0xbd, 0xbe,
  0x09, 0x4c, 0x5c, 0xbd, 0xdd, 0xe6, 0xf7, 0xbd, 0x88, 0x3b, 0x8e, 0xbe,
  0x12, 0xa1, 0xae, 0x3c, 0x71, 0xf4, 0x0e, 0xbd, 0xc1, 0xef, 0x68, 0xbe,
  0x39, 0x0a, 0xb2, 0xbe, 0xc8, 0xec, 0x33, 0x3d, 0x14, 0x8e, 0x3f, 0xbe,
  0xbf, 0x1a, 0x9a, 0xbe, 0xdb, 0x79, 0x6c, 0xbe, 0x1b, 0xb0, 0x03, 0xbe,
  0x79, 0x8a, 0x5e, 0xbe, 0x95, 0x93, 0x8b, 0x3d, 0xe9, 0x9f, 0x2e, 0xbe,
  0x43, 0x24, 0x7a, 0xbe, 0xf7, 0xd7, 0x4e, 0xbe, 0xa1, 0x11, 0xe7, 0xbd,
  0x5f, 0x74, 0x71, 0xbe, 0x4e, 0xf2, 0x87, 0xbe, 0x11, 0xb3, 0x23, 0xbe,
  0x4a, 0x8b, 0x5b, 0x3d, 0x30, 0x05, 0x99, 0xbe, 0xe8, 0xff, 0x52, 0x3d,
  0xcd, 0xa5, 0x12, 0x3e, 0xd2, 0x16, 0x19, 0x3e, 0xd9, 0xea, 0x6c, 0xbe,
  0xc8, 0x31, 0xaa, 0x3d, 0x8d, 0x15, 0xb2, 0x3d, 0x93, 0x5e, 0x9a, 0xbd,
  0xc0, 0x8e, 0xf6, 0xbb, 0x4a, 0xd9, 0x59, 0x3d, 0xc3, 0x0c, 0x75, 0x3e,
  0x14, 0xf8, 0x43, 0x3e, 0x6d, 0x8d, 0x4c, 0x3e, 0xb9, 0x5c, 0xdd, 0x3d,
  0x2c, 0x09, 0x9e, 0x3d, 0xae, 0xb7, 0x77, 0x3d, 0xe5, 0x9b, 0x5e, 0x3e,
  0xa3, 0x84, 0x66, 0x3e, 0x08, 0xe9, 0xd8, 0xbd, 0xc9, 0xa3, 0xfc, 0xbc,
  0xd1, 0x99, 0x11, 0x3e, 0x44, 0xc0, 0x72, 0x3d, 0xb7, 0xef, 0x99, 0x3e,
  0x90, 0x79, 0xa8, 0xbc, 0xcc, 0x8d, 0x52, 0x3e, 0xdf, 0xd8, 0x2b, 0x3d,
  0x39, 0x9d, 0xa8, 0xbd, 0xb0, 0x99, 0x58, 0x3e, 0xcd, 0xa7, 0x81, 0x3e,
  0xaf, 0x7f, 0x48, 0x3e, 0x1a, 0x81, 0xa5, 0x3e, 0x51, 0x45, 0xa0, 0x3e,
  0x7a, 0xa1, 0x0b, 0x3f, 0x9f, 0xd5, 0x3a, 0x3e, 0x54, 0xa9, 0x96, 0x3e,
  0x69, 0xe3, 0x90, 0x3e, 0x01, 0x64, 0x56, 0x3e, 0xab, 0x27, 0xd4, 0x3d,
  0x71, 0x75, 0x71, 0x3e, 0xf1, 0xc5, 0xbf, 0x3e, 0xf4, 0x32, 0xcd, 0x3e,
  0x22, 0x71, 0x6e, 0x3e, 0x2d, 0xd3, 0xb4, 0x3d, 0x2b, 0xfc, 0xae, 0x3e,
  0x77, 0x75, 0xbd, 0x3e, 0x88, 0x62, 0x36, 0x3e, 0x5a, 0xae, 0x10, 0x3d,
  0x12, 0x86, 0x32, 0x3e, 0x3a, 0xac, 0x03, 0x3e, 0x50, 0x00, 0xc5, 0x3e,
  0x80, 0xad, 0x93, 0x3e, 0x41, 0xa7, 0x38, 0x3e, 0x2e, 0x90, 0x5c, 0x3c,
  0x3a, 0x97, 0x8c, 0x3e, 0xc9, 0xff, 0x9c, 0xbd, 0xf0, 0xbe, 0x45, 0x3e,
  0x15, 0x81, 0xa8, 0x3e, 0x29, 0x8a, 0xd3, 0x3c, 0x0b, 0xf3, 0xbd, 0x3d,
  0x06, 0xd0, 0xaa, 0x3e, 0xd0, 0xce, 0x75, 0x3c, 0xc0, 0x7d, 0x97, 0x3e,
  0xb4, 0x73, 0x12, 0x3e, 0x9c, 0xe3, 0xec, 0x3d, 0x03, 0xf5, 0xb8, 0x3e,
  0x02, 0xb6, 0xb6, 0x3d, 0xff, 0x42, 0x3e, 0x3e, 0xdd, 0x4e, 0xbb, 0x3e,
  0x9c, 0xda, 0x16, 0x3e, 0x1f, 0xf4, 0x99, 0x3d, 0x8d, 0xcc, 0xfe, 0xbd,
  0xd6, 0x3e, 0x49, 0x3e, 0x4a, 0xe9, 0x27, 0x3d, 0x71, 0x93, 0x6f, 0x3e,
  0xcc, 0x2e, 0x2b, 0x3e, 0x9b, 0x6f, 0x02, 0x3e, 0xa4, 0xc9, 0x00, 0xbe,
  0xe8, 0x2c, 0x50, 0x3d, 0xa9, 0xbf, 0x40, 0x3e, 0xf8, 0x17, 0x33, 0xbe,
  0x40, 0xd4, 0x33, 0x3e, 0xdd, 0xea, 0x4d, 0x3c, 0xc2, 0xe4, 0x27, 0xbe,
  0x57, 0x6f, 0x1c, 0x3e, 0xc1, 0x93, 0x60, 0x3e, 0x3b, 0x9c, 0x1a, 0xbe,
  0x83, 0x49, 0x4a, 0x3c, 0xe7, 0x0d, 0x5d, 0x3e, 0xd8, 0x24, 0x0b, 0xbe,
  0x1a, 0x6e, 0xf5, 0x3d, 0x00, 0x59, 0x8d, 0xbe, 0xae, 0xc3, 0x92, 0x3d,
  0xb8, 0x45, 0x9c, 0xbe, 0x3a, 0x65, 0x75, 0xbe, 0x73, 0x41, 0x98, 0xbe,
  0x2a, 0x8b, 0x15, 0x3c, 0x3b, 0xad, 0xe5, 0xbd, 0xa6, 0x6c, 0x02, 0xbe,
  0xa9, 0x89, 0x56, 0x3d, 0xcd, 0xf8, 0xd5, 0xbd, 0xd1, 0x46, 0x20, 0x3e,
  0xd6, 0x16, 0x51, 0x3e, 0x59, 0xfa, 0x31, 0xbd, 0xdc, 0x31, 0x30, 0x3e,
  0x84, 0x58, 0x55, 0x3d, 0x51, 0x48, 0xb6, 0xbd, 0xe1, 0x48, 0x84, 0x3c,
  0xa7, 0x55, 0x5d, 0x3e, 0xd2, 0x90, 0x35, 0x3e, 0x83, 0x06, 0x73, 0x3e,
  0x87, 0xa4, 0x91, 0x3e, 0x5f, 0x1a, 0x1d, 0x3e, 0xa3, 0xdb, 0x86, 0x3e,
  0x0c, 0x96, 0xe1, 0xbd, 0x1b, 0xbf, 0x51, 0x3e, 0x09, 0x2b, 0x91, 0x3e,
  0xc9, 0xbd, 0xb9, 0xbd, 0x54, 0x81, 0xd9, 0xbd, 0x9b, 0xfa, 0x88, 0x3e,
  0x0a, 0xb6, 0x87, 0x3e, 0x5a, 0x97, 0x6d, 0x3d, 0xf7, 0x7f, 0x30, 0xbd,
  0xf9, 0xa4, 0x93, 0x3e, 0x6b, 0xb0, 0xcf, 0x3c, 0x80, 0xd7, 0xa6, 0x3d,
  0xc5, 0xef, 0xab, 0xbd, 0x5f, 0xd1, 0x6d, 0xbc, 0xf1, 0xc9, 0x9e, 0xbc,
  0xcd, 0xc5, 0x1d, 0x3e, 0x1e, 0x71, 0x1d, 0x3e, 0xfa, 0xeb, 0x39, 0xbe,
  0x28, 0x58, 0xbd, 0xbc, 0x62, 0x89, 0x41, 0xbd, 0xb3, 0x5f, 0x34, 0xbd,
  0xa1, 0xdd, 0x19, 0xbe, 0x86, 0x72, 0xd8, 0x3c, 0xfd, 0xed, 0x09, 0x3e,
  0x4b, 0x94, 0xd1, 0xbc, 0x67, 0x18, 0x1f, 0x3e, 0x49, 0x35, 0x2d, 0xbd,
  0x7a, 0x71, 0xce, 0x3d, 0x4b, 0xae, 0x69, 0x3e, 0xa1, 0x64, 0xb3, 0xbd,
  0x17, 0x92, 0xf5, 0xbd, 0xd7, 0xc4, 0x1e, 0xbb, 0xe5, 0x0b, 0xb9, 0xbd,
  0xa5, 0x36, 0x46, 0x3d, 0x52, 0x86, 0xc1, 0x3d, 0x15, 0x96, 0x11, 0xbd,
  0x3b, 0xc0, 0x83, 0xbc, 0x3c, 0xff, 0xb5, 0xbd, 0x0e, 0x51, 0xb1, 0xbe,
  0x58, 0x6c, 0xd4, 0xbe, 0xfc, 0x60, 0xa9, 0xbd, 0xd3, 0xae, 0xa0, 0xbd,
  0xd9, 0x16, 0xf1, 0xbe, 0xbe, 0xb3, 0x42, 0xbe, 0x71, 0xa4, 0x72, 0xbd,
  0xfe, 0xbe, 0x80, 0xbe, 0x8c, 0xb7, 0xe8, 0xbd, 0x32, 0x0b, 0xa0, 0xbe,
  0xbc, 0x38, 0x18, 0xbd, 0xd5, 0x98, 0x92, 0xbe, 0x7c, 0x00, 0x52, 0xbe,
  0xee, 0x53, 0xcf, 0xbd, 0x04, 0x11, 0x99, 0xbe, 0x3c, 0x24, 0x33, 0xbd,
  0x6d, 0xd1, 0x34, 0xbe, 0x0a, 0x68, 0x41, 0xbd, 0x0d, 0xf7, 0x7b, 0xbb,
  0x93, 0xb5, 0xd2, 0xbd, 0x83, 0x8a, 0x1d, 0xbe, 0xb5, 0x5c, 0x0d, 0x3e,
  0x1e, 0x3b, 0x4d, 0xbe, 0xd3, 0xe0, 0x0e, 0xbe, 0xb6, 0x56, 0x28, 0x3d,
  0xaf, 0xd4, 0x64, 0xbd, 0xaa, 0xaf, 0xad, 0x3c, 0x12, 0x47, 0x45, 0xbe,
  0xc2, 0x17, 0x0f, 0xbe, 0xf5, 0x37, 0x61, 0x3d, 0xaf, 0x80, 0x11, 0x3d,
  0xe2, 0x96, 0x54, 0xbe, 0x06, 0x99, 0xcd, 0x3d, 0x71, 0xf6, 0x96, 0xbe,
  0xbe, 0x81, 0x96, 0xbc, 0xeb, 0xbf, 0x76, 0xbe, 0x97, 0x92, 0x83, 0x3c,
  0x5a, 0x48, 0xe6, 0xbd, 0x92, 0x4c, 0xa2, 0x3d, 0xd4, 0xd6, 0x8f, 0x3e,
  0x7f, 0x88, 0x7c, 0x3e, 0x30, 0x3e, 0x5b, 0x3e, 0xa2, 0x5e, 0x95, 0x3e,
  0xea, 0x3c, 0x54, 0x3d, 0xf4, 0x16, 0x2c, 0xb9, 0xc4, 0xa8, 0xf5, 0x3d,
  0x6a, 0x30, 0x74, 0x3e, 0xad, 0xbe, 0x8e, 0x3e, 0x00, 0x99, 0x58, 0x3e,
  0x9f, 0x81, 0xb0, 0xbd, 0x39, 0x43, 0x10, 0x3e, 0x41, 0xa0, 0x3c, 0x3e,
  0x4a, 0x86, 0x23, 0x3e, 0xa7, 0x47, 0x11, 0x3e, 0x1c, 0x65, 0xb3, 0x3d,
  0x4e, 0x4c, 0xdf, 0x3c, 0x29, 0xc3, 0x1e, 0x3d, 0xc1, 0xc5, 0x23, 0xbe,
  0x16, 0x03, 0x4a, 0xbd, 0x37, 0x91, 0xf3, 0xbd, 0x9d, 0x6e, 0x0a, 0x3e,
  0x16, 0x0b, 0x61, 0x3d, 0xbe, 0x3c, 0x2e, 0x3e, 0x37, 0x91, 0x08, 0x3b,
  0xc9, 0x3e, 0xae, 0xbc, 0x6b, 0x0b, 0x0d, 0x3e, 0x04, 0x5c, 0x6a, 0x3e,
  0xb2, 0x1a, 0x61, 0xbe, 0x42, 0xec, 0x18, 0x3e, 0xd5, 0x48, 0xd3, 0xb9,
  0xa8, 0xf4, 0xe2, 0x3d, 0xb2, 0xe0, 0x09, 0xbe, 0xf4, 0xe4, 0x10, 0x3e,
  0x74, 0xdc, 0x65, 0xbe, 0xf2, 0x58, 0x66, 0xbe, 0xdc, 0xfb, 0x5b, 0xbe,
  0x5c, 0x85, 0x5c, 0xbe, 0xb9, 0x1d, 0xff, 0x3c, 0x3c, 0x48, 0x08, 0xbe,
  0xea, 0x56, 0xec, 0x3d, 0x1f, 0x58, 0xa2, 0x3e, 0x2e, 0x7e, 0x0e, 0x3e,
  0xc2, 0xbd, 0xef, 0x3c, 0x26, 0xc9, 0x82, 0x3e, 0x85, 0x4e, 0x05, 0xbe,
  0x8b, 0x3b, 0x36, 0x3e, 0xa6, 0x64, 0x79, 0x3d, 0x6c, 0x6f, 0x8c, 0x3e,
  0x34, 0x70, 0xce, 0xbd, 0x65, 0xe7, 0x16, 0x3e, 0x4e, 0x69, 0x9c, 0x3d,
  0x0d, 0x36, 0x89, 0x3e, 0x37, 0x4f, 0x1d, 0x3e, 0xfa, 0xec, 0xc6, 0xbd,
  0x37, 0xfa, 0x6a, 0x3d, 0x9d, 0xd8, 0x87, 0x3d, 0xd8, 0x23, 0x40, 0x3e,
  0x36, 0x71, 0x0f, 0x3e, 0x6e, 0x56, 0x91, 0x3e, 0xa3, 0x46, 0x53, 0xbe,
  0xbf, 0x53, 0xe3, 0x3c, 0xad, 0xf0, 0xc1, 0xbe, 0x4f, 0xb2, 0xc8, 0xbe,
  0x94, 0x68, 0x13, 0xbe, 0xc2, 0x24, 0xd3, 0xbd, 0xd5, 0xa1, 0x59, 0x3c,
  0xff, 0xb4, 0x5a, 0xbe, 0xc5, 0x9a, 0xc7, 0xbe, 0x0c, 0xbc, 0xb6, 0xbe,
  0xa1, 0x1a, 0x07, 0xbe, 0x8d, 0x3b, 0xdc, 0xbd, 0x84, 0x18, 0xb7, 0xbd,
  0x11, 0xad, 0x63, 0xbe, 0xf2, 0xcf, 0xab, 0xbe, 0x04, 0x5d, 0x3c, 0xbe,
  0xb5, 0xfd, 0x3e, 0xbe, 0xdb, 0x75, 0xa6, 0xbd, 0x3c, 0x04, 0xb4, 0xbe,
  0xf7, 0x4a, 0x4c, 0xbd, 0xff, 0xae, 0xa8, 0x3e, 0xda, 0x38, 0xaa, 0x3d,
  0x69, 0xd6, 0x80, 0x3e, 0x7b, 0x1f, 0x21, 0x3d, 0x0d, 0x36, 0x55, 0x3e,
  0xfc, 0x8c, 0x00, 0xbc, 0x00, 0x45, 0x86, 0x3e, 0x73, 0x1e, 0x7f, 0xbc,
  0x5d, 0x72, 0x8d, 0x3e, 0x0f, 0xca, 0x87, 0x3e, 0x5a, 0xc2, 0x2c, 0x3e,
  0xe9, 0xd4, 0x09, 0xbe, 0xf9, 0xe2, 0x6c, 0x3e, 0x5f, 0x95, 0xff, 0xbd,
  0xe4, 0xf2, 0x01, 0x3e, 0xd4, 0x27, 0x72, 0x3e, 0xa1, 0x3d, 0xe3, 0x3c,
  0xb7, 0x5a, 0x61, 0x3d, 0x7a, 0x9f, 0x02, 0x3e, 0xa3, 0x6f, 0x5a, 0x3d,
  0xaa, 0xf6, 0x49, 0x3e, 0xbf, 0x49, 0xb4, 0xbd, 0xc5, 0x28, 0xf8, 0x3b,
  0xdd, 0xac, 0xbb, 0x3c, 0x8b, 0x26, 0x34, 0x3e, 0xa2, 0x89, 0xff, 0x3d,
  0xc2, 0xe6, 0xfd, 0x3d, 0x90, 0x0e, 0x2e, 0x3e, 0x9f, 0x3a, 0xe4, 0xbd,
  0x1b, 0x72, 0x06, 0x3e, 0x8f, 0x92, 0xb1, 0xbd, 0x93, 0xbc, 0x63, 0x3e,
  0x42, 0xeb, 0xae, 0x3c, 0xf1, 0xb6, 0xf4, 0x3d, 0xe6, 0xbd, 0x3e, 0x3e,
  0xaa, 0x58, 0x6f, 0x3d, 0x64, 0xc4, 0x12, 0xbe, 0x98, 0xab, 0x5d, 0xbd,
  0xae, 0x85, 0xee, 0xbd, 0x64, 0xdf, 0xd7, 0xbd, 0x95, 0xd0, 0xa6, 0x3e,
  0xe7, 0xe5, 0x6c, 0x3d, 0x3b, 0x43, 0x64, 0x3d, 0xd1, 0x9a, 0x8f, 0x3e,
  0x29, 0xf4, 0x39, 0x3e, 0x18, 0x5e, 0xbc, 0x3e, 0xfb, 0x1e, 0x81, 0x3e,
  0x1c, 0xfa, 0xa1, 0x3e, 0x28, 0x38, 0xc4, 0xbc, 0xb4, 0x66, 0x71, 0x3e,
  0x26, 0xbc, 0xdc, 0xbd, 0x86, 0x69, 0x90, 0xbd, 0x97, 0x41, 0x3d, 0xbd,
  0xe6, 0x81, 0xfc, 0xbd, 0xaa, 0x57, 0x02, 0xbe, 0x36, 0x23, 0x38, 0xbd,
  0x74, 0x51, 0x5b, 0xbe, 0xab, 0x2d, 0x92, 0x3d, 0x7c, 0x27, 0x6c, 0x3e,
  0xda, 0xcc, 0x5d, 0x3e, 0x7a, 0x7f, 0x37, 0x3e, 0xe8, 0xc0, 0x01, 0x3e,
  0xab, 0x22, 0xaa, 0x3e, 0xd5, 0xd4, 0x96, 0x3e, 0x55, 0x61, 0x4f, 0x3e,
  0x44, 0x15, 0xd1, 0x3e, 0x45, 0xcf, 0xda, 0x3e, 0xf2, 0x5e, 0xc1, 0x3e,
  0x6d, 0x6c, 0xd1, 0x3e, 0x75, 0xbc, 0x5f, 0x3e, 0xed, 0xed, 0xf8, 0x3d,
  0xdd, 0x1e, 0x2f, 0xbd, 0x18, 0x04, 0x45, 0x3e, 0x3d, 0xda, 0xd2, 0x3c,
  0xa1, 0x4b, 0x94, 0x3e, 0x69, 0xa8, 0x86, 0x3e, 0xcc, 0x46, 0xba, 0x3e,
  0x81, 0x59, 0x90, 0x3e, 0x25, 0xb5, 0x27, 0xbd, 0xa4, 0x50, 0xf4, 0x3d,
  0xdf, 0x55, 0x95, 0x3e, 0x1c, 0x4b, 0x29, 0x3e, 0x70, 0xd2, 0xfb, 0xbd,
  0x89, 0x53, 0x0a, 0x3e, 0x52, 0xdd, 0xb5, 0x3d, 0xfa, 0xef, 0x31, 0xbd,
  0x15, 0xf0, 0x0d, 0xbe, 0xb2, 0xfa, 0x18, 0x3d, 0xa7, 0x8a, 0x94, 0x3e,
  0x2c, 0xb3, 0x13, 0xbd, 0xab, 0xc3, 0xd2, 0xbd, 0xf9, 0x2b, 0x9c, 0x3d,
  0x5e, 0xef, 0xf1, 0xbd, 0x40, 0x04, 0x66, 0x3e, 0xbf, 0xa8, 0x71, 0xbd,
  0xfb, 0x6e, 0x48, 0x3e, 0x12, 0xc6, 0xa1, 0x3e, 0x05, 0xc6, 0x02, 0xbe,
  0x7f, 0x30, 0x12, 0x3e, 0x76, 0x4c, 0x41, 0x3e, 0xf1, 0x0d, 0x57, 0x3e,
  0xd8, 0xc2, 0x00, 0x3e, 0x38, 0x09, 0x52, 0xbc, 0x5b, 0x7a, 0x6b, 0xbd,
  0x22, 0x84, 0xb4, 0x3d, 0x65, 0x72, 0x01, 0x3e, 0x36, 0xd3, 0x52, 0x3e,
  0x42, 0x18, 0x8b, 0x3e, 0xcd, 0x52, 0xee, 0x3b, 0x43, 0x50, 0xc7, 0xbd,
  0x33, 0x5a, 0x7f, 0x3d, 0xb4, 0x7f, 0xf3, 0xbc, 0x38, 0xab, 0xea, 0xbd,
  0xb9, 0x1a, 0xf3, 0x3d, 0xbe, 0x43, 0x47, 0x3d, 0x8b, 0xdc, 0x00, 0x3e,
  0x2f, 0x21, 0xe9, 0xbd, 0xdc, 0xcd, 0x03, 0xbe, 0x9e, 0xba, 0x23, 0xbe,
  0xe8, 0xc5, 0x59, 0x3d, 0xd7, 0xce, 0x36, 0xbe, 0x76, 0x9c, 0x72, 0xbe,
  0xb4, 0x90, 0x9c, 0xbe, 0xae, 0xe7, 0x16, 0xbe, 0xbe, 0xce, 0x51, 0xbe,
  0xc4, 0x3f, 0x71, 0x3d, 0x8b, 0x74, 0x02, 0x3d, 0x32, 0x74, 0x07, 0xbe,
  0x9b, 0x30, 0x80, 0xbe, 0xf2, 0x9a, 0x26, 0xbe, 0xd4, 0xc3, 0x18, 0xbd,
  0x72, 0x10, 0x83, 0xbe, 0x26, 0x1d, 0x92, 0xbe, 0x5f, 0x5c, 0x3c, 0xbd,
  0xd9, 0x24, 0x8c, 0x3d, 0x00, 0xc5, 0x23, 0xbe, 0xaa, 0x32, 0x9a, 0xbe,
  0x37, 0x33, 0x52, 0xbb, 0x8e, 0x0f, 0x45, 0xbe, 0x43, 0xd4, 0xa6, 0xbd,
  0x37, 0x66, 0x5a, 0x3e, 0x9c, 0x45, 0x20, 0xbe, 0x6e, 0x6d, 0x79, 0x3e,
  0xcf, 0x21, 0x43, 0x3e, 0xe1, 0xe0, 0x04, 0xbe, 0x36, 0xdd, 0x31, 0xbd,
  0xe5, 0x4c, 0x7f, 0x3e, 0x01, 0x82, 0x49, 0xbe, 0x21, 0xa7, 0x54, 0x3e,
  0xbc, 0xea, 0x5c, 0xbc, 0x2b, 0x93, 0x89, 0xbd, 0xb0, 0x0d, 0xbf, 0x3d,
  0x1f, 0xf6, 0x75, 0x3e, 0x52, 0x66, 0x86, 0x3e, 0x53, 0xb5, 0x7c, 0xbc,
  0x5a, 0xa4, 0x81, 0x3d, 0xcd, 0x6f, 0x23, 0xbe, 0x39, 0x01, 0x17, 0x3e,
  0x29, 0xf9, 0x3b, 0x3e, 0x67, 0xa3, 0xc0, 0x3d, 0xe2, 0xb6, 0x29, 0xbd,
  0x29, 0xa4, 0x60, 0x3e, 0xb4, 0xa3, 0xa4, 0x3e, 0x53, 0xdc, 0xbb, 0xbd,
  0x38, 0xbc, 0x6d, 0xbd, 0x30, 0x3c, 0xb0, 0x3d, 0xf1, 0xb0, 0x1a, 0x3c,
  0x6e, 0x2c, 0x02, 0x3e, 0x24, 0xdd, 0xe4, 0xbd, 0xee, 0xe0, 0x9d, 0x3e,
  0x49, 0x2d, 0x27, 0x3d, 0x5e, 0xd4, 0x90, 0x3e, 0xce, 0x21, 0x14, 0x3e,
  0xf5, 0x3b, 0x87, 0x3e, 0xa7, 0x44, 0x14, 0x3e, 0x8b, 0xb5, 0x2d, 0x3e,
  0x66, 0xb5, 0x4c, 0x3e, 0xd4, 0xa6, 0x02, 0x3e, 0x0f, 0xc2, 0x31, 0xbd,
  0x19, 0x5b, 0x4d, 0x3d, 0xe4, 0x1c, 0xa9, 0x3e, 0xda, 0x54, 0xbc, 0x3e,
  0xf0, 0x97, 0x31, 0x3e, 0xd9, 0x03, 0x88, 0x3e, 0x88, 0x6f, 0x8e, 0x3e,
  0xb4, 0x81, 0xfd, 0x3e, 0x5f, 0x24, 0x08, 0x3f, 0x35, 0xa2, 0x62, 0x3e,
  0x93, 0x45, 0x02, 0x3f, 0xf7, 0x8b, 0x35, 0x3e, 0x03, 0x74, 0x92, 0x3e,
  0x2f, 0x59, 0xb6, 0x3e, 0xca, 0xfe, 0x01, 0x3e, 0x67, 0x98, 0x6b, 0x3e,
  0x1d, 0xc3, 0x8a, 0x3d, 0x4c, 0x8a, 0xeb, 0x3e, 0x46, 0xe2, 0x19, 0x3e,
  0x91, 0x8f, 0x8e, 0x3e, 0x46, 0x39, 0xd2, 0x3e, 0xeb, 0x2f, 0x6a, 0x3e,
  0xfc, 0xcc, 0x95, 0x3e, 0xe9, 0xb6, 0x89, 0x3e, 0x06, 0x14, 0xad, 0x3d,
  0x4c, 0xb0, 0x88, 0x3e, 0x1c, 0x7f, 0x8c, 0x3e, 0x8a, 0x56, 0x34, 0x3e,
  0x9f, 0x3c, 0x9a, 0x3e, 0xc9, 0xa3, 0xa3, 0x3d, 0x5b, 0x7b, 0x12, 0x3e,
  0x1e, 0x40, 0xb4, 0x3e, 0x66, 0xd0, 0x1b, 0x3e, 0x1b, 0xd1, 0xe5, 0x3e,
  0xe8, 0xac, 0xba, 0x3e, 0xbb, 0x85, 0xe6, 0x3e, 0xbe, 0xfc, 0x7a, 0x3d,
  0x4f, 0x2e, 0x8d, 0x3e, 0xbe, 0xb0, 0x84, 0x3e, 0x97, 0x1f, 0x01, 0x3d,
  0x13, 0x2f, 0x06, 0x3d, 0x2e, 0xdb, 0xe8, 0x3e, 0xf9, 0x9e, 0x59, 0xbe,
  0x93, 0x2c, 0x87, 0xbe, 0xb7, 0x37, 0x98, 0x3d, 0xcc, 0xe5, 0x24, 0xbe,
  0x7c, 0x9f, 0x3e, 0xbe, 0xfd, 0xa9, 0xf6, 0x3d, 0x1e, 0x56, 0xa1, 0xbe,
  0xc1, 0x5a, 0x9b, 0xbe, 0x39, 0xf9, 0x91, 0xbe, 0x74, 0x7d, 0x40, 0xbe,
  0xc7, 0x72, 0x47, 0x3e, 0xa6, 0xd1, 0xda, 0xbb, 0x66, 0x08, 0x20, 0x3e,
  0x09, 0xee, 0xf4, 0xbd, 0xb2, 0x4c, 0xb8, 0xbd, 0x30, 0x52, 0x37, 0xbc,
  0x04, 0x10, 0x40, 0xbe, 0x79, 0xd3, 0x24, 0x3e, 0xc7, 0xe3, 0x3b, 0x3e,
  0x7f, 0x31, 0x63, 0xbe, 0x98, 0xd1, 0xb1, 0x3e, 0x82, 0xe1, 0xa5, 0x3e,
  0xb2, 0x20, 0xef, 0x3d, 0x96, 0x7e, 0xff, 0xbc, 0x09, 0x5a, 0x28, 0x3e,
  0xcf, 0xbc, 0x87, 0x3e, 0xe3, 0xe6, 0x7e, 0x3e, 0x39, 0x94, 0xa8, 0x3d,
  0x80, 0xb2, 0x2e, 0x3e, 0x47, 0x2f, 0xe3, 0xbd, 0xdc, 0x20, 0x2a, 0xbd,
  0x99, 0x0a, 0x74, 0x3e, 0x11, 0xd5, 0xf5, 0x3d, 0xfb, 0x5b, 0xbf, 0x3d,
  0x96, 0x29, 0x33, 0xbd, 0x68, 0x93, 0xe8, 0x3d, 0x0d, 0x93, 0x80, 0x3e,
  0x17, 0x14, 0x02, 0x3b, 0xf3, 0xf0, 0x0e, 0xbc, 0x8a, 0x4d, 0xa7, 0x3e,
  0xc5, 0x67, 0xa1, 0x3a, 0xd6, 0xed, 0xd9, 0x3d, 0xb4, 0xe6, 0x12, 0xbe,
  0x03, 0xd7, 0x12, 0xbe, 0xe1, 0x25, 0x16, 0xbe, 0x22, 0xc8, 0x91, 0xbe,
  0xa1, 0xee, 0x89, 0xbd, 0x52, 0x6f, 0xbe, 0xbc, 0xa3, 0x47, 0x53, 0xbe,
  0x06, 0x8e, 0x90, 0xbe, 0x14, 0x1c, 0xc6, 0x3d, 0xba, 0xdf, 0x09, 0x3e,
  0x86, 0x53, 0x11, 0x3e, 0x07, 0x4f, 0xe1, 0x3d, 0x5b, 0x33, 0x9d, 0x3d,
  0x1c, 0xb7, 0x16, 0xbe, 0xfe, 0xcc, 0x9b, 0x3d, 0xce, 0x5c, 0x90, 0xbe,
  0x2c, 0x5f, 0x85, 0x3d, 0x4a, 0xc1, 0x0e, 0xbe, 0x32, 0xa1, 0x26, 0x3e,
  0x7f, 0xe6, 0x31, 0x3e, 0x62, 0x0d, 0x02, 0xbe, 0xc5, 0xf6, 0x8f, 0xbe,
  0xf7, 0x3b, 0xb0, 0xbd, 0x9c, 0xc2, 0x75, 0x3c, 0x05, 0xb1, 0xb1, 0xbd,
  0x19, 0xc7, 0x8d, 0x3d, 0xec, 0x07, 0x2d, 0x3e, 0x65, 0x66, 0x85, 0xbe,
  0x73, 0x1b, 0x25, 0x3d, 0xb1, 0xa1, 0xbc, 0x3c, 0xce, 0xf3, 0x0a, 0x3c,
  0x56, 0x5c, 0xc1, 0xbd, 0xff, 0x14, 0xea, 0xbc, 0xd3, 0x1b, 0xfc, 0xbd,
  0x76, 0x5a, 0x82, 0xbd, 0x75, 0xda, 0x44, 0xbd, 0x20, 0xc0, 0xf2, 0x3d,
  0x7b, 0x3c, 0x62, 0xbe, 0x94, 0x3c, 0x29, 0xbe, 0xd8, 0xad, 0x25, 0xbd,
  0xd5, 0x0a, 0x4b, 0xbe, 0xa8, 0x08, 0xb5, 0xbc, 0x90, 0xf2, 0x61, 0xbe,
  0x6e, 0xdf, 0x3b, 0x3e, 0x1c, 0x99, 0x22, 0xbe, 0x4a, 0x5a, 0x35, 0xbe,
  0x66, 0x9e, 0xb7, 0xbd, 0xa8, 0xd2, 0x34, 0xbd, 0xf0, 0xb4, 0x3f, 0xbc,
  0x08, 0x3e, 0x3c, 0x3e, 0x6d, 0xe7, 0xe2, 0xbd, 0xb0, 0x28, 0xb5, 0xbd,
  0xc8, 0x4f, 0x35, 0xbe, 0x40, 0x74, 0x25, 0x3e, 0xf0, 0xa0, 0x15, 0xbe,
  0xf0, 0x68, 0x5a, 0x3c, 0xb7, 0xbd, 0x4d, 0xbe, 0xa8, 0x68, 0x37, 0xbd,
  0x23, 0x49, 0x6b, 0xbe, 0xd2, 0x16, 0x3b, 0xbe, 0xe0, 0x02, 0x93, 0x3d,
  0xc6, 0xd4, 0x07, 0xbe, 0x0e, 0xde, 0xe6, 0xbd, 0x92, 0xaf, 0x9e, 0xbd,
  0x58, 0xb7, 0x00, 0xbd, 0x50, 0xcf, 0x39, 0x3e, 0x98, 0x2b, 0x60, 0x3d,
  0x78, 0x9c, 0x42, 0x3d, 0x04, 0x3f, 0x6c, 0x3e, 0x36, 0xe0, 0x47, 0xbe,
  0x00, 0x6a, 0x05, 0x3a, 0xf0, 0xa0, 0x1b, 0x3d, 0x58, 0xc0, 0xf5, 0xbc,
  0xda, 0x78, 0x44, 0x3e, 0x6c, 0x0a, 0x66, 0xbd, 0x30, 0x9d, 0x38, 0x3e,
  0xc7, 0xa1, 0x26, 0xbe, 0x7c, 0xba, 0x3a, 0xbe, 0xda, 0xbe, 0x52, 0x3e,
  0x80, 0xd9, 0x21, 0x3b, 0x87, 0xa1, 0xfa, 0xbd, 0x50, 0x47, 0xd7, 0xbc,
  0xc0, 0x20, 0x30, 0xbd, 0xf7, 0x8d, 0x5f, 0xbe, 0x5e, 0x9e, 0xc1, 0xbd,
  0x38, 0xb1, 0xca, 0x3d, 0x12, 0xfd, 0xcb, 0xbd, 0xf9, 0x5f, 0x58, 0xbe,
  0x10, 0xda, 0x4b, 0xbe, 0x3c, 0x1b, 0x76, 0xbd, 0x06, 0xee, 0x40, 0x3e,
  0x60, 0xa6, 0xf1, 0x3d, 0x9e, 0xfc, 0x47, 0x3e, 0x30, 0x49, 0xb0, 0xbd,
  0x20, 0x8f, 0x6f, 0x3d, 0x76, 0xf2, 0x91, 0xbd, 0xb2, 0xbf, 0x59, 0x3e,
  0x82, 0xc3, 0x32, 0x3e, 0x32, 0xfe, 0xff, 0xff, 0x04, 0x00, 0x00, 0x00,
  0xc8, 0x00, 0x00, 0x00, 0x00, 0x00, 0x00, 0x00, 0x24, 0x0c, 0x0c, 0xbf,
  0xc0, 0xa3, 0xdf, 0x3e, 0x00, 0x00, 0x00, 0x00, 0xbe, 0xba, 0x1a, 0x3e,
  0xdb, 0x15, 0xae, 0x3e, 0x1c, 0x56, 0x8c, 0x3e, 0x00, 0x00, 0x00, 0x00,
  0xa2, 0x79, 0x4b, 0xbb, 0xa1, 0xae, 0x24, 0x3f, 0xaa, 0xae, 0x45, 0x3e,
  0x8a, 0x6e, 0xff, 0xbe, 0xd7, 0x62, 0x01, 0xbf, 0xc3, 0x5f, 0x4e, 0xbb,
  0x4c, 0x7c, 0x02, 0xbf, 0x69, 0x81, 0x3a, 0xbe, 0xa7, 0x6a, 0xc8, 0x3e,
  0xd4, 0xfa, 0xe8, 0xbe, 0x0b, 0xd3, 0x10, 0xbf, 0x13, 0xd2, 0x3c, 0x3e,
  0x49, 0x5f, 0x17, 0xbf, 0xf0, 0x81, 0x47, 0xbb, 0x0e, 0x96, 0x62, 0xbe,
  0x00, 0x00, 0x00, 0x00, 0xe3, 0xf1, 0x4e, 0xbb, 0x6c, 0x2a, 0xf2, 0x3e,
  0xa0, 0x22, 0x97, 0x3e, 0xa6, 0x91, 0xec, 0x3e, 0x3e, 0x10, 0x09, 0xbf,
  0x00, 0x00, 0x00, 0x00, 0x00, 0x00, 0x00, 0x00, 0xa8, 0x50, 0x8c, 0x3e,
  0x62, 0x90, 0xf4, 0x3e, 0x00, 0x00, 0x00, 0x00, 0xf6, 0xda, 0xfc, 0xbe,
  0x77, 0x8b, 0x07, 0x3f, 0x35, 0x15, 0x03, 0xbf, 0xa3, 0x21, 0xe4, 0x3e,
  0x4e, 0xb9, 0xb0, 0x3e, 0x07, 0x5a, 0xbe, 0x3e, 0x34, 0x83, 0xb7, 0xbe,
  0x46, 0x98, 0x1d, 0x3f, 0x95, 0x52, 0x7c, 0x3e, 0x1f, 0x17, 0x92, 0x3e,
  0x73, 0x71, 0x02, 0xbf, 0x87, 0x98, 0xd5, 0xbe, 0xf6, 0x73, 0x04, 0x3f,
  0xa8, 0x12, 0x5a, 0xbd, 0x4e, 0x89, 0xc2, 0xbe, 0x00, 0x00, 0x00, 0x00,
  0x06, 0xff, 0xff, 0xff, 0x04, 0x00, 0x00, 0x00, 0x10, 0x00, 0x00, 0x00,
  0xe0, 0xd0, 0xa1, 0xbe, 0x73, 0x66, 0x8d, 0xbe, 0x14, 0x87, 0xc8, 0x3e,
  0x29, 0x59, 0xc6, 0x3e, 0x22, 0xff, 0xff, 0xff, 0x04, 0x00, 0x00, 0x00,
  0x3c, 0x00, 0x00, 0x00, 0xfe, 0x61, 0x58, 0xbe, 0xf7, 0x8e, 0xb1, 0x3e,
  0xf7, 0x1c, 0x32, 0x3e, 0xfe, 0xff, 0x63, 0x3d, 0x07, 0xf8, 0xa5, 0x3e,
  0xee, 0x9c, 0x0a, 0xbf, 0x8c, 0x3c, 0x8b, 0x3b, 0xe1, 0xe7, 0xdc, 0x3d,
  0xaf, 0xa1, 0x1c, 0x3f, 0xd5, 0xbe, 0x98, 0xbd, 0x4c, 0xd5, 0xca, 0x3e,
  0xcb, 0xcd, 0xf3, 0xbe, 0x5a, 0xd9, 0xb4, 0x3e, 0x79, 0x5d, 0x84, 0xbe,
  0x77, 0x0c, 0xd2, 0x3e, 0x5c, 0xfa, 0xff, 0xff, 0x60, 0xfa, 0xff, 0xff,
  0x0f, 0x00, 0x00, 0x00, 0x4d, 0x4c, 0x49, 0x52, 0x20, 0x43, 0x6f, 0x6e,
  0x76, 0x65, 0x72, 0x74, 0x65, 0x64, 0x2e, 0x00, 0x01, 0x00, 0x00, 0x00,
  0x14, 0x00, 0x00, 0x00, 0x00, 0x00, 0x0e, 0x00, 0x18, 0x00, 0x14, 0x00,
  0x10, 0x00, 0x0c, 0x00, 0x08, 0x00, 0x04, 0x00, 0x0e, 0x00, 0x00, 0x00,
  0x14, 0x00, 0x00, 0x00, 0x1c, 0x00, 0x00, 0x00, 0x24, 0x01, 0x00, 0x00,
  0x28, 0x01, 0x00, 0x00, 0x2c, 0x01, 0x00, 0x00, 0x04, 0x00, 0x00, 0x00,
  0x6d, 0x61, 0x69, 0x6e, 0x00, 0x00, 0x00, 0x00, 0x04, 0x00, 0x00, 0x00,
  0xcc, 0x00, 0x00, 0x00, 0x84, 0x00, 0x00, 0x00, 0x50, 0x00, 0x00, 0x00,
  0x14, 0x00, 0x00, 0x00, 0x00, 0x00, 0x0e, 0x00, 0x1a, 0x00, 0x14, 0x00,
  0x10, 0x00, 0x0c, 0x00, 0x0b, 0x00, 0x04, 0x00, 0x0e, 0x00, 0x00, 0x00,
  0x1c, 0x00, 0x00, 0x00, 0x00, 0x00, 0x00, 0x09, 0x1c, 0x00, 0x00, 0x00,
